1101111
100110010
1111111
1111011
111
11110001
1111111010110110
110111
10100110
1111111111011111
101011110
1111111011100011
1111111100010101
1111111111100101
11111111
1111111110011011
1111111101001101
1111111011001111
111100
11100010
1111111011110100
1011100
1111111110110001
111011
1111111101111110
100010101
1111111101100010
1111111010101110
1111111010101000
10111110
1111111101001101
100101000
11010011
100100011
101100
1111111110100111
1111110111111101
1111111110010111
1111111010101101
110001010
1001011
111000000
1111111001111110
1111101011110100
110101
1111110111100011
1111110001101001
1111110101010111
1111101101100010
1111110011110001
1111111010011000
1111111110101100
101011011
1111111101000111
1111111100001011
1111111011101101
1011010
11111101
1111111100000000
1110010010
101100011
10001101
101111
1111111100011011
1111111100100100
1111110000111110
1111101010110010
1111110000000010
1111001000
10001011
1111110010001011
1111101001100011
1111110010000111
1111111011101110
1111110110100101
1111100100111000
1111101011001000
1111101101001111
1111110100110110
1111111010001010
1111110110111001
1111110101110100
1111111101010100
1111111100000001
100101101
1111111110101010
1111101111010110
1111111101110011
1111111010111111
1111111101111101
100111101
11001100
1000100001
1111111010101101
11000100
1100110111
11011100
1100011010
1011101000
10010101100
10010000001
100101010
100001001
1111110111011011
11001000
1111110100110101
1111111000100110
1001011101
11001011
10111010
1111111101010010
1111111011100110
11100011
100010010
1111110111011101
1000100101
111110100
1111111100000111
110111
100001001
10011001101
11100011110
11010110111
1100010100
111110000
11010010
1001110010
1000000100
1001001111
1001010001
1111111111100010
10111010
10100110
1111110111010110
1111111111100001
1111110101010010
1101111
110110100
1001001101
1111111111000111
1111111100100110
1111111010110100
1111111110000100
101000011
10011
1111100110001110
1111111011101110
1001100011
1111111111100011
1111111010111001
1001010
1111111110011111
11101
1111111001011001
1000110001
10001001
1011010110
100101011
1111111111111000
1111100001
111111110
10010001001
1101101110
110011110
1101011111
10001010010
10010111
1111111001010010
1111111110010101
111111000
1111111010001101
1111111000101111
1111111000011110
1111111101001101
1111111111000111
1111111111110011
1111111110010111
11100101
1111111010111110
1111111100101100
1111110111001111
1111111011011110
1111111000011111
1111111101000001
1111111001110111
1111111100100001
1111110111010011
10101010
110000111
1000010101
1010100001
1110111000
11011000
10000110111
110000101
1111111110001001
1111111010011101
1111111011111111
1111110000101011
1111110010100001
1000111010
10001011101
1111110111101001
1111111110101001
1000100010
11101100
101011110
10010010
1111111100110101
1111111010011100
1111110100011111
1111111101101101
1111111011001100
1111111001100100
1111111101110110
1101111
1111111110111001
1000000010
1111000001
1001100100
1001100111
1111011011
10001010001
1111111110010001
10101011100
1100110
1111101101110101
1001000011
1100010100
100001101
101111110
1101000001
1111111110100111
111100110
1000001000
1111111001011100
1111111000100011
1111111110000101
1111110111111001
1111111110101101
1011011011
101011101
101111011
11100110
110000011
100111010
100001000
1110111010
1001111100
10000010000
11111011100
1111010010
1111111101100010
1111101011011000
1110111
110000101
1111111011101100
1111110111000110
100110001
100110001
101000111
1001011
1111111110010001
1111110111111110
1111110010101111
1111110100100000
1111110100101000
1111111101001010
1100101011
101110000
1111111001100011
10110001
1001110001
1011010011
111001001
1101111110
10011000010
1001101000
10001000111
1111101111110111
1111110101000101
1111101101011000
1111111101100111
10000100000
1111111000001011
1111111001110011
1111110111110111
1111111011101101
10010001
100001001
101100
1111111111110001
1111111111111110
1111111011001000
110111110
111000100
110111010
10011110
10010110
100100011
100001110
101111101
11101111
11011001110
10010110100
1111110101010110
10000110101
1111111110110111
1111110010010100
1010101100
1111101010100110
101100110
101000110
1111111001110001
1111111001110100
1010101001
11011111
101111110
11101111
111000110
11101011
1111111111111011
1110000100
110000011
10011011
1001101
1111111010010011
10111101
110000110
101110010
1111111110001000
1100110000
11111011100
10001010000
11111110111
1111111000111110
1111111010001100
1111111001110101
1111101001001001
1111111101110111
1111110111100010
101010110
1111111110110111
1011001101
1111111100011011
1100000100
111110110
10111010
1110110110
1001111111
101010101
1001100
100100000
110001111
101100
100010100
100000011
1011100010
10111111
101100100
100101110111
1110110001
1100110
1111110000011101
1111111111000011
1111111111001100
1111100101001011
100011011
1111110111101110
11111001
1001101111
101011001
110101010
1001010100
1111111111011111
10000101001
1110000000
1100110101
1101001011
1011100110
111110111
111000011
111001100
1010000001
110101010
100100011
10001111011
1110011110
10100110001
10011001001
10111111110
1110011011
1111110111010001
1111111010010011
1111101001010110
10101011
1111110110101101
1111100000
101011101
1111111100111111
1111111110011101
101011010
10111011
1110100011
1001100110
11000111
1101111110
10100101
111011
1111111101011101
10011110
110111010
1111111011000110
1111111110101011
1111111100110011
111110010
1011011101
111010101
1101010011
10001011110
1111111010010111
1111111000001010
1101100010
10010010
10110001
1010001101
1000001
1111110011010111
1111111010110001
1111111100101010
1111111110111110
1111111100
1010110111
1010101110
1111111000
1001001
110101111
10010110
101100001
1001110111
1111111111010010
1000100
100100010
10111101
1010100010
10111000
1111101010010101
11001110
1111110010101011
11001101
1111000000
1000100100
1010001100
1111110111011100
1111111011101101
1111111001100001
1111110111101000
1111111101000010
1111111010110110
1001010000
1011111000
1000000110
101110100
111111
1111111010100101
111000
111010011
1001010000
110110100
1001001011
101001110
1001001001
1010100
1101001111
1111110111000001
1111111110001010
10001001
11
10101011
1011011100
10111010101
1111111100101101
1111111001101000
11011011
1111110111101101
1111111110111011
1111101111110110
110001110
1010100101
1000111001
1111111110000110
1111111001001110
1111111000110011
10010001
1111111100000111
11000011
101101000
1110111111
110011000
1101101110
1111111000110000
1111101101110011
1111110001110011
111111010
1111110010001110
1010001011
100111011
10100100000
1111010111
1111100101
1010101000
10
11011101
1111111101010110
0
1000101110
10001110110
1100001010
1111110110110101
1111111010100101
1111110110000000
1111111001110111
1111111101010010
1111111010100101
11001111
1000110010
11001
111010000
1111110111011111
1111100001001100
1111100100111001
10100010
11000000
1111110000001110
1111110100000110
10000111011
1101010001
11000000000
1011001001
101101001
1111111011110111
101001000
110100100
1111111010111011
111001000
1010000111
1111111111101001
1111111000011010
1111110100011001
100101011
11011010
1111111010100000
1111111011100101
110000001
101101101
1111111111001111
1111100101011100
1111011011011100
1110010001
11010111
11110011
1111110000010001
1111111110110100
10000110111
1111101110
1000001100
10000011110
1111000101
100000111
11110110
11100101
1111111110001101
101000101
101011010
1111110100110011
1111111101110110
1111111000101110
1111111101111101
1111111101101110
1111110111111110
1101000111
11001111
10110111
1111110010110000
1111100000110100
1111100011011111
101010000
1111111011011111
1111111110101010
1111110111100011
110011101
1111111111010000
111010110
1111110010110001
10000000110
111100011
110010
101010001
1111111101001100
101100010
1010001
1111111111111000
1111111011110101
1111111100111110
1111110111001000
1000001
1111111001001001
1111111100100110
1110011
1111111010001000
1111110110000010
1111110101101100
1111010100110111
1111100010111011
1000100100
101001100
100110
1111111101000100
1001010110
1111110101010000
100100011
10000011
110001110
110110011
1111111100101100
1111111101100000
100101110
1011000001
10111100
111011010
11101011
1111111100100000
1010110
1111111110101110
1111110011111011
1111111111110001
1111111000011000
1111111000101000
1111110111000100
1111101101010110
1111011111110111
1111101011010101
1000010
1111111111010111
1111111110110111
1111111111100010
1110001010
110111111
1111111101011111
110100
1111111110100001
1111111111011100
10001101001
101100010
1011111111
1000011100
101100011
1001100011
1001011100
100100
1111111011110111
1111111111100011
1001
101101010
1111111110000001
100110001
10000000
1111111000111011
1111011100001100
1111111001100110
1111111100001110
1111111101100100
10100100
111101
1111110001100001
1010111001
1111111100011100
1111110000110001
1111110011101101
1111111011110111
111011100
1011101101
1000100001
1011101101
1100011110
1100100110
1001010100
110111110
1010100111
1111110001011011
1111111110100111
1111111101000110
1111111111110100
1111111110101100
1111101111001111
1111110111100111
1111101010100111
1111101111001101
1111101011100110
10111001
1111111101111010
10111110
1111111101010011
1111101111111100
1111100110110100
1111101010101000
111010
1111111101110010
1111110001101010
1111110100110111
1110001
1111111100010000
1000
10100001
11010000
10010110
11000011
1011
1111111010000101
1111111010010011
1111110001000010
1111011110110100
1111100001000110
1111111000101001
1111110010011011
1111110011110001
1111111001111011
1011010
11000011
1111111101111000
11001111
1100010
1111100110100100
1111111010010100
1111101011010100
1111101011100110
1111111010100000
1111111000111101
1011001
101101110
1111111100010111
1111110000000001
1111101000000101
1111100101011100
1111111010000100
110110110
1111111110110001
1111100011011110
1111010101110000
1111100001011110
1111100010100111
1111110011010101
1111101101011101
1111110010001110
11001111
1111111011011001
100011010
1111111111100011
1111111110001010
1111111111110111
1111100111101110
1111101010011011
1111011100111001
1111100100010011
1111100011101100
1111100111110010
1111110001110011
1111101111001010
1111101010110011
1111010011000101
1111011101010001
1111110011011111
1111101111110001
1111100001000111
1111110100101000
10101111
1111101111010100
1111101000101100
1111101111000100
1111111001100001
10000110
1011100
1111111101011001
100010010
