1111111010111110
1111111011111101
11000
1001111
101011001
1111111100000010
10011110
1111111100001000
11100101
11000100
1111111101111110
1111111100100110
1111111101001011
1111111111100011
111010
1111111110101001
10010011
1111111111001000
1111111011110111
1111111111010001
100000001
100011111
1111111111001101
10010111
11000111
1111111100000110
1111111100101011
10101110
10000010
1111111100111000
1111111100111000
1111111110011111
1111111111101110
1111111111111110
10101010
1111111100000101
1111111111111111
1100111
1111111011010111
1110110001
10010100111
10000111111
1111111100111101
101000
1101110011
10010100001
1111111100111101
1110111000
1110011111
101100011
101110110
1111111011100110
10111101
101011
1111111100110001
1111111100101110
1111111100111110
11000100
1111110
1010110110
1111011110
10101101
10001010
1111111101111010
1111111110111110
1111110011111001
1111110101101000
1111111110000100
1111111010100111
1111111000100101
1111111110001100
1111111111011111
1111111001001011
1111101111001000
1111111111100011
1111111000111000
100000010
1111110111100111
1111111001000010
1111110101011000
11110110
1111111101000111
1111111111001000
11010001
11111
1111111101111010
1111111011111010
1101100010
1101010111
101110110
110001011
1000010101
1111110001110011
1111101010101101
1111110100010000
1111101111100101
100110000
1111101101111001
1111101111001101
1111101000000010
1111111110010000
110011001
11110111
11111101
1011010010
1001001101
111111010
1001101101
1111111111010100
101001111
1111111001110111
1111111011100011
1101111
1111111111100101
11010100
10010110
1001101101
1001101001
1101101000
11011011
1111110010001000
1111110000111111
1111100010111100
1111100111011001
1111100010010101
1111110001111110
1111111001011111
1111111000111110
1111111100101100
111111
11100101
1111111101000001
1111110110100111
1111111100100110
1111111010101000
1110101
1111111101010111
110011011
10110100101
1101011
10101010
1111111101010010
1111111011111101
111100110
1100001100
10001001110
1111101111
11101001
1111110110100111
1111100111101100
1111010011111101
1111001100111000
1111011000111100
1111111011101100
1111111010111111
1111111101000111
1111110110000010
1111110011111111
1111101111100011
1111111110000110
1011010
1111110010111010
1111110111011111
1111110100100110
1111110001110111
1111110010100111
1011111011
10110
101011111
1111110001111111
11000001
1111111000100100
1111110100
11110111001
10010100110
1111111101100110
1111110111001010
1111100000100011
1111100010111010
1111100010010110
1111100111110111
1111110110011010
1111101101000000
1111101001000110
1111110100101011
10100101
101110111
1000100110
1000010000
111100000
110001011
1111110111111111
1111110010000001
1111111010101101
100111010
1111111110011011
100001110
11010110
1111111000101100
1111111010101010
11010000
11010001
1111111111000001
1111110011000001
1111110000111001
1111011010001001
1111101010011111
1111101000100011
1111110100011011
1111111100011101
1111110110000110
1111110111101110
11010001
1111100001
10001000100
11010100
1000011010
10010001000
1010100010
1001001000
1111111100110010
11100001
1111110111001001
11111001
1101010101
1110010
1101011
101001101
1111110110011100
1111111011001010
1111110110110010
1111110000101111
1111110000101110
1111100100111111
1111110101000111
1111101111000111
10010011
1111110101100101
1010100
1111111111001001
10000110000
10011100110
111111011
1001000110
1000100100
1100110011
1011100100
1010000111
10000001110
101010000
1111110111100111
11000011011
101000111
1010001101
1111111110101000
1111111110101011
1111111110100000
1111110100100001
1111111010010001
1111111001011000
1111111000001001
1111111100010100
1111111010111110
1111111111101100
110010010
110011011
100000100
1001001001
1101010001
1011001011
100100001
1111000101
10010111011
110101011
1111100010
11011001
11010100100
10000100001
1111111011011010
1111111110011010
11100101
1010011010
111110110
1111101110011011
1111111111000110
1111110011011111
1111110111111110
11100100
1111111110110000
10000000
1111111111011001
100110111
111010010
1111011101
10100110100
1101101110
1000010111
1111111101001111
11111010
100110111
100001000
1000010
1000111111
1110111110
11010011011
10001111010
10010111101
1111110011100100
1101000111
10101101111
1010101001
1100111
1111111100010011
1111100010110000
1111101010001000
110001110
1100110010
1111111111101100
1111111111001011
1011111101
1011000101
10011110111
1010011111
1111111101011111
1111110011011111
1111110110010101
111100
1111111110010000
1011011000
1000001011
111101001
10101100100
10110011100
10001000011
10011000000
10001010110
100001011
1111111101001110
111110100
10010100
1101100
1111110011011000
1111111011011100
1001000001
1111111110010111
1011111011
110000100
111101101
1010000
1111111011010110
1111011
1111111001100011
1111101110001001
1111111100100101
1111111100011100
101100001
1000000
101
1000001011
100110
1111111101010111
101111110
11110011010
1001001100
10110110
1010100010
1110010
1010100
1101001
1111111011101111
111011111
1111111111101101
100000100
111100000
1011100111
11010001
101000110
1111111001000110
1111111101100100
1111110101101000
1111111001100100
1111110100000101
1111111101000000
1111111001110001
1111110110110100
1111111100100101
111101101
101100111
11010111
101110010
10111111011
111001001
1011001
101000000
101100001
1111110000111011
1111111010000101
1011101110
10101101
10000000
1111001
1111111101101000
1011111
11100111
1011110
1010100
1111111100110101
1111111110100100
1111110001101110
1111111111000111
100111
1111111101010011
100111
100110000
1010011000
10010110
1111111101110100
1111110011101101
1100100111
1111111110111000
11010110
1111111011111111
1111110101001001
1111110011110110
1001110001
10100011001
1000101001
111011
1111111101101001
1111110111100101
1111111110101111
10100101
1110000
1111111010101101
1111110110101111
1111111100111110
1111110100111010
1111111101011011
1111111110101001
1111110100110111
11001101
1111111000010111
1111111111111000
10000000
110000000
1111110100111100
1111111001011110
1111111100110110
10110101
1111110011101110
1111101101010110
1111110011011110
100001110
10010000001
110110010
1111111111100100
1001001001
101000
110111111
1111110111001100
1111110101101111
1111101111100010
1111110101001001
1111110101110010
1111111010010001
11110011
1111111010011101
1111111100100100
1111110010001101
1111110110111011
1111111101101111
1111110101111101
1111110010101010
1111101101110101
1111111111000111
10000001111
1111111100011010
1111111100010100
1111101001001001
1111111101000010
1111111011001111
10000100001
1000010001
110110111
110110101
110100010
1100001
1111110001001010
1111101001101001
1111110101001011
1111111011010110
11101000
111100011
1011001010
10011111
1111111101110111
1111111000101101
1111100111001100
1111111001110001
1111111000000101
1111101011100111
1111101000000101
101011100
10010110101
10001111100
1111111111010100
1111101110101101
1111100011100001
1111110010101101
1001011001
10100001110
1111111111
1100010011
1000100100
1100
1111110100110011
1111101010010010
1111111100111010
1101100110
1011010000
101111010
1000101100
1111111100101100
1111110111001110
1111110111101110
1111101100001110
1111111101001000
1111111010101110
1111101000011110
1111101110100001
1111111100010110
1111111000110110
1010000
10011011101
11101101
1111100111100000
1111110111000001
101100000
110001100
111111100
1101010110
1111111110000111
1111111111110101
1111110101110001
1111111011110111
11011110
101010000
1111111110100110
1111111111101111
1001011111
10110100
1111111100010111
1111110101000001
1111100110111100
1111111010111000
1110111
1111110111101010
1111110111001000
1111111101110110
110
11100
10010101010
10101100100
1111101110111101
1111101101101000
100000000
1111111110010011
11011110
1100110110
111110011
10111110
1001001100
10101
111000001
100011100
1111111001111111
1111111010100000
1111111111111110
1111110010010010
1111110011000000
1111100011010100
1111011111101100
1111101111010101
1111111000000101
1111110010001100
1111111100111111
1111111101110101
1111111100111110
1111
1111110110111100
1111111010
1111110110110110
1111101111110110
1111101110010100
1111111111100001
1111111011101001
1111111010110110
1010101110
101101000
110110000
1111111100110111
1111111011110011
1111111110100010
11111
1111111001100110
1111111111101000
1111111110101101
1111110100110100
1111101000011000
1111101001001001
1111101011010101
1111110010011110
1111101110100101
1111111001001000
100111101
1111111111001000
101100
1111111101111111
1111111011010011
1000010101
1111101101111111
1111101011011101
1001111111
1000100011
110000011
110010001
110011101
10111
10010111
1111111100110000
1111111100101101
1111111111111101
1111110011011101
1111111001100111
1111110100100101
1111100000110001
1111100101010001
1111011111111111
1111111011111111
1010000011
1111111100101011
100101001
1111111100011010
1111111100011000
1010101
10000111
1111101110111000
1111111111001001
1111100101111001
1111110000010110
100111000
10010011
101000011
1111111010110001
1111111011101011
1111111110101100
1111111101101000
1111111101011100
1111110110110001
1111111011111101
1111111001110011
1111111010100110
1111111001000110
1111101011011100
1111101010001011
1111100110110011
1111111001100101
111100000
100100100
1111111010001001
1111110100010101
1111111010100101
1111111110111100
100101100
1111111100100011
1111101001110001
110101011
1111011001
1111110111000101
1111111010011001
101011010
1111111110111100
1111111101110010
1111111101101000
110101111
1111110111000010
1111101011111011
1111101100001000
1111110111010110
1111111101001110
1111111001000100
1111111100010001
11111100
1111101110000110
1111110100001100
1111111000101101
1111111101001110
1111110111010100
11110101
1111111110010001
10010
10101100
11010011
1111111100010011
11101111
1000001110
1111101111111111
1111111100000011
1111110101011101
1111111110011000
1111111100000000
1000111111
1011000010
1111110110010101
111101
1111111000100000
1011011111
100011100
1111111100001100
10010110000
10110011000
1010101011
1101100101
1111111110110010
1111111010010001
1111111011000100
10101011
1111111101001000
10001111
1111111110100001
1111111100011111
1000111010
101110101
10011111
101110010
10001101000
1010110110
1001011000
11111010
10001110010
100101000011
100000111110
10110101111
10110101
10100111011
1110110010
101000110
1100001110
1110101000
111100011
1111111111110000
1111111000000000
1111110110010011
110011101
1111111100011011
101010100
1111111011000110
10101001
101010111
1111111100001101
11001100
10010001110
10101101000
1100011100
10101111010
10010101011
10010001110
11011011110
11010110100
10110100101
101111100111
11110100
110101010
10101001010
10000110011
1101000001
1111100
1111111111011001
1011001
110011001
1111111110101011
1111111110010110
11001000
100010100
