1010101
1111111011010101
11011100
1111111110001011
1111111011000000
10001011
100101110
1111111110001011
1111111101000101
101011101
1000101
101001001
1111110111000011
1111110100111011
1111111001101111
1111111100110100
100010110
1001001
1111111110111000
11000010
10010101
1001010
101000101
1111111010111011
10100100
1111010
1111111011110100
1111111100001000
1111111101100000
1111111110111010
1111111011110111
1111111100101010
1111111111010111
1111111110101110
1111110101111011
1111111101010111
1111111011101110
1111111001000010
1111110110101101
110101000
1101000111
1001011100
1111110000110101
10000000
1111111111011100
1000001001
1111111011111000
1111111000000010
1110111
100111010
1111111001101011
1111111010011100
1111111110010111
1111111011010110
100101011
1111111011100000
1111111110101100
1111111011000000
1111111010110101
110010101
111000101
1111110111010110
1111110111111111
1111111000111110
1111111001011110
1111101010001010
1111100111000000
1111101110011100
1111011111010001
1111011011101100
1111100011111000
1111101011100010
1111101110111100
1111101010010110
1111111000001011
1111110100111101
1111101111000101
1111110100000010
1111110100011011
1111110110101110
1111101100001001
1111111010011010
1111111111000000
1111111011111001
11100000
1111111101000100
1111110001100101
100000001
1111110010011101
1111110111101000
1111110110110110
1111101110100110
1111101101010011
1111110000110000
1111110110100101
1111101001010110
1111110100100000
1111110011100010
101110010
101001000
1000111
110101100
11111100
1111101110100011
111000111
1100011000
1011100011
110011101
1001010100
1001010100
100101001
100100000
11100010
1111111111100101
1111111001000110
1000001
1111101111110111
1111100010101010
1111101000010010
1111110110000001
1111011000100000
1111110000101000
1111101111101000
1111111101101100
111011101
1111110101010011
1001101
1101001
1111111110000110
110100011
101101110
110100110
10100
101110000
1110001101
10000011101
10010010100
1111001110
10101101101
110010
1111111111011000
100011001
1111101100000010
1111100100101101
1111100100100110
1111101110100011
1111100111010101
1111101111010011
1111111010110100
10110
10011111
110110000
1011101100
1111111111100010
10110
100011011
10101000
1000111110
1111111010010111
1111111101100000
1111111101111100
1111111100110101
1111111001010001
1111111001101000
111001111
1001111111
11110101
1000010000
100000010
1111111100000111
1101101101
1111111110100000
1111110101100100
1111110111001001
1111111101000111
1111111111011101
1111111100100011
10000010
10000010
1101001010
110101000
1000000010
1010011101
1100011110
111010010
1111101011
1001011000
110010110
1010000111
10000
1111111111010111
101100
1111111011000111
10010110001
1100011010
1110110
11010110
1111111011001011
1011011011
10000010011
1111101011100000
1111101111011100
100100100
1111111001011101
1111111110101011
1111111111100101
1100110100
1000110110
10101001111
1101010000
1110011
10000001000
10000011011
1100011001
1110100001
10000
11110110
1111111001111110
1111111001110001
10111110
1111110100000000
1110100010
10000101
11101101
1111110011010000
1111111011010110
1001100110
101010010
1111101000100001
1111111100110011
100111001
100110001
101101010
1011111100
1000010011
10101101111
1111011100
1010000110
110101111
1010100100
1011001010
101100100
1011011100
1111111100101100
1001
0
11111000
11111101
10011101011
10011101100
1111110011010101
101000011
10101011001
1110010110
1111111000101101
100011110
1111111010001011
1101111
1101010111
1111111110010001
1010111
110011001
10100010011
1110101110
1010011001
101000111
100001011
1111110111110001
1000111
1010001101
111000010
100101001
101010101
1110101011
11110011
1111111100001100
10001110001
11011001100
110100010
110111001
10001011011
10110100010
1111111100010101
1111110111011000
10011110
110111001
1101110100
1010010
1001111000
1101000000
1100010110
1001110000
11111101
1111111111110100
1000000
1111111111111101
111011000
111100010
110000000
110110011
1110001101
1001110111
10010010000
100000001
1111111101110100
10100000001
1100100101
10001111100
10100100011
100
10101000101
100000110
1101110100
1100011011
100111101
1101100111
1010101111
1000111010
111001111
1111111111100000
100001101
10001100
111101101
1011001011
110101001
1110100101
110010110
1000101011
1110000000
1000110000
10011000101
10011111000
1110110100
1011011000
10110001100
1111111010101010
10001111000
11101100010
11001100111
1101100110
100011001000
10011001110
101010000
10001110100
100101101
1111111110000000
1111111100110011
1111111100110011
1111110011101011
1111111111110010
11010110
1101111011
1000010100
10010000111
111100110
100000010
10110000
1111111011100111
10000110100
11000111011
11100111
1111111111111110
10001110001
1111111100101000
1111111001000011
10111000111
100000000110
1110111011
11010111000
10101100011
1111101
10000001001
100111000
1111111010011000
1111111111000101
1111111101110001
1111110101011111
1111111111100011
10100000
111010
1011010101
1001001110
1111111
111000
10001110
101010001
111011010
1111111000000111
1111111011000011
1111111011010101
1111110101010000
1111111101011010
1111111010010000
1100110011
11011011000
1100001
11101011
1011011110
111011011
101011100
1111111101010010
10100100
100111000
1111111101111000
1111111000010101
1111111110010001
1111111100011000
10110101
111001110
11101011
10110
11111000
10111010
10011001
10110011
1111011
1111111011100011
1111111010000011
1111111000010010
1111110101111000
1111111101000011
1111111001110101
1111110010001110
1111111111100100
111001101
1001010111
1101010100
101001101
1111111110011110
1111111111010110
101101100
1000101
1111110111001100
1111111101001111
1111111001010001
1111111001010001
1001001111
1001001011
1000001111
11111000
110000100
10010000
11010110
1111111010001111
1111110011111101
1111111110000110
1111110111111011
1111110010111010
1101001111
1111111000111101
1111100111100110
1111110110111011
1011011000
1111111110001001
1001010111
1001111000
11111010
1111
1111111101100100
1111111100101111
1010011
1111111001000111
1111110110011110
1111111010100011
110010
111001100
110110100
1111111101000111
1000100011
1111111001110110
1111111011111001
1111111100000110
1111110000010000
1111100100100101
1111101010000110
1111110111001001
11000011
1111110110001110
1111101000110101
1101100
1010101
10010010
101110100
1111111100010111
1111110
1110111
101110100
110101010
101011101
1111111000011101
1111110111100111
100001111
111100001
1001101111
1000001
1111111101001101
10101000
1111110101110000
1111111000111101
1111111110111100
1110111
1111101011111001
1111111100101001
1111111100011010
10001010101
10101100
1111111101101110
1111111010011001
1101111
10001010
100100011
1111111110011011
1111111101100110
1111111010001111
1001111
111010111
1111111110001000
1111111100011011
1111111000110100
110000
111101011
11011101
1111111000100000
1111110111111000
1111111001001111
1111101101001010
1111110011110001
1111110101111111
1111101100111111
1111101000110001
11010000
1111101101011000
1111111100010001
10111001011
1111111011000011
1111110100001000
100000011
1111111100111011
1111111101110100
1111111101001111
1111111110000011
1111110111110010
1111111001101011
1111110000100111
1111111010101110
1111110100001000
1111111000110010
1111111100110101
1111111000010110
1111111100101000
1111111110100000
11111
1111111001000011
1111110000010000
1111111010110010
1111101110111111
1111111101110111
1111110011110011
1111100001010110
1111110100110100
100000111
10000000000
1111101101111101
1111011111011011
100000
1110101
1111111000010010
1111101101011100
1111111000100000
1111110001111011
1111111000101101
1111111000101011
1111110100101011
10011100
1111111001001110
1111111011100001
1111110101000101
1111110011100001
1111110000011101
101110001
1111110110111001
1111110010011010
1111111011011011
1111110010101110
111000110
1100110100
1111100101111111
1111111000000010
1111111011011001
1111110111101011
1111101001011011
1111100001000010
1111111101111000
1111111101110011
1111111011000110
1111110110011110
1111110100001011
1111110101011111
1111110101000111
1111110101000111
1111110101011111
1111111010101110
1111110101000110
1111111001011100
1111111110100001
1111110110110100
1111110101001101
1111110011011001
1111110011000010
1111111000011000
1111111010100100
1111111011100000
100011110
1111111101101010
1111101010110001
1011110
1111110110101011
1111111100100110
1111100001001001
1111101101101011
1111111110111111
1111101111111001
1111111010011111
100001010
11101100
1111111011101010
11110011
1111111111001001
1000100111
1100000
110100
1111111110010000
1111111101001001
1111111001000110
1111111010001011
1111101110111101
1111111001010100
1111101101101010
1111111101111010
111100000
1101001000
1111111001110111
1111110101010011
1000100000
1111111111101010
1111111111010101
1111110001111001
1111110110111110
1111111101110100
11100111
1111111011010000
1111111101100010
1111111011010001
1111110111100111
110110
11011000
1111111100011001
101110
1010011011
1111111110111101
100110000
11010110
1111111110011110
1111110110111000
1111111000111101
1111111010001001
11100
101011101
10010000111
110101
1111101111011000
1111111100101011
101011001
11010001
1111010101
10011010100
110010111
1000010011
1111111110011011
10000010
1111111011000010
100
1001101010
100010111
11101110
111111110
1111111111111001
101000011
11111100
1111110110110111
1111110100001111
10011000
1000110010
11111111
1001001011
11001101011
1111111101010011
1111101001110111
1111101101110010
1111111111011111
1111111100111100
1111111111011110
111100010
1001111001
1111110111011110
100110100
1111111101011011
1111111000101001
1111111110011100
1010101001
1000110000
10001001011
10001110010
10000010100
10111111100
10011010110
11010100010
11101000001
1110100111
10111111101
11000010100
10110110000
10010000100
100011101
110000111
1111111010001110
1111111010110010
1111111110110000
100010111
1000010
1111111110100111
101010101
111010010
10000110010
11010111011
11010001011
11100001010
11001100111
1111111111110101
111110010
10111011010
100100011110
110100001000
100110100010
110110000110
101000110111
10111011110
100100000011
101100100001
110000110011
101100001000
11001110011
1101101000
11011000
10111101
100001010
1111111101000001
110011
11101
1111111111011110
1111111000110001
100100100
10110110101
10100101010
11000010100
10111011001
11000100101
10011101001
100100010110
101111000100
110001000101
11011100001
100010010111
111100100110
100111101001
100010110110
11110001001
11101000100
11001000010
10100001101
100100
1111111011100111
101010001
100010100
