100001111
1111111110101000
1111111101110000
1000100
1111111011001001
1111101
1111111011000011
100000111
1111111111101101
100100001
1111111011011101
10000110
101100101
1000010001
1111111101011110
101011000
10011001
110000
11011010
101011001
1111111111101010
1111111110011101
1111111111011110
10011100
110110
1111111011011110
11110100
1111111010110101
1111111101110111
100011011
10101001
1111111101011110
1111111111010010
1010000011
1000001000
10001001010
10010000000
10110000010
10010101110
1111111101010101
1001011
1000001111
1111101111101110
1111110010101011
101101001
1010011010
10100010011
11011010001
100110101000
11000001000
10000100001
10001000001
1111111101100001
10101010
1111111111001100
1111111111101011
1111111100010000
1111111101111100
1111111110100000
1111110101111010
10010110
10000001101
10111110111
11011000010
11000111101
1010110010
1010111111
11000010001
1001101010
1111101110011110
10000111110
1101000101
1101001111
1101011100
1111111000111011
1001101010
110000110
1111001110
1111101111
11000101011
1111111101100100
1111111010100101
1111111110111100
1111111011100100
100110000
10010001
1111111010000010
1111111100111011
10100100011
10010011100
10111000000
10110110001
10011011011
10001000000
110001110
10011111111
1111111100100100
1111111111011000
1100110001
101010101
100111011
1111111011000011
1111110100111011
1111111101000111
110001
1111111101010011
1111110100010010
1111111010110110
10110010
1111111101100101
1111111100
1111111011110100
1111111110101001
111010
1111110010110110
1111110110100001
10001011010
10001101111
1110000011
101100
1111111100111100
1111111111110011
1111111100101100
1111110011111101
1111111011000011
1111111011011101
100101
1111110111110101
1111110101011111
101101
111100
10000000
1011101000
1111111101010101
1111101111010101
11010111
10000011110
1111111001011110
1111110
1001011011
11111001
11111000
1111110001101111
1100011000
11010001111
1111111101100011
1111111000100000
1111111001011101
100110101
1100011010
1111111011111111
1111110011110111
1111110101111110
1111110011100110
1111110110001000
1111111001100110
1111111000000101
10101100
1111111110001101
10010000
1111111110100010
1111110001000110
1111100101111000
110001
1001111000
1101010110
1010001101
10000001111
101001101
1111111011000000
110011100
110110001
10111100110
1111111111101000
1111111000111110
1111111110101111
10011101
1101100111
1111110111111011
10000110
1111111100101000
1111110101110001
1111110110010010
1111111111111001
111110001
1111111100111101
1111110100000111
1111110100101010
1111101101000101
1111111010001001
1111111110100010
1111110111101110
10110111
1111110111100101
1001001101
1001011110
1111111011000010
1111101100111100
1011110111
1111110010011001
10010100101
1101111110
1111111111100100
1111111110110010
1010011011
101100101
1111110001101110
1111111101000101
1111110011011111
1111110000001000
1111110101001100
1111110010100111
1111110110100111
1111001
1111110111101001
1111101101001011
1111101101000100
1111110011111001
1111110100110010
1111101110100100
1111101
11010
111001001
1000001111
1110010101
10000110
1111111100001100
1111101011110110
101001011
100010100
1111111111010110
1111110011011011
11000111
1111111001011100
1111111000110010
1111111000010001
1111110110110011
1111111101101100
1111101100010100
1111110010011010
1111110101000111
1111110110111000
1111110101101011
1111110011010110
1111111101100101
1111110111100100
1111101001101011
1111100001110100
1111110011111001
1111101101100110
1111110101000000
1111110010001011
1100011111
10000101
1111111011011110
11100010
1111111111010001
1010010110
1111111001000010
10010000
1111111101101000
1000110
110111
100100
1111111111011110
1111110100100101
1111111010011000
1111111111110011
1111111101110111
1111110010100001
1111111010000111
1111110111111001
1110010000
1111111101111010
1111110100101100
1111110100000001
1111111001010111
1111101011001001
1111111101111010
10100001100
1111011100
1111111001111111
1111110101101100
10010011
1111111011001110
1011100010
10101001
110110100
10110100
1111111111101100
1111111010100101
1111111111110010
1111110111000110
1111111001111001
1111111111111100
1100110
1111111011010001
1111111101001111
1001110
1111111100100001
1111111100110101
1111111000111010
1111110011101011
1111111111100001
101101
1110100111
1111111100000000
100100110
111110110
10000011000
10010010
11001110
1111110110101000
1111111001010100
1111111111110100
100010011
1101101
110001001
1111111110010010
100110001
1111111010010100
1111111101010011
10
100001100
1000110110
1111010101
1011110001
101000101
1111111100001100
1111111101111011
1111110110000101
1111101111110110
1111100100001011
1111110110011000
1111011101100001
1111111101111011
11010
101111000
1001110101
1111111110001101
1111101100111001
1111101111010001
1111110100011010
1111111011100101
101011110
1111111011101000
10001100
1110000000
110001010
1000100000
1101011100
101011001
1010010010
1001110100
10001110100
110111101
1100101
1111111101111110
100010111
1111110010101010
1111110011000000
1111111100000000
1111110101010100
1000110101
1111111001110100
1100101
1111111011111101
1111111001011100
1111110000001101
1111110111101110
10100110
100100000
1111111110011111
1111111001011001
1001111101
100000010
10100101
1010101111
10110100
100011010
1111010101
110010010
10100010100
1001010110
1101100
11011000
101010101
10110100101
10010000101
1111111101110111
10011001
100011100
1111111100011001
1111111101010001
1111110000100010
1111111110010010
1111111110101000
1111111101000001
10111011
11110100
110010001
1001010010
1001110011
1011000011
1000100001
110010000
1111110111001110
110001000
1010000110
1000000111
101001000
100101
101101101
111100110
10100001100
11010011010
1001111000
111001100
1111111101010110
111110011
1111111100011100
1000111100
1111110010110011
1111111101010111
110100011
1111111111101000
1000101110
110101001
11010001
1000001101
1001011010
1011011110
1001011011
1011001111
100110000
10001101010
1001011000
1100101111
1000111000
1100010111
111111111
1010101001
1110000100
101110100
1011011101
10100001111
1111111000101010
1010001100
1000101011
1111101110010101
1111110100110011
110101011
1000110111
1011011001
1000100101
1001011101
110111011
101110110
1010101011
11001101001
1010100111
11100110
1100010110
11000011100
1110110001
1100100001
100000010
1001101110
1101000111
101011111
111111011
11001111
1001101011
10100110100
1111111111011001
1010111001
10010110
1111110010100111
1101101000
1111111010011100
1111111110101001
111101010
11110111
1000011111
1111111111000110
1110100100
10011100111
11000010010
110100111
100001000
1001110111
10000001000
1010111101
1110100001
111100100
1111111110100111
0
10100110
1000111
100100011
1111111101111100
1010100000
1111111011101011
10000110110
1111110110111101
1111111110101110
1100110011
1111111110110110
111000110
10010111
1111111111000001
11111100
111010
10111001
1011100
1011010010
110111001
111011000
1101010111
1100000111
1101011001
1000111010
10101110
1111111100001010
1111110100000011
1111111000111111
1111111111101101
1000110010
1111111011101111
1001100101
1111110010000111
1111111101011111
1111111100000110
110110001
1101110
11000110001
111100000
100010011
1111110101110010
1111110011111000
1111110101101110
1111110110010101
1111111110111110
1001100010
1110001101
11001011
1011100110
1111110111
11010010
11100
110110
1111110111010000
1111101101010110
1111110010011011
1111111011101001
1001110010
1111111000111100
10101110
10100001101
1111110111110101
1111111010100110
11011101
1111111001110110
1111010011
1111111111110110
1111111100011001
1111110100000101
1111111010111111
1111110001111001
1111110111111001
1111111010101011
1010
100100111
11000000
111000001
1010010
1111111100110001
1111111101110000
1110110
1111101111100011
1111111000101100
1111110010010010
1111110110111000
1111111101011110
1111110001000110
1111111000010111
10001101010
1111110011110010
1111111011001100
1111111010001000
1111111000110010
1111111000100101
1111101110001100
1111111010110011
1111111001101100
1111111001100110
1111110111010010
1111111100101010
1111111001000100
1111111101101100
1001001
1011001
1111111110001011
1111111101101010
1111111110000101
1111111101110000
1111111101111010
1111111001000101
1111111011011111
1111110110111001
1111110011101011
1111101101110011
1111101110001000
1001010110
11010010100
10000101
1111111110101101
1111111001001101
1111110111111011
11111110
1111111100101101
1111101110011011
1111110111111100
1111111001000111
1111110011100101
1111110110111010
1111111011000101
1111101110000010
1111110100010001
1111110101110101
1111110110100000
1111110011011100
1111111110101010
1111110011000111
1111101100100101
1111111000010000
1111101110100010
1111110010010100
1111110110011110
1111101001001110
1111100011011011
10001110001
1010111100
1111111110111101
1111111010110001
1111111101110110
1111111100011001
1010010111
1111111010100001
1111110111010011
1111100100
1110100000
1111111100000010
1111101110001010
1111110010010001
1111101111111001
1111101010011100
1111011111011100
1111100101111101
1111101010111100
1111011101011111
1111100101011010
1111110101101010
1111110001000111
1111111001011100
101110110
1111111000100010
11001100
1111101110101101
1100011101
1111110100101011
1111111010100010
11100111
1010010
1111110011001100
1111111100001100
11000111
1100101
1111111111010100
1100000111
1111111111110100
1111101110100111
1111101000100100
1111101000000100
1111100100111111
1111101000101000
1111110010011111
1111100111011111
1111110100111011
1111111100011000
1111110111110001
100101001
1010101001
110100110
1001001010
1111111001111001
1111110111101100
1101010000
111001011
1111111101011011
1111111010101010
1111111110011101
1100000101
1111111010101111
10101100011
101000111
110101
1001010100
1111111010001101
1111111101001111
1111111111011000
1100010011
1111111001110111
10010110
1001000111
1010110
1001110010
100100100
1100010110
100101010
10101100111
10100100111
10100000011
1111111111000001
1111110011011000
1010100011
111111101
11110101
101000111
10011100
1111111011001110
10111001
111111010
1111110110000111
1111111110001110
1011111111
1111110110110110
1111111010001010
1111110101001010
1111111111110101
1111111110010101
1111111010101110
1111101011101000
1111110000100100
1111110001100011
1111101100101011
1111110101011001
1111110001001010
11001111
1111111001100111
1111101110100101
1111101101101111
1111111100001100
11100101
1111111100001101
100101011
101011101
110110
100100100
100001000
1011110
1111111111011001
11011010
11011001
10001111
111011000
111110
1111111100101111
1001100111
1111110111110011
1111110010110011
11011111
1010101010
100010100
100010000
1111111110001111
1111110100011101
1111101101100000
1111110011111100
1111111011101011
1111111111011100
1111111101001011
1111111011111100
1111111110100001
