1111111100001110
10110000
1001
1111111111000111
1111111011011010
1111111110110101
10110110
1010101
101001
1111111110011111
11010
1111111010111111
1000010010
101111000
1111111101011101
1111111010011101
11011100
1111111110100101
1111111111110011
11101000
1111000
11000101
1111111011111100
1111111101100010
101000000
11001000
11000001
1101100
1111111111010011
1111111011111100
1111111010101000
1111111011000000
10011001
1000
101001
1111111101000111
111101010
1111111100111100
1111111100100000
1111110111101100
1111111011010101
111
10110111
1111101111000000
1111101011101000
1111110101110011
1111111100100011
1111110010110011
1111101101000101
1111110110010100
1111110111110010
1111111011001111
101000101
1111111011111100
11001
1111111101011001
1111111010111100
1111111111110001
1111111101000110
1111110111100011
1111111110101001
1111111010011111
1111101111110011
1111110011010000
1111110100011110
1111100101100010
1111011111100010
1111101001111111
1111110111011101
1111101101000001
1111101101111110
1111010100011000
1111011101001001
1111110100000100
1111101100001001
1111100110110010
1111011011010100
1111100010010110
1111100010010110
1111100001011011
1111110001100001
1111101111100011
1111111010100100
1111111101000101
1111111011110101
1111111110011111
1111110001100100
1111111101111110
1010111111
1111110111010010
1111101010110100
1111110000000011
1111111011000010
1111101111111110
111010110
10000110001
1101011100
1111110110011100
10010000
1111111111000010
1101011
101000000
1111111101000000
1111111111000001
110100101
111011
1111111011000010
1111101111010100
1111110110000111
1111111011110010
101100000
1111111101010001
1111111111001101
1111111101000110
1111101111110111
1111111110011000
1111111110111011
1111111101110001
1111100110110001
1111101010001011
1111100010000100
1111110110100000
1111110001100010
1111111010000011
1111110110011100
1111111110001010
1111111110010011
1111110101101000
1111110111000110
1111111001010111
11000000
1000101000
1000010100
1010000100
1111111010011110
101010001
1100100110
1111111111001110
1111111110101110
1111100
100110100
1111111110011001
1111101000010111
1101000001
110101
1111110101011101
1111100100101111
1111100101000100
1111100100001010
1111101110010101
1111111111101011
10111
1111111110101000
111001000
101010101
10000010
1111111111101010
1111110111000011
1111110101110011
1111111000101110
1111111011101111
1111111001111100
1111111000000011
1110101
1111111111111011
1111110010110111
100111010
1001100101
10101111
1111110110110001
1111110011100100
1111110010001010
1111110100100010
1111101111111000
1111011101001010
1111100000010011
1111111010110011
1111110010101110
1111111011010000
10011110010
1111000110
1110100011
1111111111100001
1111101110111100
1111110001010000
1111101000111010
1111101111100010
1111110000100001
1111110100001000
1111111101010100
110000111
100110010
1001101011
1111111101010000
10000001001
1000000111
101010110
1011001
1111111100101111
1111111010100110
1111111000010100
1111100110100111
1111100001101011
1111100100111000
1111110001010111
1111101110111000
100100010
10100100100
1100111110
1100110000
1101011100
1111110110101111
1111110001010010
1111110011001000
1111101010011111
1111110001010011
1111110000010011
1111110111000111
110101111
1001101111
110000
11110101
1110101011
101001000
1001111001
1111110111111101
1111111101011001
1100010
1111111001110011
1111111010110011
1111101110111100
1111111000010000
1111100100100011
1111101010100010
1111110000100010
1111111010100101
1011001110
10110001
1000010011
1111111010111101
1111101011000011
1111110111110011
1111111010100100
1111111110010001
101110101
101001110
101100111
11101
1101101100
1001000110
1111111000010000
1111111011010101
1101010000
1111111101001101
1111110100
1111110111010001
1111110111000101
1111111011011100
1001101001
1111111101111010
1111110001101100
1111101110011000
1111101010111110
1111111110001110
111111100
1110100
111100101
1111111101001111
1111111100001001
111001110
1010000101
11100000
101100110
1010001111
10110
1000010111
10010100100
1011110000
1111111111101001
100001111
1100100001
1111111111001000
11100110011
10001111001
1111111101111000
1111111101101010
1111111000000011
10010100
1111111001011010
1111110010110011
1111110100010101
1111111011010101
101011001
1011000001
100010000
101111011
101100110
1010011110
101000001
1000010001
1001010110
1010100110
1100001001
1101011101
10100010011
11001001010
1111110001
1111110101110100
1011011101
111011010
1000000001
1001010101
1010111110
1101111
1111110110101101
110001010
1111110001001100
1111101101100110
1111110001111101
1111111000000100
100011000
100010111
1111111101111101
1110001
1110100
1011111010
111111101
1011001101
1111111110001001
10110111
11110000
1101010100
1001011011
1101100100
1000010
1111101111101101
100011011
1001010001
1111111110011111
1111111000001001
100001001
1111110110010000
1111101110101110
1111111010010111
1111111101110011
1111110010011110
1111111001000110
101110101
10101100101
1111100111
1111111110001110
1111111111101010
1111110101001000
1111111100000101
110100111
11011011
1111110101101001
1111111010101101
1111111000011110
1111011110111010
1111110101100001
1111111100000100
1111000110
1111101010000010
1111111100010010
1011010100
11111100
1111111111001010
1111110100101000
1001110100
1111111010010101
1111101
1111110011010001
1111111110101110
1100010000
1110000010
1101100001
1111110110011111
1111111001110011
1111111111011011
1111111011000100
1111111110110111
1111111111101101
1111111110000111
1111110100001100
1111110000101010
1111100110110100
1111011100110011
1111011111111011
1111110100011111
110110010
1111110001000100
10000000010
1000101111
1110010111
111011001
11100101
11110011
1111111011111010
1111111111111110
100010110
110010110
1010111000
1011111100
1010100001
101101000
1111110110101101
1111111010111001
1111111110011000
1111111011010101
1111110
1111110110001111
1111111011110110
110000110
1111111001100111
1111101100000001
1111101011011110
1111101101110000
1111110001100110
1111111110101101
1000010000
1110101110
0
1111110101001000
1011100110
1011010
1111011
1011100110
1000101100
110011001
11001010
11100011
1010010010
1111111010111000
1111110010111110
11010110
1111111000100000
110100101
1000101001
11010000
110100011
111101110
1111101101000110
1111110010000110
1111100101011011
1111101101000101
1111101011111011
1111110110000010
1010000010
1111111010000010
1111111100011011
101010000
10011000011
10001001
1111110101110010
1111111101100110
1111111110011110
1111110110111101
1111110111101001
10110110
1000000010
11111011
1111111101100111
1000001
1111110110001111
1101010100
10001010010
1001110111
10001100010
10000
1111100101110100
1111011101010010
1111101101111110
1111011111000111
1111101001001101
1111101100111001
100100001
1001010101
1111110011001010
11001101
10011001111
10110101
1111111100100010
1111111100110000
1111110111111000
1111110100101000
1111110100101011
1011110010
1011111
1111111111110111
1111111110010110
10111110
1001001000
10001000111
10001010101
1100110001
1101110111
1110011100
1111101100100101
1111101010001000
1111110000001110
1111010010011000
1111100101100111
1111111000011011
1111110000000001
10110000
1111110101000000
1111111111100000
1001111001
1111010110
1001001000
111000100
101010100
1111111000100111
11011
1110110010
10000000000
10011001
1111111110001000
1001000101
11010011
1111111111011100
1010000110
110010100
101101
1111110111001100
1111011100001011
1111100110111110
1111101101000100
1111010010001001
1111101010101101
1111110011101101
1111111000011011
1100110001
101101000
1101110010
1111010111
10010001110
1000001110
1001000001
101001100
1001001101
100111111
10001100111
1001000101
101101110
1111101111
10000111111
101011
1111111110101111
11101110
1111111100001001
1111110101101111
1111101001100001
1111100011101001
1111101110101111
1111101010100010
1111101010011001
1111111010101000
1111110011000001
101111
1010011101
11100001
1011
100010111
110000100
11010000
111111111
111000111
110101101
110111011
1000001110
10000000001
1001101010
1000101110
110011101
1111111011010100
1010111111
1111111000100011
1111110111101001
1111111010110110
1111101011100000
1111100110101110
1111100110010101
1111100101001111
1111110110010000
1111111000001100
1111111000011011
1111111011100101
1111111000100011
1111111001000111
1111110101001101
1111110100101000
11110101
1111111001011111
1111111011100100
110101
1111111110110010
1000000
1110110001
1000101100
1011000
1111111111111010
1111111111010010
1011111
1111111110101000
1111110100100111
1111111101011001
1000000
1111100101111100
1111101101010111
1111011110110100
1111111010100101
1111111110101011
1001011101
1111111101101101
111110
1111111111111000
1
1111110100001000
1111111010101101
1111110110010101
1111110110000110
1111110110001111
1111110000110000
1111111110111001
1011011100
1001110000
100110100
101010001
1111111101101100
1001000101
1111111110101000
1111111011001110
1111101010111001
11100100
1111110010101001
1111110000111000
1111110110011010
1111111001110110
1111111011001010
10101100
110111100
110001
100010111
11
1111110111011010
1111111110000101
1110110110
101010001
1111111001010001
1111111001010111
1111110111010000
10010111
1111101001
1100111110
1111111111100101
1111111010110111
10100100
1001
1111111011011010
1111101010010000
1111101101000001
1111111111010111
1111111001011000
1111110101010001
1111110100000001
1110000001
1111111010000001
1111110001111101
1111110001110001
1110010
1111111101111100
1001011
1111111010111001
10000101010
1111110110100001
1111111100110110
1111110111011111
1111110100110111
1111110101110010
11101010
1111111000110001
1111110101111101
1111101101101110
1111111111010011
11001000
1111110010000000
1111111110101101
1111101111010001
1111101110000000
1111110001100010
1111101110001011
110111101
10000101100
10011110101
1010011111
1111111010011110
1111110100110111
100011000
10
1111111110101010
1111111110110000
1111111001101110
1111111111000101
1111111010010011
1111110101110010
1111100110101101
1111100110001010
1111111010101101
1111110111001110
11000111
1111110001001100
1111111010100100
1111101101001111
1111101111001110
1111101010011001
1111010111111001
1111011100110100
1111011001101010
1111011101110011
1111110011110101
110011101
1011111111
1100111001
101011111
100001110
1111111010110001
1010011
1111111100101001
100110011
1111110110110010
1111101001100100
1111101101011111
1111101010101011
1111100010111101
1111110010001001
1111101111001001
1111101110111100
1110000
1111111110101110
1111110000010011
1111011011110000
1111101010010010
11010
1111111001101010
1111101001010011
1111110111110000
1111110101000000
1111111000011111
1111111101000111
110010111
10111011
1000010101
1111111100101100
1111111101111011
1111111101111010
1111111111101010
11100001
101000111
1010101010
1111110001
1111111100001000
1111111110001101
1111111100110110
10000100
1111111011001001
1111110010011101
1111110101001000
100100
1111100101101101
1111110011111011
10100100000
1111111111011011
1111110110001011
1111110110110011
101100101
1110011
10111
101011101
1111111011011101
100100101
11101011
1111111110000010
