1111111110001111
1000110
1111001
1111111010110001
111101
11110101
101001111
100011011
10001111
100101100
1011000
1111111101100010
1001110000
1100100
1111111
1111111110010000
101000110
100110
1111111111011101
1111111101010011
1111111011000001
100011010
1011101
1111111110011110
100110011
11111110
1111111100010111
1111111101111101
11011010
11000111
11011011
111111
11101100
111010011
1110000011
10000011111
1101001101
10011001010
1110100011
1111111101001000
11011101
1010111
1111110111011011
1011001100
1100100110
10110000111
10010101011
10100110010
1000010111
1011010100
111010101
101101110
11110110
1111111111111010
10100000
10001011
1111111111101110
1111111110111011
101100101
1100011000
1100011011
1010101011
1100101100
10001111010
10010101001
1110111
10001100100
11110101010
11101110011
1111111110000111
101101110
111001001
1110000
100011100
100011100
1111111010111101
1111111111101110
1111111111100110
1111111011101001
100010101
111100111
11100011
1111111110101100
1111111011011010
1111010
1111111101110001
1111111110101001
1011000001
1110011000
10010010011
10001011111
1110110011
1101101010
10111100011
11010001110
1100111101
11111111
10001001001
101011100
1111111101011111
11111110
1111111110010000
111011001
1111111110110011
1111110110111111
1111110001010100
11010101
1001011001
101001010
1111111111001010
1101100
100100000
100111000
1111111111001100
1111110100010010
1011
1100111010
111110110
1101010111
1110101111
1111111011100111
111010000
1100111110
111111101
1111111111110001
111100
1111111100110101
1000100001
1011001100
100010010
1111000001
1111000
110110
10000101
11110001
1111111001110100
1111110000011100
1111101101100110
1111111100101010
1111111101101100
1111111100010100
10000100
1111111100010001
100010010
1000110111
111000000
10011010
100000000
110110101
1111111110111110
1110000110
101101100
101
1111111100100101
1000
101001
11011000
1000011001
10100110011
1001000001
1111111111100011
10001110100
1011011000
10010001
1111110011100010
1111101001111000
110010010
1111111110101000
110100
1111111101011001
1110000010
1111111100100000
1100000001
1101001011
110011
1101001110
100110011
1111111011000010
11010001
11101011
1111111111101110
1111111010111001
1101111
110001
110001010
1111110110101100
1111111110000010
1111111111111010
1111110011001001
1111111100011101
1111110011100010
1111110010010011
1111110101101000
1111111011110010
101111101
1111111010000101
11010101
100010010
11000011
1111111001010100
1000010
1101010000
1010110011
100110100
10101
1001011001
110010001
101000001
11101000
11000101
11110111
1000111
1111111100110001
1111110010101000
1111110010001010
110111
1111111010000111
1111101100100100
1111101000111011
1111110001100110
1000100110
10010110
10100010
1111101111100010
100000000
1001010
1100101011
1111111101000110
1000001110
1011101110
1111111111111111
1111111010000011
1000001010
1010110001
100101011
110011000
1111111100111111
1111111010011000
111000101
1111111011101010
1111110101000000
1111110100101100
1111110100100010
1111111010000110
1111111010001001
1111111101001110
1001
1111110101100010
1111111111000110
1111111000111000
1111101111100101
1111110001110000
111110
110111011
10011001010
10010100
110011011
1000001011
110001100
1011000011
1001010000
1101010111
100111110
101010000
1111111101100100
1111111001110110
1111111011001000
1111111111101010
1111111011101110
1111111001111101
1111111010010111
1111111001011100
1111111100000111
1111111001011110
1111110010010010
1111110111100010
1111111111100011
1111111111110101
1111110011011110
111100
11001110
1111111110010011
1010111000
1111111010111101
1111111110010011
10011110010
10100100011
1000110110
1011011101
1101101011
101101111
1001101
1111111011110010
1111110000100100
1111110111010101
110010011
1111111111111101
1111111100001110
101100010
1111111010101101
100100110
1111011
1111111111000110
110011111
1011100
1001101101
1010000
1111111100101010
100
1111101000100010
1111111011000100
1111101111001011
1111110100011000
101111110
1111101001
110001101
100100001
1001110
1111111111101101
1111111001101110
1111110000110001
1111101010010011
1111111000011100
1111111110000100
10010011101
1111100011
1111110001
1100001001
1111110111
1010111101
1011111101
1101101110
1100011111
1111111000100100
1111110101101110
10000000
10000000
1111111000111000
1000000110
1111111000010101
110101110
10011100
10001000011
101000001
1001110101
1010100101
1111111100000100
1111110100010100
1111100011011011
1111101010011011
1111110000011001
1111111011001010
1000010111
1000010001
111101100
1111010
110100110
111111101
1011100100
11010000100
1000010000
1111110110010001
1111111001010110
111010111
11000100
110001010
11000010100
1111111011011000
111001111
100000011
1010100101
11000100
1001111101
1011000110
100110010
1111110100010100
1111101000000011
1111100110011101
1111110001101011
1111111010101110
1111110110100111
1111111000001000
1111111110011100
1111111101001010
1111111101010001
100100001
1001001011
10110111001
1000100111
10100111
1111111101111000
100111101
101001111
11000000
1010011110
1111111010001010
1101101110
1000100000
1000000100
111010011
1011101000
100010000
1111111100110011
1111110001001001
1111110100100100
1111110110010010
1111111101001000
1111110100101110
1111111011000011
1111111001001110
11100011
100011
1111111111011011
10100101
1101010000
1111101111
101001010
1101111
11111110
1111111100111010
11001
1111111001000010
1111101110010010
1111110000001110
1111100001
1011100101
1010110110
1101110111
100100001
100010001
1111111100111110
1111110010101010
1111110010000110
1111111110110111
1111111101111111
1111110011110011
1111110001111001
1111110110011010
1100111110
1111111110011001
1010101
1101100000
1111111110110001
1111111111111101
11111011
101110100
1111111110010001
1111110010010000
1011100101
1111110010111111
1111110010010111
1111101011101111
1111111100010100
10001010110
11000101
1110100000
1100100011
11011011
1111111001011010
1111101111100001
1111101101100001
1111111010011000
1111111010011000
1111110101011111
1111101110010000
1111110000011100
1111111111011001
11000110
10010
110111011
1
100011001
111100110
1110010110
101110011
1111110010000101
101011000
1111111100111000
1111110011000000
1111111100100100
1111111111101010
1110010010
1111111101101010
100011111
110111000
1111111100011010
101010100
1111111011101010
11000111
1111111101100011
1111111011011011
1111100111011011
1111110100111010
1111110111011100
1000111000
110100101
100111110
1000100110
1000000000
100000010
10001101
10010010001
1001001111
1111110110110000
11
1111111000000010
1111101000101101
1111110110100011
1111111001100001
1111111011010101
1111111011011100
1110000000
100010000
10001001
1011100000
111101100
101101001
100111101
1111110111111101
1111100111110001
1111110010001110
10110111
11111100
1111111011010111
1010111
1111111111100010
101001001
1111111111001011
1111111010000011
1101110010
1111110111011110
1111110110100101
1111111011000001
1111111101111100
1010101101
1001010101
1111111111010110
1111111101111000
1111111111000101
1110010000
1110011001
1111010
1000101001
10000011000
1000010001
1111110011100100
1111101101101011
1111101100010000
1111111001111001
101000010
1111111111011001
1111111110110010
11011
10101110
1111111110000011
1111110101000000
1111111010101000
1100000011
1111111110000100
1111111101101101
1111111111100010
1111110111001001
100100010
1011001011
1010111001
1100110100
10001
10100100
1001110
101100101
1000111001
110110101
11111
1111111100111111
1111111011000001
1111111010010011
11001101
11101011
110001000
10111110
1111111100011111
1111111100111101
1111110110010111
1111110011101000
1000110100
11100011100
101011111
0
1111111101111101
1111101111111111
1111111010101011
1111111100000110
1111111100100100
1110101010
100001101
1111110111101000
11011100
110011001
1111010010
1011110101
10100100
100010111
1000111010
1011101000
11000000
111101001
1111111100101100
1001101
1111111100101000
1111110011111001
1111111100101100
1111110110010001
111000110
11000111110
111100100
101001011
101010001
1111111110100011
101111100
1111110110100100
1111111111011010
100001000
1111111010101101
1001010
100011000
11000
1000000
10011000
1111111011011001
100101010
101111111
1010111001
10000001001
100111011
11101001
111001
11101001
1111111000011001
11111001
1111111111101101
1111110100001011
10010100001
111101001
1111111100011001
1111111101011001
100001111
1111111011110101
10110000
1111110110110110
1110010001
11101
1111110111010101
1111111110100010
1111111101101101
111001
1111111111000000
101001010
110011101
100011001
111011101
110101001
1011010000
1111111111111001
1111111110001110
1001010110
100110
1100011000
1111111000101011
1111110101111100
1111010110
1111111101111111
110001
1011110
1111111110101001
11001001
1100110011
10001001101
10011111101
1111111100011001
1111110000011011
1111111101100000
110010
10000100
1111111010001010
11100
1111111100100101
1111110001011011
100010111
1100110
1001100011
101110111
11001000
1110110111
1011000000
1100000001
111001100
10001001010
1011001101
11111011
11001001
1000010
1111111100101000
10001001000
1111111100011000
1001011011
1011101001
1111110110001100
1111111000001011
1111111011100001
1111110100100111
1111100001010011
1111101100111101
1111110010001100
1111110111011101
1111110111001100
1111111101101100
1011111011
11100011
110001010
110011000
10010111100
11010100111
11110000111
101110111
10011101011
1000111101
110110
1111111011101001
1111111101000000
110101
1000100
1111111100101001
11110
100101
110011110
1000000010
10010000
10111000
1111101101001111
1111111100101000
101010011
10110001
1011110111
1011010010
1000111100
101111110
1010000011
100010001100
11010111111
11011001001
11101101001
10101000000
1001110000
100001011
1111111110010001
1001101
101010101
101011110
11100010
10001111
1111111011011010
1111111100101000
111110000
111100101
1111010100
1101100111
10000100
10111110
11101001010
1110100010
1101110001
1111111010111010
1111110010011101
1111111100001110
1100010001
1000101001
1010101011
10001000000
10001000111
1110010
10010110
110100
1111111100010111
1111111100010001
