11110001
1111111101111011
1111111110000100
1111111110101111
1111111011011010
1111111100011101
1111111101101011
101001001
100110100
1111111011111111
10001101
10011000
1011010110
1001110011
1111111111110100
10111011
1101100
11011
1111111011000010
100100101
1111111011100100
100110010
1111111111101110
1111111010100010
1111111011010100
1111111111101010
1111111011110100
1111111010110100
1111111101000011
11010
100111111
100100100
10110101
1111111111001101
110111110
1011111110
1010100101
1100000111
1110101110
10101110000
111110001
1000111101
1111111110011000
1000110101
100101011
1001000
1000011011
10000001000
11000110001
1100100110
10100001
1111110111111000
100111110
1010100
100011011
1100
1111111101011010
1111111110101100
11100001
1111111100000101
1111111111000010
1000001000
1101101011
10100110001
1001101
1111111000011110
1111111111110101
10010110010
1010010000
1111111101000001
10001100011
100100011
1111110110111111
1111110101011100
1111110100101010
1111111101011000
1111111000111010
1011011000
1010101000
1010010
1010100
1111111101010111
111001
11001000
101010110
1111111101100011
10011100
1111111111100111
10010000001
10011011111
1000100111
10111111010
10001000001
10000010111
1100111010
100000110
1111111010001110
1111111001001110
1111110110111101
1111111000000011
1111111100000010
10110011
111010101
1000000111
1111111101111001
10100101
1111111000110111
1111110011101001
1111110111011101
110
1100001010
1111111010111000
1111111100100000
101110100
10001011
10011011101
1010111100
1100011
1111011
101110111
11100000
110011000
110011001
1100000
100000010
101111111
1111111000111010
1111111001001010
1111111011100010
100011
1100101101
10101010100
11111100
1010011110
1111111110001010
10011000
1010111101
1011100000
1100011001
1100100110
1111111110111001
1111111101010110
1111111100010000
1110110111
1110111011
1111111011011010
1111110111100111
11101101
110011101
10100111101
10000100110
1001010001
1111111010000110
1111110001000010
1111110011101010
1111110101101011
1111110101101011
1111111100010111
1000111
1100110110
101110010
11001111
10100110
10000010100
1101100101
10001011101
1111100100
1001001000
11111001
1111111010100011
10000110001
11000001
10010101011
1101010011
1100000110
1100000001
1010000011
1111100011
1100100111
1001111010
1111111000100000
1111101110011111
1111110000011010
1111111000010000
1111101110101111
1111101100100010
1111110011100110
11101
1111110111100100
101101110
1000010100
1110100001
11000001100
11000100001
11100101101
11000011
100011001
111101011
1100100001
1110010
10010000001
10111010011
1000011
100010111
1011101000
1000111100
100101111
100001101
1111111001111101
1111111100110001
1111110111100001
1111111100100100
1111110101001101
1111111001010100
1111111100111100
1111111011011010
1111111100010000
100100110
101101
1000111000
10000101001
111101001
11101100001
1010111110
1111111111010011
100110110
1001101001
1000010100
110110010
1110
1111111111111100
1000101001
110000010
10011111
1111111101100011
1011011
1111111000001101
1111111001010110
1111110011010101
1111111101011010
11000001
1111111111100110
11011011
11011100
1011000000
10000101100
101100011
100100101
1001110111
10111110111
1111110010
1010
1111111101011111
1111111111001111
11011101
1111111111001111
10010110
1001010000
1100000101
1111111111000110
1000001100
10011100
1111111100100110
1111111111000101
1111111001001000
1111101100100101
1111111001101000
1001000100
1011011110
1111111110111111
1111111111010111
1111111110010111
1001010101
1010100000
1111101111101110
1111110111001100
1111111011111011
10010101111
11100101
10000100111
10010
1101101
1111111101111001
100001111
1111110110001011
110001011
1101011
1111111100000110
101000100
100011011
1100111110
1100000
1111110101101000
1111100011000011
1111110001111111
101011000
1111111101010100
1111110101101100
1111110110001100
1111110001110010
1111101110010100
1111101100001000
1111100001100100
1111100100011110
1111101110001010
1111110011011111
1111101111111010
111011110
110011
101010010
1111111110111001
1111111000100110
1111111000101111
1111111011110000
100100001
1111111110001100
1111111111110111
1110100110
10011010000
1011101101
1111101101100011
1111101110100110
1111111101001001
1000010110
1010010
1111111100111000
1111110010010101
1111110010110111
1111100101001010
1111100011011001
1111100100011001
1111100110000110
1111100100000101
1111100110100000
1111100111011101
1111110000111111
10011
11111011
1111111100110011
1111111011001011
1111110011010100
1111111111001110
10011001010
1010110100
1111111001001101
1111111111011011
10100010001
1010011001
1111101110100010
1111110010101010
1111110110011101
11110000
100000000
1111111010100101
1110011
1111110001000111
1111110011001101
1111110101111110
1111111101110100
111001001
1111111000101101
1111101100110101
1111100111101001
1111110000001010
1100110
10000111
1000
1000
1111111100111011
100111
1101000000
1110111110
100111111
1000110001
1000000000
1111111101111101
1111101111000011
1111110100011101
1100111
100001
1111111111111100
1111111010011001
1111111111100010
10001
1111111000100101
1111111110010111
1000111001
10110001111
1010010001
11001000
1111101111101111
1111111010000001
101110111
111001010
1111111111010001
1111111101110101
1111111101001100
1100111
1101001000
10100010000
1001100001
111001101
10001011
1111110111110010
1111110010000100
1111111000110101
1111111111001001
100100100
1000110110
10111010
101001000
1100010001
1111111100010000
1111110111110000
1011011100
1110100111
11010111010
11100110
1111110101110001
1111110011010001
10111011
1101000111
10010001010
101000010
10100111111
1110000101
110110000
1000111110
110111001
101010010
1011011000
111010100
110110111
1111111110101011
1111111111100111
1111111100101101
1110001
1001001101
100001111
11110100
101000111
11101001
11010000
101111111
1011100101
1011110
11001110
1111101111110010
11100100
1111111100001101
1010000110
1100111
1000000001
1001110100
11011000
110100111
1001111001
1101111101
1010001000
1001010010
1000100111
101111010
1111110111110001
1111110111110101
1111111101010101
1010101
101000110
1001010111
100010111
10010
1101011
1111111111101000
101111101
110101110
1111111010111111
1111110000010101
10101010
1111111100001011
1101011101
1111111101010001
1111111100110001
110011111
10111011
111101001
11010010
1001011110
1101001011
1111111100001100
100010000
1110000
1111110101111101
1111101000000000
1111110111010001
1111111011101001
111111011
11010110
1001001010
110001000
1111111111100100
100111010
1111110000100001
1000110
101111011
1111110011100000
11011011
1111111101000001
1001111000
101101100
1111110101100100
1000011
111000001
1110001
1111110101001011
11000101
1111111011101101
1111111110101001
11101101
1011000110
111001000
1111101111100001
1111110010101010
1111111001111101
10011110
11111111
101101101
110010010
1111110100101100
1111111110100101
1111110111111101
1111111100010111
1111101101101110
1111110100001110
1111111011111010
10000
110110010
110010000
1111101111110011
1111111101110000
1111111101000011
1011100
1111111010010111
1001100
1111111010101010
1111111100111010
110010001
1001100100
1010101000
1111111001110001
1111110101110011
1111110110101111
1110010
1111111100101111
110111001
11011011
1111110111111101
1111111001010110
1
1111111101101010
1111111000011001
1111111011000110
1111111100100011
11010110
1111111100001001
1111111101001001
1111110001011100
1111111001101000
1111111110111000
1111111011111110
1111111010000001
111001110
1111111100111110
10000100
101011011
1010001000
1101001110
11110110
1111111011011000
1111111101101001
11110110
1111111101010111
1001001101
10101101
10111001
10111110
1111110111100011
1110100101
1111111000001110
1111111011001100
1111111110111110
10100100
1111111011001011
1111111000101101
1111111000101001
1111101100101000
1111110100001001
1111111001000011
1111110111011110
1111111100001111
1111110111001001
100100101
11111100
1100011
11011111
10001111010
111001000
1111111000010011
110111111
1000100101
1111101100
1011011001
1010001010
1101110101
101111011
1101100001
1101110110
10000100
1111111011000010
100001001
1111111101101010
1111101110000100
1111111000011000
1111101001011010
1111110010111100
1111111001111111
1111111111110110
1111111110110011
1111111110010111
1111111100110101
1111101111110101
1111111011000110
101011110
1110110001
1010100000
100000111
1100101111
1101100001
100111101
1100011110
101110100
1100000000
101111001
1000111100
1010010011
1111111011111110
11010010
10000001
11000000
1111111111000000
1100110
1111110100100010
1111110111000010
1111110101000000
1111111100101001
1111111101100010
101001001
1111111010110000
1111110001110101
1111111001110000
1000011100
100011101
10111100
100101010
10011111001
1100000000
1110111111
1101101011
1110111
1001010100
1101100
1101101011
10100001001
1111111110111111
110010
11110101
101011000
1010110111
1001000000
1111111111101010
1111111111111100
1111111010101010
1111111011000101
1111111101100110
1111111010110101
11011111
10101110
10011100
1000001100
100110101
1101001101
1111001101
1111011
1111110010111010
100011011
1111111111010111
1010101001
1101011111
111000000
1111111000111111
1111110011001100
11111001
101011100
11000010
100011100
1000001000
101100110
100000110
101011001
1111111111000001
10001111
101100010
1111111000001000
110111
1010000000
10001010101
1111111101010010
1111111111010111
100001110
100110001
101101100
1001100
1111111010010100
1000000010
10000100000
1110101110
10000110010
1111111001100110
1111111011000001
11011101
1111111011100010
101010100
1111111110001010
1111111100101010
1111111100010101
1001000
1111111111100111
1111111000101001
10101110
1111111
1001000010
1111111010011011
1111011
1101110
1111111000011010
10101110
1100011001
1111111111001110
1111110010101011
1111110101000001
1111111010011110
1111110101011110
101010111
1111110001010010
1111101111101000
1111111111110111
10001010
11101101
11101001
1111111101110011
100010000
10011100
11101101
100101000
1111111000101001
1111110110010010
1111111000110100
1111111100000101
1001010010
1010111111
1111111100011111
101111100
1111111100011111
1111111011000000
1111111101010000
1111110011110110
1111110001100101
1111110000011100
1111111111001000
1111110000010101
1111110001101111
101100110
1111111111100111
10001000
1111111101010110
10011
