1111111101010101
1011010
100001011
1111111110011111
1111111100101000
1111111111001101
1111111101110111
1111111100111001
1111111100100110
11110110
1111111011111000
11100110
11101011
1110101110
11010010
100110010
1111111101011010
1111111011011100
1111111111000000
1111111110100100
100110010
1111111110001000
1110001
10110011
10011000
1111111111011111
11000100
1010001
1111111100000011
1111111110010000
1111111011101011
1111111100101000
1111111111110000
10010111
101111000
1111111100
10000010100
10100110011
10101101100
1010100011
1101110111
100101001
1111111101100101
10101101101
1111111111011011
11110111
100000001100
100011010101
11101101111
10000011110
1110010010
10011010101
1111101
1001100
1111111101100000
1111111100101110
100111101
1111111110110010
1111111100000011
10010101
1111111001011000
1100100111
11111111100
101100111011
101010010001
101100101100
111100110110
111000111111
101000000100
110000011110
11100000010
101001010100
101111111011
101100101101
111000100100
101111111100
111011100010
101101011100
11110100110
100000001111
10101001101
1010101010
11001011
11001011
1111111110110011
1111111011100100
1011100001
1111111011111000
111010111
10000110101
10100111000
1001011011
1110011010
11000110101
10010011111
10001000110
11001110110
10111000110
1101010101
10000001100
1011011001
1000001010
1110001000
1001110000
1111111101011101
101110110
1110001111
100001100110
1010011100
1111111110001110
1111111001101111
1111111111110010
1111111111101110
10111
1000000110
1111110000110000
1011101
11000110101
10001010110
1001100100
11010000010
11010110101
101011100011
10101111110
10111001011
1110100011
1101111010
101100110
1100100101
1000000011
1111111000111100
1110
10001111
1111111010110101
10011101
1101011
1111111001111000
1011110
101100001
10001100100
11001111
11000001
10110010101
11100101
1010100110
1001001010
1101101001
10001001001
1111111001110111
110101
10100111111
10100110000
10000111111
1011010001
110110011
1111111111000100
1111110111101000
1111111010111101
1111110000000010
1001111010
110011100
1010101110
100001000
110001111
1010110110
10111101000
10011100111
1101001100
100100011
100111011
1111111100111001
1111110100111111
1111101100111011
1111100111100001
1111110000100001
1111111000101010
1111110110011000
1111111100011001
101101110
1111111111000010
100001111
1111111110001000
11000010
10011000
1111111111001001
1111111100001010
1111111011110011
1111111101110010
1101000
1111111100110111
1111111011111000
100010100
111001000
10000001011
1111111010000110
101010101
10111011
1111111011111001
1111110110110101
1111101011111001
1111111010101010
1111110010100001
1111110010010111
1111110011110100
1111111001010000
1111110000111011
1111111000101101
1111110101110111
10000000
11010010
110110111
101110011
1111110011111100
1111110100100010
1111110010011110
1010110
11001001
110111010
1101001111
1111111100100011
1111111111100110
11110001
1001111111
11111100
1111110011110000
1111111100010101
1111111000111100
1111111111011111
111100
1010100
1111111100100100
1111101100001001
1111110010101100
1111110110101100
1111110101001000
1111111110110111
10010010
1101101110
10100001
1111111010010000
1111111000101011
1111110111110100
1111110010000100
10010
1111111011111001
1111100
11111100
1111111000101010
1111110100110001
1011100111
100001110000
1000000011
1111111000100000
1111101110111110
1100100
1100010001
1111111111011100
1111110001011110
1111110111011101
1111111101001000
1111111010000010
1100110
1000011
0
100001000
1001011
1111111110100100
1111111011110010
1111110101011111
1111110110000000
1111110100101101
1000011
1111111101000110
101101
1111111111101110
1111111110001101
1111111100010101
101001001
101111011
1111110010101110
1111101101001101
1111110011011001
1111110100001011
1111111101101101
1111111101101010
100110100
1111111001010001
111011
1101110011
1111111011100100
10000111
1111111110010100
11000011
1111110111111101
1111110100111011
1111110111011101
1111110011010000
1111110101011010
1111111100000110
1111111001011101
1111111001100011
10000101
1111111111001111
101100
1111111110100110
1111110010001100
1111111110110100
1111110110111010
1111101100010011
1111111001101110
1111100101010100
1111110011011001
1111110011010001
111110110
1111111111110000
101101111
1111000
110
1111111011100111
1111101110010000
1111110101010000
1111111011000001
111000
1111110111001011
1111111010100110
1111111000111000
100000111
10000000
10001111
1101
11110110
110100100
11000101
1010010100
1100001011
1111111101011001
1111110001010101
1111110010000000
1111111000100011
1111111000001011
11110010
11000110
1111111011011011
1111111111011000
1111101111100101
1111101110001111
1111101110100011
1111110111100000
1111110111110011
0
1011111001
1111111000101100
1111111000101000
10101110
1111111100101010
1111111111011111
1111111111110101
100110000
1111111011001101
10000000101
101100010
101100011
1111110110110101
1111111011110011
1000110101
1111111100100000
1111101111001111
1111111010011111
101110
1111110010010001
1111111000000110
1111110101110101
1111111101100101
1111111010001110
1111111000101011
100001101
1111110010
10001010010
10100111000
1010000011
110000111
10001110
101110100
10010101111
1111111111001001
1111111101011111
110101
10010010101
101110111
1000100000
1100110101
10101011000
1111111011100010
1111111011000100
1111100111001110
1111111101011011
110100010
1111110111010000
101010010
1111111101110001
101001111
1111111111111111
111000
110100000
10110101001
11000001101
10110011000
1100000000
10001100001
110010110
100111000
1000101
1111111001001100
10000011
1111111110001101
1111110111101111
1111111011000000
10001001011
11100101110
10011000011
101101
1111110111101101
10110100
1111111101010110
110011010
1111110001010000
110101010
11000100
1010000101
1010011011
11111000
1100000111
10100001101
100011011101
11010011110
10011000
10011110111
1010110
1111111101100001
1111111101111101
1111110100001001
1111110110001110
1111111100011011
1111111001000010
110010
11101001111
10001110101
11000001001
1111110110010011
110001110
1101101011
1111000001
1111111010111001
1111111011101011
1101111111
110001
100100111
10000000001
1110101100
1111101000
10000001101
10110111111
10100100100
100100011
1111011111
11110
10001100
1111110110110000
1111111001001000
1111111001101111
10111110
1011010
11110
101111101001
100001000010
10010111010
1111111110111101
1111111010110110
111001010
110111001
1111111010010010
1000011
1100001000
111111001
10001011111
101010111
101010001
1000011110
1101000100
11101111
1101000101
1100110001
1001101011
1111111100110001
101011
1000100010
10111001
101001011
1100010
1111111011000111
1111111011001001
11000111000
1010100001
100100110
1111110101111100
1111111111100110
1001001
1110110000
101100001
100110001
1111111111
10010000110
1110110100
1000001110
100000001
1111111011101111
101111001
111100001
1101111000
1111111011
1010000101
110111100
1010101
1010111011
1000110110
11001110
1111111010000010
100100
1100000001
100011010101
1111111000010010
10010010111
1001110011
1111101000101001
1111110100110010
1100001011
1000111000
10000100
1111110010
1110010010
1001111000
1001100001
1010110100
111000011
1111111111100100
100110001
111010000
1111111110
10000100101
110010010
1011000000
1000101010
100011
1110110
10000011
111001101
1000011110
100111000011
100000111110
110110011
10001
1111101100101110
1111110011110011
10100001011
1010010000
10110011
1011100010
10100000110
100111100
111000011
1011011
100010100
10110001
1111111110110000
10101
1011100000
10011100110
1010100011
1011001011
110100101
1000000101
101111101
1001000111
1111111111101110
1100110110
11011111001
11101100010
1110111011
10110101
101110110
1111101111001011
1001111
1001111110
1111111100101001
1011110000
10010101111
1000111001
1000011111
111010101
110100111
1111111111110100
111011000
11010000
100101100
1111111110101101
1111111110111100
111010011
1001001011
10000010
101011001
1011000010
1011011011
1011101101
100110010
1111111110001010
1111111011101011
110000001
111001110
111100101
1000001
110101101
1000010011
1111110100111111
1111111110101100
1111110110000101
101011
1111111001010100
101100000
1111111001111110
101000000
1111111110100100
1111111000101100
1111111010111001
1111111011000010
110011
1010111000
1000111101
10100010110
1000001000
1100011011
1100001110
10000101100
1111110110111101
1110111
111110
1111111110011011
10000010110
1111101110111100
1111110011000010
1111111010100001
1111110001001101
1111110111000010
10000110
1111111110011001
1111110100000100
1111111101111001
1111111111101110
1111111101110100
1111111000101101
1111111111111111
101111111
1111111101111001
1111111101111011
1000011110
1111010111
10101000011
11101111100
11110101001
11
110010000
100110000
1111111100110000
1111111011000000
100101100
1111111100010110
1111110010001101
1111111101001010
1111101110011101
1111110100101010
1111111100111001
1111111101000001
1111111110011100
1111111110011001
1111111110111011
101001101
1111111111001100
1111111110011111
11101100
11010111
1111110001101010
1111111101101110
1100011
1111111110101010
1111111110001100
1100100000
1110111100
11101100
10010011000
10010010010
1111111101000111
1111111100110101
1111111100011010
1001011110
1111101010011011
1111110000101010
1111111001111001
110000110
100111101
101011010
101011111
1110001110
1111111001000000
1111111000101101
1111111101101000
1111111001111100
1111111110011111
1111111000011100
1111111101011101
1111110101010111
1111110010010000
1111111100010011
1111111001110110
1111110001010011
1111111010110011
1111101111111110
110001100
1110101000
1111111111011101
1111111011001110
100011001
1110011
1011001111
11000011010
10001000000
110000000
1010111011
1110
100010101
100111000
11101010
1000101110
1111111001010001
110011011
110110100
10001010
1101000101
100000100
1111110101101100
1011101
111110
1111110100001011
10010101101
10000010000
1111110101001101
10100010
1111111
11101111
111011
10100100
1111111100100010
1111101110010101
1111101111010011
1111110110110111
1111111011000011
1111111011010011
1111101110101101
1111110110111100
110101
100111101
1111110000101010
1010011100
10000101111
10100001
1111110111101010
1100111
1100010
111101
1111101111000100
1111110010001001
1111110001101101
1111111111000011
11010010
100010010
1111111110010110
