0
1111111110000111
1111111100111100
1111111101110011
11001101
11110110
10101100
1111111010110101
10101011
1111111110100100
1111111010110111
1111111011111100
1111111011110000
1000010
100010110
1111111100101001
1111101
1111111101011001
1111111101000110
1111111101000111
11110001
1100101
1111111101111010
1111111011011111
1111111100100110
10111
1011110
101010
1111111111111111
1100111
1111111011111100
11000001
1111111011111101
100101101
1111010
10101111
1111111011100011
1111111111001011
100010001
11111010
101
110110101
1111111001
10100110100
1001110000
1000111100
110001011
100111100
1111111110100011
1001110
100011101
1111111111010010
10001110
1111111011100111
100111100
1111111111001100
100001001
1100
101011001
1110000
1111111110100100
1011111
1011001011
1100110000
10001001110
10001000000
10011001110
1010100111
1111110010001101
1001111
10110010
10011000110
11000100000
11000100011
100001101110
10001110011
10000000000
111011100
11100001
100110100
1000010101
111010000
10111100
10110101
1111111100000101
101000011
11110101
1111111101010010
110010
10100000
1111111111111011
1111110100001010
110000001
10000011001
1010111011
1111111101100100
110001111
10101000000
101000000
1110000010
11101001000
10010011100
11001001110
10100000110
1011111011
1000000001
1111111001110101
11001100
1111111101110100
1111110110010011
1111111100010101
1111111101111101
111001
1111111001101011
110111101
1111101101000101
1111110001101100
1111110011001000
1111111110110010
100011000
1000000
10100101000
1000010101
1100001000
111010100
101011110
1011010010
1110000011
10001101001
1111110110
10100011111
1000111110
1000101011
1011111111
1010010
1111111111010001
1111111000011001
11100111
1011110010
1111110110001001
1111111111101000
1010000
101111000
1011000
1111110010110110
1111110100100001
1010000
11010110
1111111111011011
110000110
1001100000
111100001
100111
1111111011100010
101010111
1111111001000111
10
1000101000
11110101
1100011001
10000110110
10110000101
1001101010
1111111101111111
1111111011011001
101010110
111110011
1111110100111000
1111111110100110
1111111100111010
100100011
1111111110100100
1111101001011001
1111100111100100
1111110001110001
11101
100010110
110001100
1000101000
1000110011
1110111001
101100010
10010001
10001101
1111111001110011
1111111110111011
10011111
1111111111010111
1110101
1111111001011011
1111000
11001001
110111110
110000101
101010001
1111110011011010
1111111111101011
1110000001
1111111001111000
1111110000001010
1111101011000110
1111101101000100
1111111011110010
11001110
1000000000
111100110
11101100
10010
1001100010
1101011010
1000000011
110110001
1100111
1111110100010010
100101010
11100
101101011
10000100110
10001100111
111011000
1111101111111010
1111111001111000
1111111110110101
1111110111001111
1100011
11000001111
1111110100010111
1111111110000011
1111111000011011
1111111001111101
1111111111011101
100101110
1010100111
101011100
1111111111010110
100100100
1111001010
1111111011
1001111110
10001000
1111111111100100
1111111101101101
10011
10011110
1111111111010101
11101000
10010110010
1110100000
1111110010110011
100100101
1111100000
10010010110
10111000
1001111011
1111111011010101
1111001011
1111101110111100
1111110100010100
1100101100
1010010101
1001010111
100000100
110001010
11101010
1000010001
1110000111
100111010
1110
1111111011000100
1111110111110101
111000
1111111011101101
1111111010101011
1111111100100000
100110111
10010011110
1010000000
10011000010
1111111111101100
1111110000111000
1111111110000111
10011101111
1111111000001000
1111111000100100
1100011000
101
111001011
10010100
10010100101
1001111100
1100110010
1111101111
11110011
1001011000
1001110
1111111000001010
1111110100100110
1111110101111000
1111111100000100
111011101
1011011110
1111111110110100
1111111101100001
111110010
1111100111
1110001
111111111
1111110000100100
1111111001001110
1111111001001110
1111100111001011
110000100
1110001000
10010111110
1100010111
1010100101
10000010
101011100
1111111011011110
1111111011100101
1111111000111101
1111111010101011
1111111010110100
1111110111100010
1111111011100100
1111110110000111
1100010
1111111111011111
1111111010011011
1111110101001100
1111111000001110
1010010010
1000010001
10110001101
100110000000
1001100100
1111110111010100
1111111101110110
1111110010011110
1111010110
1101111010
101100111
110111000
1001110001
1111111100100111
1111111111000010
1111101011101110
1111110011111010
1111110100101101
1111101001010011
1111111001001100
1111111100111010
10001011
1111111111101111
1111111000011100
1111101100111110
1111110010101001
1111110111110100
1111110100101101
110100001
111011110
101111111
10000100011
1111111101100110
111011110
1111111111011001
1111110101100100
1110101111
1111111111001010
1111101111101100
1111110110011110
1111111001111100
1111110110010000
1111111001101100
1111110000010001
1111110100100000
1111110000111001
1111101110101001
1111111110011010
1111111110000001
1111111100111111
1111111100000000
1111110111110110
1111110101111111
1111111011010001
1111110110110101
1011111000
1111110101000111
1111111011111100
1111111010010010
1111111110111001
110001000
1000101111
1001011
1011000100
1000011100
1111101000001001
1111100101001111
1111101110001101
1111110000111111
1111101111111000
1111110001000011
1111111001100011
1111110111111101
1111101010111010
1111111101101111
1111111101000000
1111111110101110
1111110011110100
1111111111011111
1111111010010010
1111110000101110
1111110001001000
1111111100001011
1111110001000101
1111100111110110
1111110100000001
1111101110000110
1111111011001110
1110100100
111100110
1111111100100010
1100111010
1111101001100010
1111010101101000
1111100101101110
1111101010000101
1111101111100011
1111110010000010
1111111001010111
1010000
1111111010111111
1111111101010111
100100100
1011100101
1111110011010001
1111111011100100
1111110001000001
1111111011101110
1111110010101100
1111110001000110
1111110000111011
1111101011011000
1111101110101000
1111111100101101
1111111110101111
1111111101000110
1101110001
1111111110010001
11000100
1011001111
1111101011011010
1111100001000101
1111100000011011
1111100001000100
1111100101111011
1111110010000000
1111110101110111
11101100
10011100
1101011
1100110100
101011010
1010011
1111111101100001
1111111100001001
1111110101111111
1111110011101010
1111111001100100
1111110011111011
1111110001011011
1111110111110011
100001
10010110110
1011110001
10010011011
11100011
100101
1111101011100001
111101000
1111101001100010
1111101101011000
1111100011101101
1111100111100011
1111101101111010
1111101111110000
10000111
100001011
101100111
1000001110
1100010011
1111111011111011
1111111100110101
1111111011110100
1111111001101010
1111110011100010
1111110111100111
1111101111111010
1111110011110111
1111110110101110
1000
11001010
1000010101
10110011001
100100111
1111111101100001
1111110111000110
1111111100100011
1111101
1111111001100100
1111110000000001
1111101110010100
1111111101111010
1111110101101100
100011111
1111111101100001
101110010
1111111111100111
11011000
1111111100000010
1111111001101000
1111110000000100
1111110111110100
1111111000011001
1111111100110101
1111110101010010
1111111011011010
1101011001
1010010100
11111010
1111111111001111
10011011001
1111111111011110
10011000
10000100
1111110001100000
10001010
1111111110010011
1111111010111101
1111110001101000
1111111101111111
1111111100111110
1111111010111010
1111111000010001
110101101
110101010
1111111101010101
1111111010001010
1111111010010010
10111110
10000101
101010
110101100
1111111101111000
1000111111
10000001101
10001111001
10110111110
10101100111
1010010001
1111111101000010
110111101
11101101
1111111110010111
1011001011
1101001000
1111101110
11101100
111110111
1111111110111011
1111111100110110
111000111
10001010101
1100000011
1000010001
10101011110
101010001
1000110110
111000110
1101000101
10010100110
10110100111
11010111110
10110110011
110010110
10111110001
10001001000
100111101
11010111
1011000010
1111111001100110
1111000101
10111010010
1001000001
10000010111
1110011000
110010000
10000011101
10001101111
10010110111
10001100001
10000100110
10101111010
10100011011
1000101101
10010110001
10100110010
10010110011
10001000011
1110000010
10101110110
10110110101
11100110011
11001100101
1001000011
101011010
101000101
1111111101101101
1111111100011001
1001010101
11011000100
11011110111
10011000010
1010101111
1000011111
10111000001
1010000100
1110110101
1000010110
1000001101
1000100111
10010010000
1001110100
10100111001
10110110100
1100110101
10001110010
10011110010
1000000011
10010101101
100011111010
10101111110
1111111110110111
10101001
1111111100101101
1111111110000001
1110100110
110101
11010001001
1111011011
101010100
101100111
100111011
1011111010
111100011
1000000
1111111111000110
1101000110
100011100
10001100000
1001001001
101101011
1111111110101000
1110111100
1011000101
1111111101111100
1101110001
11100110010
10001101000
1101000110
1111111010101001
1111111110001010
1111111011011001
1111111101110100
1111110111001011
1111101101000010
11010110
111110100
1100011000
1111111000010001
1101001011
1101101010
10000111
1001101111
1100011101
1111111110011100
100100111
111000111
1111111111100010
1111111100001011
1101010110
1010110110
1111111101110101
1111111011001110
1111111101101101
1100100101
10110110110
1100000101
10000110011
1000110
1111111101011000
1111111111010001
1111111000011011
1111110101000000
1111111110110101
10001001
1100100010
1000110011
10101000010
10101110000
1101111011
11110110
10011100110
1011101110
1101101010
1011011001
10010100010
10101110110
10001000100
10110111001
1100101
101000100
1101011
1111111011000100
1111111101
1111111111000001
111101111
1111111011110011
1111111111100111
1111111100011110
10101111
101101101
1111110001000001
1111101110111110
1111111011100111
1010100010
1011101100
1111111110110101
1111111000010111
1111111101011001
1011010101
10000100100
1010010110
111110110
110000010
110111010
110000111
1010000011
1111111101000010
1111111111001010
1011000101
1001001
11111110
10111010
1111111110110011
1111111101101011
1111111011110101
1111111110111110
11110
11110101
1110000000
10100110101
1111001001
10100011101
10100000110
1111111110101100
101111010
100001
1010011001
1110011101
11001000000
111101011
110000011
11000011
1111111000010011
1111101000100000
1111101100100010
1111110011010100
1111111100001010
101011101
11010011
1111111101111000
1111111100110011
111010
