1111111110010110
1111111101100000
1010101
1111111110110100
11111111
1111111111011111
1111111101001010
11110001
101000110
1111111101010101
10110101
101010011
1111111100101110
1111111101110001
1111111110101110
10101011
1111111110001010
1111111100111111
100011111
10001011
1111111110111011
1111111100101001
1011100
1111111101000111
1111111011001100
10111101
10100011
1001111
1111111011101101
1111111101110000
1111111100101010
1111111110110110
1111111110010111
10111111
1111111100111010
1111111101010010
1111111110100111
1111111110100111
1111111010111111
1111111110000010
111011100
10001100000
1111111110110001
1111111011110100
1111111101001011
1111111111101000
1001010111
1111111100100000
1111111101001101
101110001
1111111111010111
1111111011110000
1111111011111110
11110001
1111111100110101
101000110
11101101
1111111110011110
11100
10001101
1111111110001111
10100100
10100111
11110101
1111111011010001
1111111010101010
1111111011111101
1011111101
1111111001
10000110111
10011011
1111111110101011
111100111
10001111011
10101000000
10101110011
10011010011
110001101
1110110
1000110011
100011101
1111111100110111
1111111111100011
1111111100110110
1111111101001000
100000011
1110010
1111111100101100
1000110011
10010001111
10100001100
10011001
1111111111011001
1111110111010010
1111110011110110
1010111010
1001100101
1111110111101010
1111110101100111
1111110010111101
1111111011110010
101101100
10001010100
110011
10100010
111001111
1100001100
111001010
1001110010
10101001
1101001
10110001
11100
111010001
1111111010111001
1010100111
1100010100
1101
1111111100100110
111001
10110010
1111110010100010
111010001
1111000111
101001
100000
100010010
10011100
1111111011111111
1111110111010001
1111110100001100
1111111100001110
1111111101010000
100000011
101100101
100000
100111
100001111001
1111111111001110
10101110
1110010
10101100
11001100
10111011011
1001001010
1111111010001001
101000
101101100
1111111111010111
1111110100011000
111001
1101101000
111011110
1000001010
1111111111000100
1111111111101010
101000111
111010110
111000
1111111110100010
1110000
1111111111011001
1010110110
1101011010
1010110110
1011000100
1111110010111111
1111111011111100
1001101
1001100
1110001111
110011110
110011001
1111110011010000
1111111000000000
1111111101100101
1100001
1111111101000001
1111110
1001001001
101111111
110100001
11101000
1111111100101010
1111111111100001
101100
1111111110000110
10110
111101101
1111111000000101
1010110110
101010110
1110111010
1011010110
1110001
1001111000
10111100
1001010010
11010101
11011000
1111111111100000
110001001
10100111
1111111111101000
11111
1111111101010011
111110
1111111010010100
1111111100100111
1000
110001011
1111111111011011
1100011
11010101
1000
1111111100110000
101101110
1111111111001001
1111111000001001
1
10101111
1111111110101111
11101101
10100101010
1111111111011111
1111111010101010
10001010101
1101111000
110101000
110001110
100011110
1010100
1111111110100110
100101100
1111110100110110
1111111011100011
1111111001101111
1111111110100001
101110
1000100111
101001000
101000110
100101010
10111010
1111111110100010
111001111
1000011000
1111111111101000
10100111111
110111100
1000110100
110110010
101100110
1111111100000100
10011000110
1011111001
1111111111100010
1111110111100100
101000011
1111111111010111
100101100
1111111101010000
100000110
1111111010111111
100011010
1111111110011111
111001
1111111111010100
11100110
11011100
1111111110001101
11001
100001111
1111111111001101
1001100010
1111111011110011
10111000010
1001000101
1111111101110010
10110111001
1111111110111011
1001101
110101110
10011101010
1111111010011101
1111111001001110
1111111111001011
100010010
1001110110
1111111011101100
1000101
11110110
10011010
1111110101101010
1111110100001011
1111110011001110
1111110100111111
1111111001010001
1111111101001011
1111111100100101
100110101
1111111100011011
1111111011010111
1111111010010011
1111110011010011
1010011
10111010011
1000100110
111101001
10000
1111110111001110
1111110111000110
1111111110101110
101010000
101100
1111111111101111
1000110100
100000011
1111111110001101
1111110111111001
1111110011010011
1111111000111101
1111111001110011
1111110110001010
1111111100010010
1111111101101010
1111111010000101
1111110111101001
100111
1111111001110010
1111111111000011
111010111
1111111100010111
1101001000
10100100000
1111110011110111
1111111111001111
1001100100
1010100110
1111110010101011
1111111111001111
1111110111101011
11010100
1111111011100001
111111010
1111111111100100
1111111100000111
111101
100101000
1001100110
1110000001
111001
1111110111101001
1111111010010111
1111111110110101
1111110101001011
10111110
101011
1010101100
1111111001
1000000
11010
1111100111
1111110101010101
111111
110111011
1000011001
1111100111101110
1011010
101101010
10010001
1000111011
1111110101010010
11101
110011110
1011110011
1110010100
10011001100
1011011100
1010111
1111111100011110
1111111100110111
10011001
1010110
11100100
1111111011001001
1111110111011011
1111110110000100
1101000
110010110
100110100
11111011
1001000100
1101101011
1111110110101010
1111100000111101
1111111111111001
10111110
1011101110
101001111
110111111
100101001
1000011011
1011110110
1100100111
110101111
1110100100
1010101100
1111111111100100
10011010
1111111111000010
1111110110111010
11110111
1111111001100100
1111111101001011
1111111000001111
1111110100000010
1011011101
1001010110
1111111010110001
111101101
10000110011
10010110111
10101110
1111111001111011
100010111
1111111111011100
1111111101010101
1100011
111001101
1111100000
10000111000
10000111001
1001001001
101110101
1111111100101011
100101101
1011110
1111111110000101
1111111111100101
1100011
1100100
1111111111100100
111001
1111101100011100
1111110101100111
10010111111
1111111100000100
1111111011100101
1100011001
10000000000
1111111010001010
1111011001010011
1111100000100001
1111011001100100
1111101000010101
1111100111011110
1111111100010010
1101111000
10101111100
10011110000
1001011000
1111111101010011
0
1111111110111000
101
110000
1111111010010010
1111111011111010
1111010
111111011
1001010010
1111111001110000
1111111011001011
1111110111000101
1111111011101000
100100100
1001100101
10001000110
1111101010001001
1111011100111000
1111011001100000
1111010001111011
1111001110100101
1111001010000001
1111010000110010
1111101011010001
1111111010010011
11101
100010
1111110110011110
1111111101100011
1111111100000011
1111111010001110
10
1111110110101000
1001000
10010100
11101001
1111110110010100
1111110001111000
1111101110011010
1111101100110000
1111111111111000
1111111111011000
1111111100110100
10000110011
1111110010101011
1111101111110010
1111100011100110
1111011110110100
1111011101001101
1111000000000000
1111000000000000
1111000000000000
1111001001100100
1111011111000001
1111100100001000
1111101111111011
1111111001001011
10100110
1111111101000010
1011
11010011
101110001
10011001
1111110110110011
1111111110001110
1111100111101000
1111110101011100
1111101110011000
1111111111010111
1111111110110111
1111111010000001
110101000
10001110111
10111101
1111101110010111
1111110101000000
1111101010011000
1111011011100010
1111010011000111
1111001111100010
1111010010110001
1111011101011011
1111101011001111
1111110101101001
1111110011010111
11101110
1111111111011000
100100110
1111111111111111
111100111
1111111101111010
101000011
1000010111
1111111010001101
1000101
1111110110001100
1111111101100100
11010
110100000
101001011
1000011101
1001000011
1100010111
1011110000
1111111111101011
1001100000
10110100
101
1111111101000001
1111110010100000
1111111001110100
1111110111101111
1110100
1111111111111000
1110010
10110101
10001110
101101111
1111111111000001
1111111011111110
10000001
1111111111000110
111101
1111111010011110
10010000
1111111100101010
111111111
110011111
100100011
100010110
1001011010
1001010000
10000000010
1011100000
100111010
1110101001
1000010110
101110101
101000011
1000110
111010
1010110
1111111111010111
1111111100001000
1111111110011110
11011101
1111111101001111
1111111000111000
1111111011101000
1111110100001100
1111111011001111
1111111100000000
1110000
100000111
100000110
10001010
1010011000
1001001001
1000101010
1000101000
1110101110
1101110001
110101101
10100110010
11000110100
1001111000
1000000110
111100000
100011001
1111111101010000
1000001
1111110110110111
1111110101001011
1111001
1111111010011110
1111111100100111
1111111100110011
1111111000000101
1111110000100100
1111110010111100
1001110
1111111110111100
1111111111000001
1110101011
10011000111
10000111101
11001001011
10000001100
1101001011
10011001111
1101111001
10010101110
1100100111
100110101
1001011011
111101100
100111110
1111111010101011
1111111001010110
1111111010010001
1111111110011000
11100100
1111110101110010
1111111110001101
1111110101111110
1111110011110010
1111110101101011
1111110101011000
10011
10000101
1111111011010101
1111110010010110
10010000011
10100100100
11000010111
10000010110
1101011010
1100111011
10001111011
10110111100
1001111001
1010001000
1011101011
11101011
1111111100101001
1111111010011000
1111111100111001
11001
1111111001011010
110100011
10010011110
110001011
1100000001
1100111011
1111111001111010
1111111011001110
100101001
1111111100001010
1111111110101010
111010011
10010100
10110001000
11100010110
1101000001
1111111111001010
1101100
111111010
100001010
1111110110011011
111101111
1011101100
1110001
10100
110100100
11100011
1111111110001111
111011010
1011101111
11011100001
100001010100
100101010100
11001010111
1010101101
1111110
1111111101011111
11100101
10101000
1111111101001101
1010111110
11010010110
10101100010
10000010001
1011010110
1111111110001011
101011111
100110101
1111111110
1010011110
1001101101
1100100101
10000011110
1110100000
1111010110
111111010
1000010101
10010011101
1011101011
1111101
1111111100111010
1111111110100110
11011000
1111111111111001
1111111101100111
1111111011101011
100010000
1111111101011011
11011001
1111111011101110
1111101111011010
1111110110101011
1111111110100010
1111111101100101
100010100
10111101
1001110110
1001101100
110000011
11010110010
110101001
1111111011100110
1111110101111101
1111101111101010
1111111100101111
10111100
1101001
101110011
11010011
1111111101001000
1111111101001111
11100111
1111111100011010
