1111111100001001
1111111010100110
1111111111111011
1111111010101011
1111111100000000
1111111101110001
1111111011101110
1111111101100101
100001000
10011010
1000010
101000000
1111111111101111
1111110101110001
1111111011011001
1111111110101100
1111111110001101
11010011
10111100
1100110
11011011
1111111011010110
1111111100000101
1111110
101011110
1111111010101101
1111111100000001
1111111101010011
1111111100010011
111100
1100
1101001
1111111101100110
1111111011100010
1111101110110110
1111110000101111
1111101110111100
1111110011101010
1111111001111110
1100100011
11000111
1110010
100101011
1111110010011101
1111111111011011
1111111101111110
1111111001110001
1111110100001010
1111101011001100
1111101110010000
1111111010001010
1111111011001100
10011011
10010111
10100001
10000011
1111111100101111
1111111100010101
10100
1111111010001101
1111110111100110
1111110101110001
1111110011111111
1111101000110010
1111100110000011
1111101111100110
1111110010110000
1111101101001111
1111101011101110
1111110010000110
1111101111010011
1111101111110001
1111110100100111
1111111000000100
1111110001010000
1111111101111001
1111110111111100
1111111000101010
1111111000111110
1111110010110010
1111111011100110
1111111001001000
1111111101010111
10100
1111111111000100
1111111110010100
1111111101001000
1111110110011111
1111100011010000
1111110110111011
1111111000111110
1111101011001010
1111101000001111
1111110001111001
1111101110011011
1111101110101101
1111101001101111
1111110001110100
1111110110010101
101111100
1111111010011100
10101000
1111111010101100
1111110101011010
1111110100101000
101111111
1011000000
1111111011010110
1111101001000001
10000110100
1110001
1000
1111111111110111
1111111101011101
110010
1111110101010011
1111101011111110
1111111000101001
1111111001000101
1111110100010011
1111110111011011
1000011110
1111111111111001
10
1011000
101011110
1000000
101000011
1101101110
110110011
100010000
1111111100001111
100111001
1000011011
1011110011
1101001001
100111100
1111110101000111
1111110100000011
10001100
110111
100111000
1111111001010010
1111111101000001
1111100011101110
1111110100101111
1111111101101000
100011011
10110011
1111000
11100100
1111111101111110
1111110101001001
1111111011010111
1111111111001011
1011000
1111111110010010
11010
1110110111
101001101
100010011
111000110
110010000
1111110100010001
1111110110011001
101011100
1111101101101010
1010000
1111111111111101
10101111
11010100101
10001110011
110000000
111010000
10000100
1111111110011010
1011101
1111111110011110
1111111101000000
1111101111000010
1111110111100001
1111110110100111
1111111101000100
1111110110011100
1111111010011111
111100111
11111011
1111111101000011
11111100
1100001011
111001000
1111110100100110
1111110011011001
1111111010111000
1111100001010011
1111111010100110
1111111110001101
1111111000100001
100000101100
11110001110
101101011
100111101
1111111100010010
100111110
1111111001011110
1111111100101111
1111111101011110
1111111101011111
1111111111000110
1111110111011001
1111101110101100
1111110111000010
1111111011010010
1001000101
1001110100
11111011
100101001
11111010
1010010001
11001011
110000011
101010110
1111100010111101
1010110
1011111010
1101010101
10100100110
1101010101
101001001
1111111110010011
1111111100101010
1111111110110011
110011
101110001
101001001
1010101
1111111101000100
1111110111101001
1111101101111011
1111111010001010
11100101
11001111
110011000
1111111100111011
1111111101011101
1111111011000100
1111111000110110
11001111
1111111010011101
1111110101011011
1111100101011001
1111110110001100
1100100101
10111000000
1010101111
1000000111
101010111
1010100010
10101
1111111111011111
1111111101111101
1010011010
101000
1111111111011111
1111111001010110
11000110
1111111000101000
1111110100101100
1111111100001001
1000111011
1011010110
111000011
101011000
1111111111101010
1111110110110101
1111111101101001
1111111000000111
1111111000011111
1111100011001100
1111110100111011
111100101
11110000000
11101100000
101111100
1111111111101010
111110100
1111110111110010
1111111100101001
11101000
110100111
10001011
1111111101100101
1100
100110111
1111101101100010
1111101100110001
1111111111101100
1100000110
1100100011
1100110101
1000000010
1000011000
1111111110001010
1111110000001010
1111101011001101
1111110011001000
1111101001100011
1111111100001011
1010001011
10010111000
100001110110
1011010
1111111000011100
1111111110101001
110100110
1111111111010000
10110000
1001111
1111111011011011
1101111
11100010
100011111
1111101101001100
1111100111010100
1111111001011110
111011100
1001001111
100100010
1111111010010110
101000010
1000001010
1111110010111110
1111101110111011
1111101011000111
1111111110101000
1111110
11010110
100010001110
101001101011
1111110111011100
1111110010010100
10010111
110110011
1111111111101101
1011101
1111111001000011
1111111101000100
1111111111011001
1010101010
1001011100
1111101000111001
1111100001101110
1111111010101111
10111011
110000101
10000100
1111111100010101
1111110100000011
1100100110
1111110111110101
10100000
1111110100111101
1111110111110010
1111101111101011
10100011
10110000011
11011110010
1111110011111000
1111110101110100
1111111111011110
101110111
1111111011010111
1111111011100000
1111111000001001
1111110111010101
10111
11110100
1111101010000000
1111011100000111
1111100011111110
1111111000001111
101101001
1111111100011101
1111111010110001
1111111010001110
1011100
110110111
10101011
1111111101111011
1111111101011110
1111101101000100
1111110011010001
1111111111011001
1111000001
100101011100
1111110111101101
100100000
1011011001
110101111
1011100110
1111111110011000
1111111010100100
1111111011010010
1111111111000110
100011000
1111101111110010
1111100111100101
1111110011010010
1111111101001100
11111111
101010
10001110
11010100
11101011
11010111
1011111
1001000101
1111111011011011
10100100
1111110110010101
1001000001
1111111111001101
10110010110
101110011
110001
1110111111
110000100
110010101
1011111
1111111111011011
110000001
1100001
1111111110000011
1111111011100100
1111101010101110
1111111010100001
1111111110001010
111110010
110111111
1001101000
1010111011
1011100011
1110111101
1010010
1000010
1111110100011110
1010111010
1011110
10000000000
11100101
1
10010100
11011110
1010111000
1101010010
1010101001
1011101010
1111111110011001
1111111100100001
1111010
1111101111010110
1111101011000111
1111110111011111
111011110
10000101010
1101100110
1011011000
1100101101
1010101011
10000000110
1000011110
10110010
111001101
1111110110100010
1111000101
1111110
1100100
1111110001110001
1010010
1111110110011000
1010100001
10010011111
1111110110
1001011111
10100001
1111111111110101
10011011
111011111
1111110000011001
1111100111011101
110101010
10001101010
10001111001
1111011010
11000111101
1011011100
110010101
10001110110
10110100001
10100000
1011011110
1001111000
111110001
1111111011110000
1010110011
1111110111000010
1010101
1111110110101001
1100100010
10101000000
1010010011
1010111001
1011111011
1110010
10011
1111110110100111
1111101100000001
1111111111111100
1110010010
10010010101
10101011010
10001110010
10000100001
1010101000
1001101111
10010011101
1100101100
101111
10011000111
110011100
100010110
111010101
1111111011110110
10011001000
1111111101
111101000
10011100010
1000101111
1110110100
1010111000
1001010101
1111111110000110
1111111100110100
1111110011001010
1111110010111011
111001
10001011101
10101100000
10000100101
1001011010
1001000011
11011111
11100010
1010001101
10111110
1111111111011111
1111010011
110011111
1111111111100110
101000001
1111111010110010
1100010000
1101010101
1001111101
1100101111
110010000
110110000
101101011
1010110111
1111110100010110
1111111000010010
1111110100100110
10001000
101110
101010101
1111111100001000
1010010011
111010001
1111111111101010
1101111001
110100100
1001100100
1111111011001001
110000010
110101111
1111101101001111
100101
100100001
1111111111111010
1000001001
1111111111110110
100100010
1111111110111100
10110100
1111110
1111111000101000
1000011
1111111010101101
1111110111111110
1111111011000000
1111111111001100
1111111110000011
1111110111110110
1111111100111001
11111101
1010000
1111111101100111
100011111
1011100010
1001011000
10110011011
110011100
10101000110
1111111000111011
1111110101111011
100010111
1111111011111001
1111111100000110
11110000
111001011
1111110110110001
110100001
1111111111011001
111000
1111111010001001
1111111000011011
1111111100010011
1111111111011101
1110001
1111111100101100
1111111101011110
1111111110011101
1111111100001000
1111111110110001
1111110011101001
1111111001000101
1111111100101101
11110011
10100001
1111111011111101
110110011
1111111110001111
1111110100110000
1111111110110111
1111111100011000
1111111011110101
1111110001011001
1111111011110100
1111111011100101
1111111100001100
110100
110010010
1111111000010101
1111111100000110
10110011
1011101
1111111001000010
1111111101101111
100001001
10
1111111010111000
1111111000010000
1111110001000001
1111110101000010
1111110111101110
1001
1111110001011100
1111101110000001
1100001
110
1111111001100100
100001010
1111111110111110
11100
1100111111
1111111111001100
1111111110101100
10010101
1111111110111001
1111110111110101
10100011
1000100100
1111111111111111
110010100
10101111
1111111010010011
1111111110101100
11111010
11010101
1110101111
1111110100111110
1111110010000010
1111111000110000
1111110011001011
1111110001110100
1111101110110000
1111111110111101
110110010
1001011011
10100010
10000111
11001010
1111110010111000
10011001
1111111111000001
1111110101110001
1111101111110101
1111110000110000
1111111100010101
111011111
1111111011101111
10010001
11111111
1111111101100101
110100000
1011010110
10011100101
101000010
100100110
1111110110111100
1111110000001000
1111111000110001
1111101110000110
1111110101011010
1111110101011110
1101110000
1010010111
1111111111101101
101011
1111111011011010
1111111011010111
10111101
1111111001101100
1111110000011010
1111110000011101
111111111
1111111110001010
1001101111
101000011
1111111111001000
1111111001110100
10001110
1111111011010010
1111110111011100
1111111011101010
1111101101110001
1111110101001011
1111110010101000
1111011110000000
1111110110001011
11001001
1111110111011101
1111111110110000
1001100
1111111011011100
1111111100111111
1111111110100101
1111111111101101
10101001
1111111110110100
1110010110
1111011111
101001000
1111110110111111
11010
10011010011
1111
101000000
1101010
11000111000
1111111101000111
1111110110111000
1000011011
11001110000
1101110010
110111100
11110000
10101011110
111111011
1111000111
1111111011001101
1111111010101101
1010011
1111111100111100
