1111111111011101
1111111100001110
1111111010101000
1111111110010000
111001
1111111110001101
100010011
1111111101111010
1011000
1111001
1111111010110110
1111111111001101
1111111100000111
101001111
1100000
1100011
1111111100111000
10101111
1000110
101000001
101010011
1111111010101111
10011001
1111111110100001
11001000
1111111101010100
10011000
11010100
1111111111100100
1111111101011010
1111111110001101
1000
11011011
1111111110000010
1111111100000010
1010111
100110
1111111100001100
1011010
1111111100010100
10101111
1111110101011100
10100101010
10001111000
1111110011001110
1111101000000110
1010001101
10100110001
1111100001
1001111100
1010110
1111111
1111111010101010
1111111100110100
1110100
10000011
1111111110111011
10001100
11010
11000100
1111111100100110
1111111101000111
1111111011011111
1111111010000101
1111111010110010
1111111101101001
1111111011001111
1111110111011010
1111101010011011
1111110001001010
1111111011000010
1111111001011001
1111110010000110
100001101
11110001
10001110011
100010110111
11000001100
10101111111
1111110110000010
1111110011110000
1111110111011111
1111111110001000
101011101
1111111111000000
1111111100010100
1000010000
110011010
100100111
1011110110
11011011
1001110101
1111111110001011
1111110010101011
1111111000001100
1111101110011010
1111110111101011
1111100110000000
1111101011110111
1111101111000010
1111111001011010
110001100
101000111
100001011
1111111011110001
1000101010
10000111101
111010
1111111101001111
101001111
1111111101100101
110100
100011010
1000000
1111001
1111001
1011000111
11001011
11100010
1000101111
11100000
1111100111001000
1111101010101100
1111111000000001
1111101101010001
1111101010011111
1111110000011101
1111110010001110
1111111100011101
11010011
1111111101000110
1111110101100101
1111110011110100
1111110110101001
101
1011001000
1111111111101101
1111111011111110
1111110111111011
1111111110011111
10111101
11010010
10001000100
1111011100
1101111111
1001100110
101001001
1111110111111001
1111111110101100
1111100100100011
1111100001111111
1111100000011111
1111011011100000
1111100111000011
1111101010110010
1111110100000110
1111110110101011
1111111110000011
10101011
1111111011101101
11101010
1111111110111010
1111111101111000
1010111
1111111100001100
1111111010101001
1100010
110001101
101000100
1111111000110001
1111111001100011
101010011
1111111111
1111110111001110
1111101100111101
1111111100000010
10000001101
1111101101110110
1111100110010101
1111101100110111
1111111000100110
1111110011111010
10100111
1111111001000000
1100
1111111010
10111011110
110111000
10010111010
111011001
100001011
1100100001
10001010101
100100
1110111000
101010011
1000111
1111101010001000
1111111100111011
1111110110101111
1111111011001111
1111110110000110
1111100100010010
101000011
10001001011
1111110101110110
1111110010101000
1111111110011010
1101111011
10011111100
1101110011
100011000
11101001
11111001
100110011
1111111111011101
101010001
1111111101101011
1010000100
10011111000
101110111
100110011
1111111111110000
101111000
101011110
1111110100010101
11001
1111111111111111
10011100
1111110101101100
1111101110100110
1111111000100011
1111101
1111100101101101
1111101111111001
1111110000100100
1111111010010101
1010111111
1111111100111010
100011100
1111111101111000
1111111011110000
1111111101001011
11101110
1111111110101111
1111001
1101100000
1011100000
10111111110
11011000010
1000001000
1101000111
101001100
1111101111001110
1111111100111000
1011101
101011011
1111111000011010
1111101000101010
1111110011110001
1111101110101110
1111111100100010
1111111100100111
1111101010011100
1111110001100000
111001001
1111111111010010
1010000111
110111011
1111111110101011
110001010
1011001110
1111111011001010
1000010
111000110
1010111110
10110101111
1000000100
1111111100100010
1111111001000000
1111111100100001
1111111111000101
1111111101001000
110000111
110010010
10110001
1111110111010111
1111110100111010
1111100100101110
1111101101000011
1111111101111001
1111111100110011
1100101
100100011
101101101
1101011011
1001001110
1111110001000000
1111111101011111
1000110010
1111101111101000
1111110000111110
101000100
1010110000
10110001110
1110001011
1111110111100000
1111110100101001
1111001
101100101
10110111
101011100
11001100
110000010
110010
1111100101100011
1111101110101010
1111101111101001
1111111111000111
1111111101001111
1111111100110101
101101110
10
1000111011
1111110110010110
1111101011100000
1111111001000100
1111110100011011
1111100000100100
1111100101100110
1111110011111010
1001101000
10111001111
10111100000
1001000011
1000101001
1111111101011100
1111111011000010
1111111111111011
1100000011
1011111110
11111
1111111101001110
1111101100000010
1111101011101000
1111110000010010
101101110
101111000
1111111110010000
1111111101010111
110001010
110100
1111110100001110
1111101101111000
1111101100010110
1111100000110110
1111011100111011
1111100011100100
1111100010101001
1111101111001100
100100110
1111101
1111110100010111
1100000
1100100
1111111010111100
111101000
1111101110
11100001
1111101110101100
1111110101001000
1111111101110101
1111110101100110
1111110111101101
100001110
1010101000
1000110010
111101100
1101010111
111000000
1111111011100001
1111110111111001
1111101010000000
1111100110110010
1111011101110111
1111101000010101
1111011110110001
1111100111100101
1111101110101010
1111101101100010
1111101011111110
10001111
1111111010110000
1111111011101011
1011011111
1101110000
1111011
10001110101
1111111010010110
1010101110
1111110111111001
111111100
110011101
1001011001
11001000
1111100111
1001110011
1001101110
100010011
1111101111000100
1111110101000000
1111110110110010
1111101000000001
1111101101101001
1111110000011110
1111101100001001
1111110000100011
100111111
1111111110010000
10011100
1111111101111011
100111100
1100110111
10000010010
10011100011
1011111110
1111111110111100
10111011
1001101
1111111101010110
101001100
110000111
1000100110
10000110010
1100110100
100000101
111100
1111111110011101
1111111100101111
1111111101010110
1111101101001010
1111110110000101
1111110010110011
1111110110010001
1111101001000001
1111111000100000
1111111010111011
1111111010110110
1111111101001111
1111111101011011
1100111100
110110011
10110000010
11000000100
10101011
1111101011101001
1111101111110100
1111110101111010
1111111001110001
111001110
1011101101
1110000111
1110000100
110110110
111110010
1111101001111010
1111111011001011
1111110111100000
1111110000001111
1111101111111100
1111111011111110
111111010
11001110
1111111001010101
1111110110111010
1111111100001001
1001111
11110110
1111110111011111
1111111011010010
10001100001
10000010001
1111111011011010
1111110001110010
1111111100011011
1111111001010001
111111011
111101100
1100101011
1101111110
1111111111010100
10000011
1111111011001111
1111101011011100
100000101
1010001011
10100010
1111111101100110
1000011010
1101011000
1001110101
1100001001
11010111
1111110100101010
1111111000111101
1000110001
1111101110100100
1111111000010101
1001111
1111111010001011
1111110010000111
100111101
1001101011
1001010
1000000100
1001111000
1111111011
101001000
1001111000
1111111000110011
1111110001100010
1111111000000000
1101011111
1111111110000000
1111100111100000
1111101000111111
1111111001010001
1111111011001111
1111111011100100
100111111
111100010
10001010
1101000111
110010110
1111110101101010
1111110011011111
1111101001010111
1111110010000010
1111111011110001
110111001
1111111011111011
1110001
11111010
100111101
1000111101
1111111111110011
1111111110001100
1111111001010010
1111110110010000
11010
1100100
1111110101101110
1111100010110100
1111101011000110
1111101101011011
1111111101111001
1100111010
1101100000
1000110110
1110110111
1111111010101101
10000001
101111110
1111101101100110
1111101101101011
1111111110011011
1001011101
1111111110100010
10110000
100101
111010010
110011101
10010001
1111111100110100
111110111
10010111
1111110110001010
1111111110111100
1111110110100011
1111110100100101
1111100100100001
1111100100100101
1111101010110010
1000110011
10100001101
1100001111
111010111
1100110111
11010000
111000001
1111111111100110
1111111011110111
1111101110010011
1111111000101010
1111110111011010
1111110011100010
1111111110000010
1001010
10101
10010
1111111010100101
1001110
11010011
10101
1111110010010110
1111111011001101
1101111
1111100110101010
1111101011100100
1111101100100001
1111111101001111
1111000100
10100000001
1111111111101111
1111110110110110
1111111101110001
100110
110111011
1011010011
1111111110001100
1111111110101100
1010000001
1111111101110111
1111111010001110
1010100011
1111111011110000
1111111010101001
1111111001001100
1111111001101100
11101011
1011101101
1111111010101110
1111110110100111
1111110010110110
10100000
1111110011011010
1111110001100000
1111110111011111
100110110
1010000100
1110110100
1111011001
1001101001
1111111100010111
1111111111100010
11011001
11001011
1111101001110111
1111111000100011
11011110
1111111101001101
1111111100111100
111100110
1010110111
101101000
1111111111100100
1111110111100010
1000011
1111111010011110
1111111101011010
1111110000110111
1111101100011000
1111110001010001
1111101001010110
1111111010110110
1111110100011100
1111110011
1001001010
1100010011
1111111110111100
10010000001
1111110
1101001
10100100
1111111110000000
1111101001111101
1111111100010101
1111111001101111
1111110111010100
1111111101010001
101100
100100111
111001101
1111110101101001
10000001
1111101
1010110
100010010
1111110111000101
1111101011100110
1111110110001100
1111110111110101
1111110010111100
10111001
1110010100
1010100101
10000001101
110101010
1001010111
1111111110101010
1111111010101100
11011111
11011
1111111110110010
1111111010111001
1111111011000011
1111100011111101
1111110101010100
1111111000010010
1111111011101101
1111111001000101
1111111101001000
1111111011110011
1100010011
1010011100
10101010
1111111100100011
1111111101010110
1111110010010011
1111110110001000
1111111011100001
10110001
10011101111
1111111011100111
1111110101100100
1111111011000010
100000010
1111111101011010
1111111011101110
1111111011110110
101010101
101101011
1111110101
1111101100110010
1111101111110110
1111111010111100
1111101010110110
10110
1111110011000111
1111110111101101
1010101110
11001010
1111111100110101
111100
101011110
100001011
111011101
1101101010
110011110
1111110100010110
1111110001100000
1111110001010011
11101101
11100111
1111111010111101
10011100
1111111111101001
101011
100011101
1111111110011000
10111110
1111111110011000
1111111011110101
1111111011101110
1111111111000100
101010000
1111111001011011
1111111001101001
1111111111100011
10010000
10010001000
1111111100001111
1111111100100000
1011101101
1011011111
1100010010
11000000
10100110
1111111011000101
1111111101111100
100111111
1111111110111101
101111
1111111110100100
