11110111011
1111101101101111
1111001011110110
111110001
100111010
1111101110010010
10111010010
1111111001101010
1101
111001
1111111101110010
1111111101100100
11110001000
11101110011
10000111100
11110011111
1111110010101001
1111111011110100
1111110010111100
1110101100
1111111011010000
110101101
110111111
101000000
1111110110110110
1101001100
111000101
1111100011110110
10100011101
10001011
