11010001000
110110001
1111110111101101
11111
1111110010010101
11011010010
11100101
1111101000001011
1111011110011100
1111101111110001
1111110101101010
1111111101111010
1111110100100010
1111111100110010
10111001101
101000011
1111111001000001
1111111001001100
10101101
1001011001
1111111011011000
1111101100111100
1111100110100001
1010
1111101110011010
1111110001000101
1110011
111010110
11011111110
1111110100000100
