11011101101
1111101111100000
11100000
1111110101100000
1111101110001110
1111111001101101
10111011111
1111110101110001
1111111101111010
1111110010101111
10000011001
10001010101
1111111011111111
1111110010000011
1111011111110100
1011100000
1111111100000110
1111111110011010
10110110001
1111111101101001
11110101
1111110110010011
10001010
11101010100
1111111001001111
1111111110110001
11100101110
10001000011
10010010101
10000100111
