101101101111
10001001111
1011111110
1111110110100100
1111110100000100
1111101010010001
10000000010
100101100110
11010010100
1111110010010011
1111111100111101
111001010
1111010111111010
111001001
100000000011
1111110000000001
1111111011111100
100111000
1111110011011001
1110010
1011010100
1111110000110001
1100000001
1111100100101110
1111110100101100
10100010100
1111111010101011
1101010000
1111111101010110
11000011010
