1111110010110100
101001011
10101011110
10110110100
10010110010
100011000111
1111100011101110
1000111100
1000010000
1111111
10100100
1111110100000011
1001011011
1111111000100010
1111110101010011
1111100110101011
1011100001
1101001000
10101111
10110101011
1111101100011110
1111110100110100
11011110111
111001111
101011100001
11111010100
1111110011011111
10111001100
1111110000001110
1110010000
