1101101
110010110110
101001111
1111111011000111
1111111110001111
101100001
1111010101001010
1111111010001000
101110000
1110110010
101011010
1110011111
1111111101000001
1111011110100101
100001
1111100110100000
1011011001
1111111011101010
1111111110110101
1111111101100011
1111111010100101
10001110110
1111110101
1111100100111001
101010110110
1111111011001011
1111111011011000
10010110110
1111101100001011
1101101110
