1111011101011110
1111011100010110
1111110000000010
1111111100110000
1111001011100100
1111101110101111
1111110110010010
1111111010011010
1111110010010011
1110
10100000110
10010110110
1010101001
11001011
1111111100010010
1101100011
1111111100110010
1111110010000000
100010101010
1111001001111101
11010010110
1111001011
101011111
10101011101
1111110001000110
100000001111
11110010
1111101000010110
111101
1110100001
