1111110001100100
1111111100110011
101001100
1111100110011111
1111100011100001
101101100
1111100011101010
1101001110
10001111111
1111001000
1111110111011010
11101100000
10100110011
1111100010011111
1010011111
1111101001
10000111010
1000111100
1111101111000100
1111010111111100
1111111111110110
1110100100
1101010110
10111111110
1111110001100100
111101011
100110100
1111101111101010
1111101111111111
1111100111100001
