1111111111011110
1111110110001111
10110110011
1000100111
10010101
111101111
1111111100110101
1111101111011010
1110000
1011000110
1111100100101010
10111000110
1010011010
10110000101
1111111110111010
1111110111001011
1111100110010001
1000110111
1111101001100011
1111110101010011
1111101111111111
1111111000111011
1001100110
11000000110
1111111110110001
1111100100010100
1001010110
1111110110100001
1111111110001100
1111101000111001
