1111101111010011
1111110001010110
1111110010100000
1111111001000010
1111011101
1111101100111000
100001010010
10010111101
11011110
1111101101000000
1111111011110011
10111001001
1111111101010011
100111101010
1111100011111110
11110110010
1111110100111011
1111011010100011
1111101111001100
11101110111
1111011111010011
110000111
1111110011011101
1111111110011000
1101001
10011010
1010000000
111111100
1100101101
10100111001
