11000000011
10111000111
1111111100110101
1100100011
1111110101010000
1110110101
1111111110001000
1111001
1111011110011101
10111110000
1111101110011001
1111101000110011
11111111000
1100001100
1111110
10010111101
10011111111
1000110110
1111110000010001
1111011110
1111110000001110
100001001
1010100011
1111111101110010
1101111000
1101001011
10110101101
11000010111
1111110110010011
1111101011100111
