1111101010001111
1111111100000011
1111111000010110
1010111110
100111010100
1111111101000100
1111111100110101
1111010101000000
11011010
10110100011
1111111100111110
10110000101
1111111001101110
100001011011
11100110
1110010011
10000100011
111010010
1001
101001101000
10001010000
11001111111
1111100110011101
1111111000010111
1100000011
1111100110011000
1111110010001110
1111111011101110
1111110011100000
10111100
