1111101111010111
1111111110111111
1111110011001101
101011011011
1101111
1111011010
110101100
1111111110001011
1111101100101101
11011000101
10000100000
100011110
10101110110
1011010000
1111100111
1111110100100111
1111111111101111
10011110010
1111110100011000
111110101
10100110010
1111101111
1000101011
10110010000
1001000000
100001111
1111110010011001
1110011011
111110000
1001010101
