1111010000001111
1111110110111101
1111110101110100
111001111
1111110100000001
1111110110111000
1111100101101010
1110110000
1111010101000011
1111100101
1000000
1111110101001110
1111111110100111
1111101000011001
11110010
10000111111
1110100000
1010011010
1111010011
10110100010
101011101
1111101101010100
10011001010
10000100111
1000111101
1111110001101101
1111101111111111
1111100001110010
1111011111111000
1111111100110111
