1110111110
1111011001010010
1111101001100100
10001011000
1111110010011100
10110111010
1111100000110010
10111001010
1110101010
1111110000010111
100010110000
1111111001101111
1111011011110010
10100001001
1111111100000010
1111000011
10101010101
11011100111
1111100011101000
1111101011010011
10100101001
111010
1000001001
10010001000
1000010111
10101010000
1111011100000000
10000101110
110100101010
1111110010001011
