1111100010001100
10000010
1111100110
1010010100
11000010100
1111100110100011
1111111100111001
1111111011000110
1111101000100011
1100101000
1111010110011011
1111100010111100
1111101011001001
10111111000
1111110000110000
1111110111001000
110100011
1111011010000011
10101001111
11011001001
1111111000010011
10001000100
1111011011100010
1111101111100001
1111100111010001
111010010
1110100
10010100101
1111001100101101
1111101010000000
