10100001
101010100
1111111111101001
1101111
1010101
1111111010111001
10111010
101010
1111111010101111
1111111110111101
111
101110
1111111110110110
1111111111101010
101100110
11000111
1111111101110000
1111111011011100
100011100
100000101
1111111101110110
10101111
100001110
1111111100011010
1111111110111011
100101110
100110010
100011
1111111111000100
1111111100100111
1100010
1111111011000011
111100
1111111001011010
1111111011001111
100011101
1111110
1111111101001011
1111111001100111
110010011
11111011
1111111111111100
1111110001000101
1111111000110000
10010000110
110111111
1111111010101011
1111110010010110
1111110110110010
110111
1011011101
10001101100
1011000
1011100
1111111101011011
101010101
11001001
11011101
1111111111001111
11011110
1111110111010010
1111111110111010
100001111
1111111100011101
1101010
1001100110
110101
1000110001
1101001010
1111111010011100
1111110111011011
1111111001000100
1111111101011000
1111111011001110
1111111101000010
1111101110011111
1111110101011010
1111111101000011
1111111111011101
1110001100
1011011011
1111111110100110
11100100
1111111011110001
1110100
1111111100001011
100101011
1111111111110010
1111110100111101
100111000
1111111001101101
1111111111111100
110011000
1001111110
1111111111001111
1000110000
1111111100011001
1111111000000100
1111111110100101
10110110
1000001
111101111
1111111011100110
1111110011001111
1111101000100110
1111111010111101
1111110111100101
1111100001011101
1111100011100011
10100110
1111111011000000
10111000
1111111011011100
110111
10000110010
1111110111001000
1111101111010100
1111111110011010
1111110101000100
1111111010011001
1111110110000101
1111111101100110
1111111110110100
1111111100110111
1111111111000001
1111111111111000
1111111101001000
10000101
1111111111110010
111010101
10110001
1111110010110000
1111110001001011
1111101101000010
1111110001111100
1111011111001011
1111011001101011
1111111010100101
100100111
1111111110010011
1111111110100010
1111111010100010
1111111101111111
1111101000111101
1111101101110001
1111111100111010
1111111111101111
10100100
1101110110
100111
1111111001100111
1111111000111000
1111111100100101
1111111111111011
1011000
1001
1010000000
1001111
110100000
111011101
10100
1111110111001111
1111111100010101
10001000
1111101101000010
1010011101
1100000111
1001101
1010100
101010011
1011101
1111111010010100
1111101111000101
10011001
1111111110010111
1111111101110001
1111111100100010
101101010
1000101111
1111
1111111110111001
1111111
1011011111
1111000000
10011110011
1101000110
10110100100
1000010010
110010111
100100010
100000001
1111110011110000
1111110011011011
1111111100010101
1001001010
111001100
101011001
10001110100
1010101101
1000011100
1111100111100001
1111101101010011
1111111110110001
1111111000110011
100011101
1111111001000000
1111111000111100
1111111011011001
1111111110011011
111010001
110001011
101111110
111111101
1000010111
110110001
1100011100
1001010000
1000111001
101001
1111110010011110
111111
11001
100011010
1111110010
1111101100000001
111111101
100100111
1111111011001100
1111100111000111
1111111011110110
1111110101111100
1111111111111000
111101
1111111101111111
1111111100101111
1111111110100000
1111111010100111
1111111111110011
11010000
10100100
1000001110
101011111
1011100100
10110000011
1001000000
1110011100
1001101110
1111111001001110
1111101111001100
1111111000110001
1010100101
1100111
1011000010
1101101110
110011001
1001000000
1111111000101000
1111110110011001
1111111110111011
1111011
101011
11000010
10111111
1111110111110101
1111111011101011
1111110100011001
1111101100110010
1111110101101011
1111111101011000
100001001
1100010110
10001000010
10010001000
111101101
1011001101
1111110110111011
1111011010101010
1111110110001010
100101110
100010110
10001111
1111111110111100
10100000
100110
1111111100010010
11000
1101100011
110111101
100000110
100010001
1111110011110001
1111110110000000
1111101010011011
1111110111111111
1111110011100110
1111111001100101
101101110
1011100010
10011110111
10100100010
10110011010
1011011110
110111000
1111110111011001
1111010100110010
1111110000111001
1111101100100101
1111111101110101
111110101
1111101011111011
1111110100001111
1111110011100011
1111111011110010
100000
1010001100
111100
1111010
1111111011111010
1111111101010110
1111110010001101
1111110011101011
1111110001000010
1111110101111100
1101011
1000000000
1100011101
10000110100
10010111101
100001011100
10001101111
100010001
1111110111001010
1111011001000001
1111101111000011
1111110000010110
1111111101010111
1111111100101100
1111110000100010
1111111010000100
1111111011010100
111100
1000000111
100100110
1111111010100101
1111111100011001
1111110100101000
1111111001101010
1111101011001111
1111101111000011
1111100111010111
1111111110100101
101100011
1001011001
1000110110
10001110011
11000110010
10001011001
10000110100
111101100
1111110101001011
1111010110101100
1111100100010000
1111110000001010
11001
1111110100010011
1111111011011010
1111110100101101
101010111
1001100000
11011010
1111110110001000
1111110111101001
1111111011000110
1111101111111011
1111111000001010
1111101100111111
1111101011011001
1111111000100010
111111110
1111111111001000
100110100
10011001001
10000101100
1110001100
1010111001
111101100
1111111100010010
1111101100000011
1111010110100101
1111101011000010
1111101111111110
1111111100110011
110010
11111100
1111110001101111
101011111
1000011001
1111101111011100
1111111111101101
11001
1111111000000011
1111110110011101
1111110001110111
1111111000110001
1
110101000
100001110
100100111
1001001100
111010100
1101110000
1011011101
11000100
1111111101010100
1111110110101111
1111101100001011
1111101011000111
1111111000011001
1111111001111110
111001
1111111010000101
1100100001
1111101000110111
1111110111000101
1111111111101101
1111111110100011
1111111001101101
1111111010111111
1111111011011110
1111110110100000
1111110101011001
1111111100111111
1111111000000011
1001010
11001
1011100100
100101001
1010000000
1010001000
1011111000
1111111111110110
1111111100010111
1101011
1111110100011011
1111111110111011
1111101100010100
1110011
1000010111
1111111101000001
10100011111
1111111111101001
1111111010101100
1111111111001000
11101101
1111111000100111
1111111010000000
1111111101010011
100110
101111101
10100001
11110110
1010011111
1101010
10010100
110101110
111011010
100111011
1110011
1111111011110100
1111111001110001
110010101
1111111001010111
1111111011111011
1111110110101100
1111110100100100
10000100
1111111101000110
1100010010
1000001010
1111111100101011
100110
10001
1111111001011000
1111111100100101
1011011
1101011
100001
1000110011
1011001010
10010100011
110111101
111110100
101101001
111000
1111111100001000
1111111001100000
1111110101100101
1111101100111100
1111110110010110
1111110100110011
10110111
11011100
101111001
110111
10010101110
1001000100
111110100
1001100101
1111110100000010
1111111101100111
1111111010110111
1111111011111101
1111111011100100
1111110100011101
11101111
1100100010
1100011010
100111111
11011
1000101101
1111111111011110
1001000001
11110010
101101
1111101111001101
1111110010011100
1111110101011101
1111101101110011
1111111000100111
100010001
10100010011
1111111011011110
1111110010100110
1111111010000101
1111111101010001
1111110110101010
111101000
1100010
10110001
100101110
111110
1111111010101001
111111111
111110001
110000101
101011100
110111101
11011001
1111111101111001
10101111
1111111110111100
100010011
1111110100100011
1111101111000010
1111111100001111
1111111001110010
1111111110110001
1111111100001111
1111111110110001
1111111000110110
11110
1111110110001111
110010
1010011111
101101001
11010011
101010111
1111100110
1111111010011001
1111111101011011
1111111110101100
101001100
1111110111101100
1111110100101011
1111111111110011
1111111100011000
1111111010011001
1111111001010111
1111111001110010
100101011
10100011
1111111110011110
1111111011011000
111110110
1000110101
1111111100110111
1111110100100000
1111110111101000
1111111111001011
1000010100
1100110111
101000101
11100111
1010011
11111111
10111011
1111111110011001
1111111011101000
1001110001
1111111101111001
1111111000001110
1111110111000001
1111111110111001
1111110011100101
111110
11011110
10011101
1000010111
1000011010
1010111010
1010110000
1011111111
1111111011100000
10011011
1110
1111111110010110
1111110110001011
11011101
1010011010
1101000
1111111110000000
11011001
101010110
101101010
101000100
1111111100001000
10100101
1111111000100111
1111111101100010
1111110010001000
1111111100001101
1111111010100010
101000110
11001100
100000011
1000001101
1000110010
10110101
11000110011
1101111101
1111111010101111
1111110100100110
1111101101000011
1111111101001010
1111111010100101
100110001
101010
1111111001101101
1111111110011000
10110101
11011000
1111011011
110011000
1111111110111111
1111111101111010
10000100
1111111010100100
1111110101100000
1111110011010000
1111111101011111
1111111001000001
1111111000110001
1001011110
1010111
11011100
1100000011
11001111101
11000110000
1000110011
1111111000001000
1111111100011101
1111111101001000
1111111100001110
1111111111011000
11001001
11001001
110010011
1001011100
1110110
1111111100001110
1111111010111101
1111110111000101
1111111000101110
1111110100101000
1111110100010111
1111110101001110
1111111110000110
1111111101110001
1111101111111011
1111111010011000
1111111000110001
1111111100110101
10110100
10001010000
10010011000
1111111110
10000100001
1110111011
1011001100
1111111011110001
1111111010111010
1111111101101111
10001001
100101100
10110111110
100001100101
1010000010
101110010
11001101101
100010100001
10000111101
110011111
1100000111
1100011000
110101001
1111111011001110
1111110011111010
1111101101101110
1111111000001011
1111111011100100
1100001001
10101101
1111110101101110
1111111000111010
1111111110000111
101000110
1101010100
11100101
1111111010100110
1111111100010110
10111100
1111111010101111
1111111010111100
11110100
11000010100
100110100000
100110110100
100011110011
100011101010
100110101
100110110
11001011111
10101100000
1010101
1111111010010101
110000111
1011111101
1000010010
10111001011
1100101101
1001111101
1100111100
111110010
10010110
100110010
1111111110010111
111011
10100000
11101000
101010101
111001111
10001100
1101010010
10000101111
1100010010
1100000
1010010010
1101100111
1100010011
1000100001
11111011111
1100110010
110110011
1011110010
1011100110
1101000100
1101101
1111110111110010
1111101110111001
1111110110111101
11010100
100001101
10101000
100100101
