10100101
1111111111010000
100010010
1111111111110011
1111111100100111
1101
1010011
1111111100000110
10000101
1111111010101011
11010110
1101010
11010101
1111111111100010
1111111101110100
11010010
1111111011000100
1111111111010111
1011001
1111111010110110
1001101
100100100
11010100
100110100
101011001
1111001
1111101
100001101
100101011
1111111111101101
10001
1111111100000011
10011000
1111100
1111111101100000
10001
1111111011001110
1111111010011011
1101000
1111111110101111
1111111010011010
1111111110001001
111101
101010110
1111110101101111
1111111001111111
1111110100010110
1111111011100110
1111110101111010
1110011
1111111010101010
100
1111111100110111
1111111011010010
1111111101111000
1111111101100011
100010000
11
100000011
1111111111001001
1111110110101010
1111111010011010
1111110001001110
1111101000001001
1111110000110101
1111100110111100
1111110011101101
1111101111010010
1111101100000011
1111100100001000
1111101010110101
1111101111110000
1111110001000010
101111110
1101000000
10110111
1001110010
1111101101011011
1111110110101011
1111110011100001
1111111010101000
11101101
10011000
1101101
1010111
100111001
1100100101
100110
1111110000011001
1111110011000111
1111110000101011
1111101101110111
1111101111110100
1111010111100100
1111101000100100
1111101110100100
1111110111011101
1111110111001010
1111111000111111
11001
111
110010
1100011000
1111111110110101
111110001
1111111101001010
1001
10010101011
1111111110110000
1111111100100010
1111110110110000
1111111100111011
111110
100001101
1101010000
11001001111
101111010
110
1111111011001100
1111110111111000
1111111110011100
1111110101011000
1111111110100000
10101001
1010110100
1001011
11110111
1100111011
100101111
10100100
10101011
1011111110
1111111111011100
1111111011101011
11101001
110001010
10000000000
10011001011
1011001011
110011000
100000
101000100
10010101101
101001010
110001
110011111
1010011001
110110101
1111111100110000
1100011
1111111101011001
110010001
110001001
100100
11101001
10000001
10000101101
1100111010
111001
110110111
101110101
110001
1111111110101101
1111111100111101
1111111110110010
11101011001
11010110
1111111101000001
1111111110001110
11110000
100001111
1111111101101110
100010111
111100000
10101010010
1011100111
10011000101
10000010010
110010101
1011111
1111001101
110110010
1010110000
110110111
101111011
100100000
1111111011010110
111011101
1011101000
1111111010000110
1111111101100101
1101101101
1111111011010101
1010000100
100111110
1111110010010101
101001110
1011010011
1111111011100111
100111
10001101100
1011100110
1111011011
1001010100
10110110001
1100011100
10100101
1111000
100011110
111001001
1111111000100111
1111111110001000
10000000
1111111010011101
1111111111111110
10011100
1111111010110011
1111111101001110
1111111000000100
10111111
1011
1001011011
1010000111
1111111011110100
100000010
10000101111
111100110
11111110010
11001101101
1011011011
11011011011
10010100001
110101101
10111010
1111111111000101
1111111001001010
1111111100010000
1111111100110001
1111110111011000
1111111010010010
1111111001010100
1111110100110000
10001010
110011000
1111111101110100
1111111110110100
1111111010000010
10111011
1111111101110001
1111100111
11101100101
10010000111
1000110100
110101000
10010010101
11010011011
10010111000
1100
11000100111
10000101100
100110001
10110010
1111110011001101
1111101101011011
1111110011000010
110111
10110101
1111110110101111
1111111011011011
100101
10100
100100110
1001101111
1111010
11110110
1010110001
1011001011
10111110100
10101100001
1111110110011100
1010010010
11000011000
100011010
10111010000
1111010100
1111110100100101
1010111101
1001001101
100010001
110110
1111111100010010
1111110111011100
101101001
101111
10000010
101000111
1111111001001001
100101100
11001100
1011110101
101111010
1111111011100011
1100101100
10010001001
1001000001
111100000
1101010001
100011100
1010110010
1100110110
1111111110010110
11001000101
10010000111
1111111110111001
11001100
100000101
1111111011010101
100011001
1111111000111100
11110111
101100000
11011000
1010111001
10000010
1111111011110110
11001110
110100011
1010001100
101001011
1111111010100110
1111111100000011
11000101
1001101010
1100001101
11101101001
1110
111101100
1000000100
1111110110010010
11000100001
1000110000
1011110111
1111111101111100
1000111000
1111111110101110
1111111010111011
1111111101110001
1001100
1111111101000011
1000011
1110111001
1110110110
1010100100
1110000100
10
111110000
100100100
1111111111100111
1111111001111010
1111110011000001
1111111000010111
1111110001111110
11110001
1111110100110010
1011101000
1111111111101010
1111110101101011
1011101100
1111110110011110
1111111101000010
1111111101101010
1111111000011001
1111111110001111
101010
11011
110011110
11011011
100111110
1101101010
1001110101
1000001010
10010101
1001000110
1111111100001101
110010
1111110111010000
1111110010101100
1111100000111011
1111101101010101
1111110111011011
1111111000011010
1001111010
1111111011111100
1111111000000101
1111110101000111
1111111010111100
1111100100011100
1111110011100101
1111110000000001
1111101111010111
11001100
1111111101010111
1111111111010010
1111111111111010
11101100
110000111
10010000110
1010001100
1111111110101011
1111111111010101
1111111010110110
1111110101011111
1111101110111000
1111111001110001
1111110110111000
1111110000001001
1111111001000110
10001111
1111101111100100
1111110001110111
101100
1111111001010110
10001000110
1011101001
1111101110111011
1111101000110001
1111110001010001
1111110110000101
1111110111110110
1111111001100010
1111111001001010
10111100
11000001
110100100
10100001100
1101010111
11010001
1111111001000101
1111110011101111
1111110011010110
1111111011010110
1111111000111001
101111101
1111111100110001
1111111100100110
100010110
1111110111000111
1111111011001100
1111111000010000
1111111000110111
10001111011
1010111000
1111111010101010
1111100001110110
1111111011011011
1111111000000111
1111111011010011
1111111111100110
1110111
1111111010100011
1011100111
10011110001
1110111010
1111001011
1111111000101100
1111110111010100
1111111101011000
1111111000011110
1111111110111000
1111111101100011
11111111
100010110
11000111
10111000
1111110101011010
1111110011000011
1111111110010100
1111111111011100
1110010011
10111
110111110
1111110001100110
1111111011001101
1111111011011111
11011
1111111000000101
1111110011101000
1111110101100101
11001101
1000100011
1010100101
101000001
110100110
1000101
1111110111101000
111111
1111111010101011
1011001010
101100001
111001101
1111110111110110
1111101101110011
1111101010100111
1111101111111100
1010101111
1100110111
1111101010
100110101
1111110101111101
1000111000
111111011
1111111100100010
1111110010001100
1111110011010111
1111111111111000
1111111010100010
1111110000001000
1111111110111110
11001
1111111011011111
110110
1111111000011101
1111111001000101
1111111100111001
1101011
1111111001101100
100011100
1111111001010111
1111111010001011
1111110000111011
1111110000001111
1111110101101111
111010011
101010100
10010100
1111111011001000
1111111111010100
1100100001
1101110011
1111111001011111
1111111001111010
1111111000100011
1111110010110110
1111100010001011
1111011110111011
1111110001100011
1111111100101100
1111111110100000
1111110111101101
1111111011001110
1001010
101010110
1111111011001000
11010011
100111110
1111111100110001
1111110100111010
1111110100000111
10101001
1111111110110000
101000
1111111000010010
1111111111111000
100001101
1111100101
11010100
100111001
1111111011100110
1111111101110001
1111111001001101
1111111000010000
1111110001100011
1111110101111001
1111111011101010
1111111011011000
110100101
1111111100001100
1111111110110000
1111111110110000
10110101
101010100
1001010010
11110011
1111111001000111
1111110000000111
1111100110011100
110110110
110010001
1111111111010000
101010000
1111101111
10101110010
1011010011
1111110100001001
1011000010
110010100
1111110111010101
1111111001000101
1111111001000100
1010
1111111100001001
101101000
1000000100
1110100111
1111111100111000
110111011
101000
10100
1001
11111011
1111111111011010
1111111110001000
1111101011111110
1111101001001100
1111101001111100
1111111111110000
10111101
100111
111010010
111100110
1000001001
11000101
100101110
100011000
10011110
1111111111011111
1111111101001110
101000111
111111100
1000111010
111110110
101111101
1111111101111110
1111111011101010
1111111100000100
111010
1011000110
1111111100010001
11010001
1111110010010011
1111101110110100
1111101111100010
1111110000100011
1111111011111000
1111111011110001
10111100
10000110011
1010101010
10001010011
1111111111011000
1111110111110111
110100111
1001010001
1101010
1111111110100010
101001010
11100
111001101
10101101
1000
1111111111101100
1111110111100111
100000000
10111001
100100111
1111110110101001
1111110101000100
1111101111011010
1111101011111000
1111111010000010
1111110100101100
1111111111110011
1111111111110101
1111111101010000
1111111000100100
10000110010
1010100001
1111111011110111
10110110
1111111110011001
101100
1111111100011101
110111000
11010001
1111111100111000
110111
100110110
1111111011100011
11100100
1111101100101010
1111111011111001
1011000100
110000
1111110111010100
1111111000011111
1111111100101000
1111101010100100
1111110011000000
1111110010110001
1111111110101011
100111
1111111110101100
1000000101
1111110001111110
1111110010000110
1111110010111110
1001000100
10111011010
10101001111
1101011000
10110111000
10000011001
1110011111
1011101001
1100111
11010001
1001011001
1000101
110110000
1101111001
101010111
1111111110000011
1111111000011111
100111101
1111111001010010
1111110111011111
1111111100101100
11101001
1111111100101111
1111111010101111
11011000
1111111111001111
1111111010101111
1111111010010111
1111101100100110
1111110000010010
1111101100101100
1111101101100010
11000
100111001
10001100
1111111100101011
1111110111101001
1111110100001101
11011111
10101110110
10100010010
1111110100110000
1111111000100001
101110
1111111101111011
1111111101110000
1000010
1111111111110011
101010100
1111111110010011
1001001
1011110
1111111011011001
1100
1111110110011011
100100
1111111000101110
1111110011001011
1111110111101001
1111110001011110
1111111011101001
1111110100011101
1111110001110010
1111110000010011
1111011011101001
1111111010101100
1111111111100010
100000101
1111111000001101
1111110110101100
1111110100011001
1111111101010101
1011000
1111111100111011
10111
1011111
1111111011011110
1111111010101001
