1111111010101101
1111111110101101
1111111111011111
1101111
10001010
1111111111000011
1001101
101011010
10100101
1111111100100100
100111111
11011000
1111111010110111
1111111010011111
1111110010010101
1
10011010
1101111
1111111011001111
1111111100001001
1111111111010011
1111111011101001
1111111101100111
11011
1111111110001011
10111
1111111101000001
1011100
1111111100011110
100000100
1001001
101011110
0
1111110111101111
1111110100011010
1111110111001110
1111111010110011
1111110111011101
1111111111000101
1111101011110111
1111101100001001
1111101001101101
10000101010
110101110
1111100010010100
1111100110001110
1111110100101100
1111111101110000
1111111010100100
1111111111000110
1111110011110110
1111111010101111
1111111111110111
1111111110011111
11010
1111111010111000
1111111010111000
1111111110100101
1111111110110001
1111111000000000
111110101
1111111011010001
1111111010011101
1111110000001000
1111110000011000
1111111100010010
1111110111111000
1111101011001110
1111101101000010
100111011
100011010
10010000010
1110000000
1011111011
1111111110100101
10011100111
1110011000
11001100
100110100
1111111001101011
1111111001100010
1111111011001011
1111111101011100
1111111110111001
1111111110011101
10000000
111110000
11110101
1111110110111010
1111111100000010
1111110001110011
1111101011101011
1111110010111110
1111111101001111
1111111101010010
1111110111101000
1111101011011010
1111101001001010
1111110101110101
1101100000
10110100011
10100000101
1011111
1101000000
10100001111
101111100
101001011
1111110111110100
1111111010101110
100111
10011111110
1111111110111101
1111111100001000
101011110
1100100111
100101110
1111111110101000
110011010
1111111011001110
1111110100000001
1111111011001101
1111110011000101
1111111001000101
1111111011011100
1111110110011100
1000001111
111110001
111101101
1101010111
111111000
1111111000101110
1001100100
1010101011
111111100
100011010
1111111001000100
1111111101001010
10111010
1111110110110011
11000001
10111101
1111111110111010
1111111001
10000000010
111101100
10010000010
11010010
1111111111100111
1111111000111011
1111111001001110
1111111110010011
1111111100101000
1111111110010001
1111111010111101
111010000
1011011110
1011110100
110001110
1001000101
110111001
1001011000
110011001
1111111100110000
1111111000010001
11011010
1001010010
1111111011010001
1011010
1111111110010101
111111001
1111111000000100
1111111000
111001010
10010111000
1000011001
1111111010010111
1111110111000011
1111110101100100
1111111100100010
1111110111001101
1111110010010111
1111101111011011
1111111101001000
101011001
1111111111001001
1000111
1111110
1111111111101001
1111111111000111
1111111110001001
1111110111011111
1111101100001011
1111111101001011
1100010110
10100110
10011001
1111111101001010
1111110110111111
1111110000101001
110101010
1110110111
11001000100
100101000
10101101
1111110111011101
1111111001101011
1111110111010001
1111110001110010
1111110010000000
1111101010001000
1111111101101111
10110010
1011011000
1101000001
1010000000
1111111011000101
100010001
1111111011100110
1111101101010001
1111100111001001
1111101100011001
1111110111111011
1000100
110001010
1101000001
1111110001100001
1111111110101110
1000001011
1111111001
1110010000
101010111
101010000
1111110010100010
1111111100011100
1111110111011001
1111110001000011
1111101110001011
1111111010010011
1111111110011000
1100100100
11111010
10000110101
11110110
1111111000100111
1111110111100111
1111111011111100
1111101011001100
1111101011010110
1111011110000100
1111100110111000
1111110101011100
1111111001111100
1111111100011111
1111111001101011
111011010
1111111100000100
1010100100
101011111
1111111100101111
10110101
1111110011111110
1111111011010011
1111110000110010
1111101100111111
1111101101001110
1111111101011100
1111111
10001101011
1110011101
11010101
11001100
1111111010010100
1111101101101001
1111101101011000
1111100111101100
1111011011011101
1111010110001000
1111101000001001
1111101101111001
1111110111111100
1111111111101110
10011000
1111010110
100011101
10000010010
1111111100101011
1111110111000110
1111110110110101
1111110111111010
1111101111011010
1111111000000100
1111110010000011
1111110110001000
1111111110001110
1000011011
10101101100
110101100
10000100
1111111010101010
1111111110011101
1111101100010110
1111101100101101
1111011011001101
1111011110110001
1111100000010101
1111110000101111
1111111110110011
100110001
1111010
1110000110
100110100
1001111010
1111111101101001
1111110011100111
1111111111001100
1111111101111011
1111111011011110
11111001
1111111011111010
1111111001010000
1111111101000101
11010011
111110001
10001100010
1100110011
1111111001010010
1111111000100101
1111110011010101
1111100111101000
1111100111011001
1111011010111001
1111011110101101
1111011100100011
1111100111100101
10001001
1100011010
1111111110001110
1010001111
1111111000101101
100100001
1111101010101000
1001
1111001
1010011001
1010100
101110110
110000010
10000011
101000010
1111111
1111111010011010
1111111110110001
1111111011011110
1111111011011011
1111110100011001
1111110100000100
1111110011110101
1111101100000110
1111100010110000
1111101011100001
1000010001
1100010011
1111110110100000
10000100000
111111011
1111111110010100
1111110001010111
1111111110011110
1111110000011011
1111111110110110
1101000101
1000011010
1001111
1011011110
11011101
1011011
10
1111111110011110
1111111101011111
1100001
1111111101010101
1000100
10100
1111110011110101
1111111101101000
1111111110001101
1111111001101010
1100
1011010
1100010100
100100001
1000010
100110001
1111110111011000
1111110110111001
1111001
1111111111011111
11000101
1010000000
1000010000
1100011010
1101000000
101111001
1111111101011001
1111111111000100
1111111010111010
1011000101
101011000
100110001
1011
1111110010010011
1111111010001100
1111111101111001
1001110111
10011101
10101
1000000
1110110100
1001010001
1111111001101001
1111111101101110
1111001001
10011101010
101100011
1111111101111110
1111110011000111
1111111111011010
101100010
101001100
110000001
1111111001011110
1111111000101001
1111111000101101
100011100
101101101
10111101
1010011101
100001
1111111011101001
1111111110100100
11000
1000100110
1010011000
1111101
1111111111101111
100111001
101010001
1111111011011010
1111111110001011
10000011101
11010000000
1110001111
1111110011101010
1000001
1111111111000011
1001110100
1111111101110100
1101100
1111110111101011
1111101110110100
1111110111010011
1010100
1100010110
1010011000
110011101
1111111110000001
1111111110011010
11100001
110011111
1010110001
10100000
100001011
10000100011
110100
1111111110101110
1111111101101111
1111111101111110
1011000110
1111011000
1111111011011111
101000
110011100
111110100
100001101
1111110111010110
1111110111010101
1111110111011001
1111110000000111
1111110110011111
111010110
10110111010
111000000
11010101
111000
1111111100000011
11010100
10
101110001
1111111100100111
110110001
1010101011
1111110011110111
1111110100000100
1111110101110100
1111110001010011
1000001100
11001011110
1001010000
10110001
1111111101101100
110110111
1111111001000110
1111111010110110
1111111110100110
1111101010000000
1111101110111010
1111111101000011
10001110101
1101100110
11011011
1111111111010101
1111111111101110
1111111100000111
1111111000011001
111111100
1100100001
1111111000101001
1111111100110011
100000
1111111000110101
1111101100100000
100001101
1101010111
1111110101100010
1111111010101001
1111000100
1111110011000110
11100010
1000000110
1111111011100000
1111110011111100
101010010
1111110111010011
1111111100000001
1111110011110110
1011001010
11100100
1110001010
1010010100
1001011001
1111111110001000
1111111001111000
1010011110
11100011
1111111011010011
1111111000101101
1001001001
1100110101
100110100
100101010
11010101
1111110001111111
1111111111101101
1101101001
1111110110001000
1111101110110000
10101110
1111111001010000
1101
101000
1111111000101011
101111
10001
100100100
1101011010
1000011110
1100010111
10100001111
10000110111
11110010
1010010101
1111111101010001
1111111100001011
1111110001110100
1001001
100101111
100100111
1011101100
1010001000
100000111
1111111000110100
1011111010
1111111000111111
1111111001001111
1111111110111100
10101000
10101011
1111111111110101
10001010
1111111001101111
110101010
111001011
100100111
1101001101
1100010001
1011101000
1010010111
1101001110
10001100
1011101000
11110110
1111110000010101
1100000011
1111110011100111
1001100000
1111111011000011
11111111
1000100001
1111111111110100
1111111110111100
111010010
1000010000
110
10000001
110001111
111110110
1100000
1111111011011100
1111111001110100
1111111101101100
1111111111111110
111000010
11
1001100100
1001101000
1101000111
110110110
1110111010
1110100
1111110010101010
1000110111
1111111010010000
111111110
1111001
1111111111001110
1111111011101110
10011010001
1111111111000000
10001010001
1000011000
1010100010
1011111011
110101001
10011011100
11110110
1111111100100101
1111111100101110
11001000
1111110110101011
11110111
101001111
1000000
111001
100000000
10110000
100010110
1111110100110101
110000
1110100011
1111110011100001
1011011011
1111111010110100
1111111111011000
1111111011110110
1001000001
1111110111000111
1000100000
1110011011
10100100110
11000100100
1110000111
1100001010
1111111111110101
1111111010001101
1111110110011101
1111110101101000
101101011
1111110111101100
1111110011000001
110000
10010101
1111111100000100
10111
110000000
1111111000000110
11010
11001010
1111100
1010101010
11100010
1000011
101010
10101110
100001000
10001011110
101010000
100011010
1111111010000010
10010100
110101
1111100001111101
1111101010001001
1111101000011000
1111110111010011
1111110011110011
1111101010011101
1111100010111111
1111101011111001
1111111100001101
1111110110100111
10000011
1111101100111101
1111110101101101
100000111
11111100
1100001
1111111111010101
1011010
1111111110011101
1111111101111000
1101000
1111110101101101
1111110011110011
1111111000101001
1111101100110111
1111101001100101
1111110101001111
1111101011111001
1111100111001110
1111101001011111
1111010111000110
1111010111000111
1111010010101110
1111101001110001
1111100011101101
1111100100010100
1111110111111100
1111101110011110
1111100100101110
1111011010101101
1111100110101001
1111110000111001
100100011
100110011
1111111101111111
1111111011011000
1111111011101101
1111111111011010
1111111010101010
101010010
1001100110
1111111111110000
1111111000100101
10000101
1111111101111101
1111111011001010
1111101111101000
1111111001100001
1111110000001010
1111101101001010
1111100111101111
1111110001011000
1111111011111111
1111110011101111
1111100110100100
1111110110110000
1111111101011001
10010100
1111111100101110
1111111100100111
1111111110000100
1001000
1111111011000101
100101011
