1111111111000111
100000010
11111001
10110011
1111111110001101
100101011
1111111110001110
100110001
1111111111000001
10100
101011
1111111011000000
1111111001110110
1111111100010100
10000010
1100110
1111111110000111
10001110
1111111010100111
100100101
1111111010101100
1111111101011100
1111111101000110
11001011
1111111011000101
1111111110010101
1111111100001100
100110011
100001
100111000
1111111101111000
10100101
1111111110100111
1111111101011001
1111111001100101
1111111010110111
1111110111010111
1111110101000010
1111110100010111
1111111011101011
1111100110101111
1111110101101101
1111111100001011
11001001
1111111110010100
1111111110001001
1111110011111101
1111101100101101
1111101100001111
1111110000100010
1111110010000101
1111111110110100
11100000
10100111
1011111
100101000
1111111100100000
1111111101010110
1111111010011101
1111111110010001
1111111001111010
1111111001111000
1001111
1111110110011100
1111111000001101
1001110010
1000110
1111111011101000
1010100
111000011
1011
1001110001
1000111110
1100001
1111110110011111
1111111000001000
1111111100100010
1111110100001100
1111100101000110
1111111100001011
11000101
111100101
11011100
10011110
1111111100010010
1111111111101110
1110010100
1000111110
10001
1000100000
1010111
1010010
101001101
11001001100
1100000111
111001101
1001010010
100000000
110010000
1110011111
1100111011
100101010
1001110
101101
1010001
1111110011111010
1111110001110110
1111011010001000
1111101111000010
1111110111001111
1111101110001011
1111111110010000
1111111101110110
1111111011100010
1000011111
100111000
1111110111000000
1111111111111101
1111111110101001
100011101
10011000
1010100
1011011011
1001000000
100001001
1111111001101001
1111111010101111
1111111111011101
1001111100
11000000
1100000001
100001000
1101110010
1001101
1111111111010010
1111011001110110
1111100001101000
1111101001010001
1111110111110010
1111110111010110
1111111111001101
100101111
1100001010
1111111110111100
1111110110010100
10010
1001110010
10000011000
1000011100
10110010
11100000
1111111110011100
101100000
1111111101001000
1111111010011100
101110000
110000010
10110001
10001001
1111111011110000
1110110
1111111110110010
1001011000
1111110111001010
1111101001001110
1111101000000110
1111110101101000
1111110101101100
110001
1010111110
1111110101101101
1111110101010011
1111111101111110
1010011011
1110001010
1001110010
10110011
1100111101
10100011000
1010110100
11011110
11011011
101100101
1111111110101100
110111000
100101
1000010011
101010010
1111111111101000
101000010
1101000000
1011110010
1111101101010110
1111011110011001
1111111010100010
1111110110110101
1111110110110101
10001110010
110000011
110000100
1111111110010110
100101011
1101100101
10000011111
1100000101
110011100
1000000110
111111001
1110110011
1010100001
1101011000
100011111
11110001
111011000
10001
1110000101
11110110
1111111110110101
101100110
110001110
1111101111100111
1111011110011110
1111111000100000
1111111011101000
1111111011110000
1101111100
110101000
10010000110
1111111111101000
111011
1111111111110101
11001101
1111111010111010
10000010
1110101101
1111000111
100111010
1110111
101111111
111110100
1111111111001011
1011010001
111101001
10110111
100001
10010000
100011100
1111110010101001
1111011110100110
1111100111000011
1111111100111111
1111111101100001
1111111101000011
1111111110010110
11011001
1101010000
1111110101111110
1111101111111011
11000110
1100011
1111111110001111
1101111
1100000
1111111100111011
1111111000110101
1111101011101100
1111101111000011
1111111000011000
1000001
110011
100101001
1111111011111100
1111111001101110
1011001
1101111
1111111110101001
1111101101111100
1111111110110101
101011101
1001110001
1111111101010100
1111111010000010
1010100011
1111110110011000
1111110010100110
1111100101011110
1111100111010001
1111101110011001
1111100111000110
1111100001100100
1111011110010111
1111011001011100
1111010011110010
1111011101101100
1111101110010010
1111111001111010
101111110
1111111101111001
1111111101011001
100111011
1011010
1111111011011100
1111111100001001
1111111000100011
1111110011100001
1010000101
1100010100
1100111
100110001
1111111010010101
1111111101101101
1111110000100010
1111011010111001
1111000001001011
1111000000000000
1111001001011111
1111000111001111
1111000100001000
1111011011011011
1111100011101100
1111101111111011
1111110100111100
10100100
1111111100001010
1111111110010000
1111111100001010
1111111100110010
1111111010011011
1111111110110111
1111110110110010
1111111101010000
1110101100
1110000011
11000101001
1111111010011011
10110
10110001
1111110101100100
1111110111100001
1111101010011001
1111001100110100
1111010101000111
1111001010111110
1111000110011110
1111010111101100
1111100011110110
1111111000001010
1111111100011010
1011111000
1000101100
100111100
101010
1001100
1111111010101001
1111110110011100
1111111010111011
1111111011100001
1111111001000010
1111111110000110
1111111101000100
1111111011010110
10101000001
1111111101010101
1111111111011000
1000100001
1111110111111010
1111111000111101
11010
1111101100001111
1111110101001110
1111111111100001
1111111100010111
1111010
1001001010
1010011100
10101001111
1100100001
1100010000
11001011
1111111110110001
1111
1111110011101001
1111111110001001
1111110110111001
1111111000100000
100100010
10110001
1111111010001100
1000010010
101100011
1010001
1111111011100010
1111111101010100
1111111100100111
1111110101000101
1001001101
10001001000
10110111010
11011000101
10110000011
11010010001
10101001011
10101001110
1011101110
100110000
1011111
110001110
100100011
111000
10000110
10111000
1111111111001101
1111111111101011
101110011
1111111111101101
1100011
101011
101100011
1111111100000010
1010110110
1111111111001001
1010101101
1111111101110100
1110001000
10000100011
100000001010
11111000101
1111001101
10000001111
1001000100
11101010
1000001101
1111111110111100
111001110
1111111100010011
1001100000
1111111101110011
1111111011100000
10010100
1101011
1111111010000001
1111111110011111
1111111011001000
1010011101
1101110000
11101101
1010110010
1000001000
1111111100010000
10010100001
111101110
10100000
1100001111
11001010111
1101101100
1010110111
1001010001
101011111
100100000
101011100
1110
1111111101111001
1011011110
1111111111011101
1111111101110011
110011011
1110111
110011010
1111111101101111
101011011
10011010
1001010010
110101110
111100101
1010010100
100001110
1100110
10010100111
1000110101
1011101001
1011110000
10011010
1101001
1111111011111000
1111111110110000
1111111100011011
1111111001001101
1111111111110000
10010000
1111111111100011
110011011
1111111111111011
1111111101000000
1001010
10001100
101011101
1111111101000000
1111111011001010
1111111010111010
1111111001011111
1111111000101011
1111110101000100
1111111010010100
1111111100001100
10011101000
100111011
101100110
10011101100
1111111111011111
1110000
1111111001100100
1111111101000110
11001001
11111100
1
1111111000011011
1111111000111110
10100
1001110101
1111111110011011
1100101
1000100001
1011011
1111111110000001
10001000
1111111111111100
111000000
10000000
1010110111
1000111101
1000100110
1101001001
110001
1111110011011100
1111111111100111
1010010000
1111111011010111
11101010
1111111110011110
1111111010001000
1111110111100101
1111110111101100
1111110110011101
1111111000110101
1111110000011011
1111111111010100
1111111101110111
10001111
1011110
111101000
1111111101110010
1011001
10110010
110110111
1011011
1011000100
1101111011
10100110010
10111111101
1111111101011100
10101
1111110001000111
1111111101001111
10110011101
111000
1111111010111001
1111110111000100
1111110101011011
1111110101001010
1111110101101000
1111111111011001
1111111001001111
1111111110010001
1111111111011011
100010000
1111111101110001
1011
1111111110011010
110101010
11100001
10001100
111111
1111111110111110
1010000100
1001110010
111111101
10111111011
11100110
110000010
1100100110
111101010
1100101010
1111111100001101
1111111100011001
1111111111000100
1111111110100100
1111111101101110
1111110101111011
1111111101010100
1111110100011110
10010
1111111000110011
1111
1111111011001101
1111111010111111
1111111000101010
111
111001000
1011111
110110010
1111111000011111
1111111111100000
10000110000
1010011
111100111
100110
10100010
10000000
1000011100
101010101
110001110
1000101101
1111111101100010
110100000
1100
1111111001010110
1001101
1111111110001000
1111110011101110
11011
11011
1111111001001101
1111111110100011
11011101
1111111010110011
110011100
110001011
1111111110000100
1111111010111100
100001000
101111111
1111110101100110
1111111100110001
100110001
10101111
1111111110001111
1001000111
1011011110
1001001111
100111010
1111111110101100
1101111101
11100111
1111111111000001
100000010
1111111110000010
1111111011100111
1111111111001010
100100101
100100101
1111111011010010
1111110011111110
1111101111000111
1111110101011110
1111101111101100
1111111001100000
1111111100111011
1011100
1111111111111011
1111111101011100
1100011111
1111111110100011
1111111101011010
1111111010110001
1111001001
100111000
1010101000
1111111000011000
1111111110011011
11111100
111001100
1010000010
110100000
1110100
1111111101010001
110101
11101111
1111111010011101
1111111111111110
101101100
1111111110000011
1111101010010000
1111110011011011
1111111001011101
1111111001001101
1111100100110000
1111111111101100
1111111000110111
110101100
10011011
1111111011001010
1111111110010011
1000001011
10011110110
1110001101
111100111
111000101
1011010
110011
11110100
1100000000
1000100010
101111101
1111000111
110001101
1111111111000100
110110110
110000
1111110101010011
1111101101111101
1111101100100101
1111100111100011
1111101011110100
1010100
1111111001110011
101110010
1111111111011101
1111111011100111
1111111010100001
1111111011110011
1111111011001010
1111111100010100
1111110101010100
1111111111101110
1111111001101000
1111110110000101
1000011
1101001001
10000001110
10110011011
100101100
11111101
1001100101
111000111
1000110011
101100001
110001
11110101
1111110110010100
100111
1111111111101100
1111111010101110
1111111010100001
1111111011000011
1111111011101001
1100111
1111111011100111
1111111100100011
1111111111000110
11011110
11100111
111100
1111111011111011
11011
1111110110111101
100001
1111111001100011
1111111001110101
1111111100101011
100000110
10000011
11111111
111100001
11011100
110011101
1111111101110001
1111111110111101
1111111111001101
1111111110111101
1111111101000010
1101101
11010001
1111111100100111
10100010
