1111111001000100
1110011111
10000010110
1110000111
1111110111110110
100010001110
11100001
1111111101111000
1111101001100111
10001000111
1111100011101000
1111111010111001
1111111010001010
1100000100
1111110100110010
1111111010111011
111100101
1111110111011000
11111001
1110000001
1111111000001110
11011111010
1011000001
1111101001101101
1011000101
1111111000010110
10010111011
10100100010
1111110010010110
1111110000101010
