11001011110
1111110110101100
100110001
1111101101101000
1111000001000000
10101000001
101001101001
1111111000101100
1111110110000010
1110010001
1111100110100000
10110011100
1100101
1100011101
1110101010
111000111
1111111000001110
1111110111101001
1111101100000010
1111110111101011
1111110111110101
1001101001
1000110100
1111111100100100
1111111010011001
1101101
110111
1011001101
10011111000
1111101100001011
