1111101110000001
1010110011
1001110001
1111111000110100
1111111111100100
1111111000101100
1111011111001000
110010011
1111101100010110
11001000101
1011111110
101001111
1111111011111100
1111010111101010
1111011011100100
1111110100110101
1111101100011010
10101011101
1001001111
1111111000110110
110010100
10111100010
1111101100001100
1111110111101001
100110000
10100100110
1000010110
1111111000011011
11000011011
11000100000
