1111110001111111
1100000
1111111110101000
10000001100
1111101100
10100101011
1001010010
110011001
111000011
1111110000110100
110010010
1111101111111100
1111100111110000
10011010001
1110100111
100000101
1001001010
11010101101
10001110000
100101110000
1000100010
1111001011
1111101101010101
1111110011101010
1111110101111100
1001100010
1111111100101001
1111111110000101
1111111111000111
10010110010
