1111101110
10010111010
100100
1110100011
1111111101010111
1111101001010110
1111111000010110
11100010
110100100
1111110101001101
1111111110110011
110000100
111000000
100000100000
1001110001
1111110110011011
1111111011000111
1111101011110110
1111111100111100
1111011111010011
1110110101
10110101100
1111100010000110
1111111110101101
1111011001000001
1111111000110011
1111111101111110
10011111101
1111110110001100
10001111101
