10000000100
1111101011100000
10010010101
1111101000011110
1101110
1111101100100010
101001101100
1001001011
1111101110111110
1111101110111110
1111111101100110
1111100101011100
1111100100001011
1111101011001001
1111110110111010
110010001
1111110101011000
1111110010100110
1111101101001110
10000001001
111110110
10001101
1111101101011011
1111100110000101
1111111100110011
110001000010
110000
111001100
1111111011101001
1111111001001101
