100001111
1111110110101001
1111000110
1011100101
1111111011101011
1111101010100001
10111111010
1111100101001100
10101101110
11101100
111101010
1100101000
1111110111111110
1111101011110111
1111101000000010
1111100111000111
1111100110010011
11011101100
1111110100111111
10000100101
1111101001101111
11110111
1111111111010100
11100100100
1111000110111111
1111110010010001
10100
1111111111011010
10101001101
10100011110
