10001100
11010100
1111111110110110
1111100
1111111100100111
1111111101110010
10010001
100001000
11001010
101010111
101111
1111111010110010
1111111001111000
10000010
1111111110100110
1100
1111111110100100
1111111011100110
1111111101010110
100100
1111001
101000011
1010101
10000101
1111111101111101
100000110
10001101
1111111111100001
101001100
1111111110110110
1111111111010110
1100011
1011100
10100010
1111110101000000
1111110001001110
1111111001111010
1111110111100111
10001101
1101101111
111011001
101110011
1111110100100110
1111111010111010
1111110011010110
1000100100
101100111
1111111101000110
1111111101001101
1111110111100101
1111111010001011
1111111100000010
10000000
1111111111101011
10001
1111111100110110
1111111101011111
1111111110011111
1010111
1010111111
100101111
1111111011011001
1111110010101011
1111110100011011
1111110111001001
1111110000100100
1111100101110010
1111111101000010
110100
111001100
1111110001011111
1111101010000011
1111101010001000
1010010111
1111111100110110
11001101110
111101100
1001000011
1111111100110011
10110001
1111110111000001
1111111100100100
1011
1001111
11111010
1111111111010110
100011101
1001101101
1111111111100000
110100000
1111111110101100
1111110100100101
1111110110001110
1111101110000001
1111110101100101
100011
1111111101111011
1111110100001100
110000111
10111011
1111110100111111
1111111011101001
1111110111110100
1111110100100001
1111111101000010
1111110110101111
1111110110011001
101010001
1111111110011111
10111000100
1111010011
1111111101110010
1111111110100010
111
1100100000
10100111010
1001111110
10000111101
1111111111110110
100100110
1001110
1111110010000111
1111111100011111
10110101
1111111100101101
111011011
1010010100
1110111011
1000111111
110101110
1111111011110110
1111111100110001
1111111010011010
100011010
1100010011
1110111011
10000001000
1111111011101111
1111111010011111
100010
1101001
1111111101010100
1111111111100011
1111110110110001
1111100111101011
1111111100001111
1111110110110101
101100001
1111111100100110
1111111111100101
1111110110010010
1111111000010110
10100111
1111111111010101
1000010011
101010000
1111111110111000
1110100
10000011
1111111100100110
1111110111100000
110010
1111111001000001
1111010
1000100110
1100011011
111010110
10000100000
11010010
1111111101100010
1111111111101111
111110110
1010011
10010011
1111111000111111
11001111
100001110
1111111010100110
1111110110111100
1111111110100001
1110110
1010000011
1101101
10011110
100001110
100101001
1111111111001000
110001
101000001
10011011000
101010101
10000101
10010111
110111001
1111111000011000
100111010
100010010
1111111001100110
101110011
1110100010
111010
101100100
1111110100111111
1111111100110110
1111111100011110
100111101
110110
1111111100001001
10000001
100100101
1111111111111010
111110110
101110111
1010111110
10001010
10101001
110101100
1100010000
1111111110000010
11110100
110001111
1111111101100100
1111111010110010
1111111101101001
1101101111
1111110111001101
1001101111
1111010110
1000000001
1111111101110110
101001
1111111111000101
11000000
110111111
1111110110010100
1111111000110011
1111111101101100
11011011
101000000
100001010
1111111101011110
1111111011110001
1111111101101001
1111111100100000
11100001
1011100100
1000000
1111110101010010
1111111100
1111111101100011
1111100101010011
1111101110011101
1010000001
1000011001
1111011
1011111000
1110101011
0
100000011
1111101
10110011
1111111001101010
1111110101010101
1111111010101111
1111111011110111
100101010
1001011101
10000001001
10101101
10111001
101100111
110010111
10111000
1000001001
1111110011000100
1111101100101011
1111111101011111
1111110100011000
1111101110101000
1000100000
111001011
11100001001
1110111100
1111001000
10110110000
10101110
111010001
100111111
1111110111001101
1111110010110001
1111111011110111
1111110001000011
1110010
1000010001
10000011110
1011011101
110100010
1111111111000101
100101100
1010101001
1101100
1111110110010000
1111101110100111
1111110011111001
1111101010001111
1111111000001000
1111110100010100
10010011001
1110001010
10110011100
110000100101
11001000011
11000010
1111111010100100
1111111101110000
1110001
1001110000
1001101
1111111110101101
1111111110011101
1111100000
11000011001
11011011101
1110100110
1110011100
1010111110
1010111001
111111001
1111111010111111
1111111100001000
1111111000101001
1111100110110110
1111101100111011
1111100001101101
101100100
1111110111101111
1010001100
11100110000
100101101100
10010000100
1111111001011010
1111101011001011
1111110001001110
11110111
111000110
1000100000
1011000010
10011100011
10001001111
10110010101
1000111110
1000001101
111100110
11000001
10001100100
1001011110
111110000
1111111010010100
100001000
110011000
1111111110111001
1111101000000001
1111101110110000
1111110100101011
1111111001111110
10010100101
11100011100
10011001
1111101110001000
1111101101110111
1111100101011011
1111111100001000
1111111101011100
1010100000
10010110111
10101001101
1110100
1111111011100010
1111111110010011
1101011010
1011000000
110010001
101111100
1100010001
110111101
1011010110
100010110
1111111001000011
1111110010000100
1111110110000110
1111100100001010
1111101001100000
100001110
1001011101
11011011111
1111110110101111
1111100100100101
1111101011101000
1111100000010101
1111110110001010
110110100
10011011111
1100011100
1111101011
1101110
1111111111010000
1011111
1111111111100100
1010001110
1001010101
101011001
100011011
100000001
10100010111
1011100000
1010011
1111101101011101
1111110110001101
1111010111111100
1111110001100111
110001000
1111111101010101
1111111101000001
1111111101011110
1111110010001011
1111101001101101
1111110010100011
10
101100
1010111100
1011101100
1111010101
1011100010
1111111001010000
1111111100011010
10110001
1011010
1001111000
1101011001
1011011111
11110010
1000010101
1001010010
1111111110011010
1111101001101011
1111110110000111
1111110000110000
1111110010110111
11100011
10011
1111111101010101
1111110010010100
1111111010111000
1111110111000101
1111101110110111
1111111110111001
1001010000
101001111
1111111011000111
110101011
1001110001
1111111010000001
1111111111111011
1100101
101000110
100011110
1000000111
11011
1111111010101001
1111101110001011
1111101101010001
1111111000011111
1111100101001010
1111011110100000
1111010010010100
1111110000001111
1111111100000000
1111110111001110
10001011
1111110000100110
1111110111011010
1111110000111001
1111110100000111
1111110110011011
1111111100101110
110000111
110001
111000111
110010110
1010010
100000000
1001001101
1110011101
100010110
11111
1111110101111000
1111110011111101
1111110000010111
1111111111000111
1011100
1111110001100111
1111101001100000
1111110100010111
1111100111111011
1001101011
1001011110
1100001110
1111111110010110
1111110110110010
1111101100101011
1111101110101111
1111101000001011
1111110100010010
1111111101100011
1111110100111110
11011010
100001
11010111
100111101
110011110
1111111110010010
1010000110
1111110110101000
1111111001011010
1111111010010110
1111111001101011
1111101111011100
1111100111010100
1111100001001011
1111110010011101
10111100010
1111110011111000
110000100
110111100
1011101
10011111100
111000
1111110110000101
1111110110110111
1111110110010110
1111111000010011
1111110111001100
1111101011111101
1111111000000010
1111111000101010
1111110101100100
1111111100101010
1111111010010110
101111
1111111101110010
1111110110100001
10011110
1111110110001001
1111111001100110
1111100011011111
1111011011101000
1111101010101011
11111001
1111110111110110
10110010
10010100
1111111111001000
1111110001001101
1111111100011101
110010111
101011010
1111110111101001
1111110111110000
1111110100011000
1111101100100111
1111111001111111
1111110111111110
1111111110101110
101110101
100110111
1111111011100010
1111111110100000
100100111
11100
1101101
1111111111000101
1111110100001000
1111101011001100
1111010001101001
1111111101011111
101001011
1010110110
100001100
11101010
1111111010001011
1111111010011100
1111110101010000
1111111110011111
1101110100
1010101101
1111111110010101
1111111011100111
100010
1111111101101110
1111111101110011
1111111011111011
1111111111101100
110111
1111111111100001
100010010
1111111110110001
1100110
1111111000110001
10000
1111111100110011
1111110100110111
1111011001011001
1111110000010101
10001001
1111101001100111
11100001
100101101
10111010
1111110110010111
1111111011100001
1111110100001010
1111110110011000
1011101000
1111111101000010
1111111100011110
1111110111110011
11010100
1111110111110010
1111111011000001
1111111101101100
10001110
110110110
1001011110
111000
1111111001000001
1111110111100000
1111110101111101
1111111100111110
1111111001000100
1111101111111010
1111110010000010
1111110101000100
1111110110010000
1111111111111001
10001011
1100001
1111101110110010
1111111110010001
1111111011100110
1111111111000011
1111111100011001
1001111
1111111110011111
1111111011110010
1111111011100100
1111110011111001
1111111100100000
1111111010011001
1010010110
10001000
111001101
100111110
1111111001001010
1111111000011110
1111111000100100
1111110000110000
1111101111000011
1111110001101100
1111110000011011
1111111010000101
1111111110100001
100011010
1111111010100111
1111111110000010
10001111000
1010001100
101010001
1000111111
11111010
1010100100
101001001
1111111001101001
11110
1111111101010110
1111110011001001
1111111011011110
1111111011111010
1111111011101110
100101111
1111111100111000
1111110100010110
1111111110110001
100011
1111101111011110
1111111010110110
1110110101
1111110000010000
1111111011110011
1111110110001110
10011001
1111111101000010
1111111010110101
1111000110
10111111
10111011011
10101101100
1111111011100000
1111111110001001
1111110101100001
1111111010110000
1111111001100110
100100001
1111101100000010
1111111110000101
1001111100
1111110110110011
1111110101111001
1111111110110101
1000110010
10110000
1000110111
1101000
11011111
1100010111
100000110
1111111110110110
1111111000001000
1111111100010011
1111111010110011
11011110
10010111
10011011
11101001000
10101100101
10000001101
10111110011
10101110100
1101101111
1000111111
10001010111
10000011111
11011101
1111101111
10010100111
100101110
110010101
11100110
1100110001
100101000
1101111111
111011000
10010100110
1000011001
1
11110110
1100001
1111111101101011
1111111111101001
10110101
1111111110010111
1111111010101010
1111111100001011
1011000001
1010011011
1111111111101010
1111101000
1111101100
1001010000
1111111111001010
1111011000
10101000110
10000010100
1101101011
10011100011
1011100000
10100100100
10110011001
11001010011
11000111010
111010000
1111111011000100
1000000
100000
10001110
