10010000
11111110110
1010111111
1111100001000001
100100001111
1111110010000101
1111111111101111
1111101010100110
1000110011
1111110101110010
1111111010100111
100101100
100000110101
10001000111
11101110110
100011101
1111101011011100
1100110110
1111111111000000
11000110011
1000100111
1111111101010110
11110010000
1110011000
101100100010
100100011001
1010100011
1111011110010011
1111111110110011
11001001
