100100010000
1111100101011000
1111101100000001
1111110000010111
1111011100010001
111100110
1001101110
10010100100
1111101001011101
1000001000
100011111
1111111110011000
11010011001
1111100100010000
1111100010
101101001
1011101111
11000010000
111000010
1111100011000000
1111111010010111
1111111110011110
10000000111
11011011011
1111011110110110
1111111011111000
10011100111
1100010011
1111110101010110
1111101000011011
