1111110001000000
1000100011
1111111100110100
110100
1101110010
110011111
1111111110000111
11000000000
1111100101010100
10001110100
1111111010111010
1111110110110101
10001011101
1111110100000000
1111100010110000
1010111011
1111111001011000
1111101111001101
111010110
100111001100
1111110001101001
1111111100011011
1101100100
1100110100
1111101010010111
1010101100
100001111101
1111101010001001
100100001010
100000000
