10001111010
1111111000010001
10110101010
1001111011
1111100111000000
1111110010010100
11011000010
1111101011110010
11100000101
10011010001
1111110010101000
101111011001
1111111001110110
1111111000001001
1111110110001110
100010101
1000101101
1111111011000100
111000111
1111110000100000
1101010001
110000110010
1001111011
11110010101
1111101100000001
1111111010100001
1111010111100011
10111101101
100011101000
1111011011101011
