10010110110
1111101111001000
11000011
1010110101
111000100
100011000
1111110101010001
1111101111000001
1111111101011000
1111110100011110
1111101011011100
11100010110
1111110100111010
11011111001
10100011101
1111110011110111
10011011000
1111100110010010
1100000
10101011101
1111111000110001
1111110100010111
11001010110
1111101110001010
1111101101001011
1110001000
1111011111010010
1100000
1111111010011111
100011110000
