1111111100001111
11110011
1111111111110000
1111111101110111
10011
1011101
1111111010110111
1111111011011011
1111111011011111
1111111101010000
11001001
1111111101110011
1111111110011101
1111111101000010
1111111011011000
1111111111011110
1111111100110010
1111111101101101
1111111101101110
1111111110000100
10010011
10101010
101010
110010
101110
1111111111101010
1000001
1111111101000111
11000011
11011001
10100
1111111111100011
1111111100111101
1111111011100100
1111111111101000
101011011
111101110
101110010
1111111010010111
1111110111111000
1111111011100100
1111110100101101
1111111001101111
1111110101000100
1111110100010000
1111110100100100
1111111110001000
1111111100011101
1111110100101011
1111111000110011
1111111000100010
1111111010111100
101001011
1011110
1111111100011001
1111111101110110
1111111100111000
1111111100010100
1111111101010000
10111001
1100000
100010
1111111001000010
1111101111000000
1111111011001110
101000000
1011011110
1111111111010000
1111110111100011
1111110011111100
1111111110100001
1000000
100010101
1111110110011111
1111110001010001
1111111111000100
1111111010001000
1111110111111110
1111111111011001
1111111111000001
1111110000100011
101010111
1111111110011111
11011
101001
100000010
10010111
100000101
1011101001
1111101111001100
1111111100010010
10100100
101000010
101000010
10001001101
11100001000
10101100110
1111111100110001
1110001101
11011010101
10101000101
10000111100
10001111101
10111100110
11110101101
10110000
1111111110101110
1111111011001100
1001111110
1100111100
1100001110
100111101
10110111
1101110
1011110101
1001100011
10010000010
1111110
1000001110
101111001
10011111100
10000111010
1011000110
111111110
111010
1000110110
101110100
1000111110
1011100010
1001110001
1001000000
10010
10001100
1000100011
1111110101010110
1111111111100100
11010110111
11101000001
101010101
1111111101100000
1111111011100000
1111111110001101
1001011100
1111110101
111100000
1001110010
1000111001
110010010
1100110000
10000000101
1100000100
1000000111
1010101010
1001011111
1011101101
110010011
100001001
1111111101000111
100001
1011011100
11000001
1000010110
1001111011
10110000
1000101010
10011010000
1011101100
101000011
1111111111011011
1111111010110010
111100111
10110111111
1100110100
1010011111
1011001111
1100110111
11001010
10101010001
1111100011
111010010
101001101
110111110
1111111110101111
11011111
1111111010000001
110010
11100001
110010000
1111111100011110
100000111
1111111100001001
1111110010101110
11001110
10110011101
11110100010
1110001010
10000010
1111111001011001
111010
10110111011
10010000110
1111111111000100
1111111101110101
1111111011001100
1111111010111111
1010111101
1111111100001011
1111101100100110
1111111111001010
1111110101001100
1111110001111100
1111111001011110
1010000
1111111000110000
1111001
1111111011100100
1111111011101010
1111111100101000
1111110011110101
1111110100111110
1111110100100010
1111101111011001
11010111000
110100011
1111110010011011
1111111011110111
1111110010100010
10000001000
110111011
10000111
100001001
1111110111111000
1111101011111010
1111101001101111
1111100110111001
1111100000101101
1111100101111111
1111110100110001
1111111011111100
1010101
101010011
11111001
10001011
100110110
11010110
1110101
1001101001
1111110111011011
1111110010000100
1111111010000011
10000010100
1010110000
1010111110
1111111000111101
1111110100111100
1111111111011101
1111110111011000
1111110111010010
1111111011110101
1111101111110101
1111100000001110
1111011010111000
1111101101000010
1111110010001001
1111111010011100
110110001
1101000110
1110111001
1010001100
1111010000
1000001000
111101111
1111111111100001
10110111
1111110110110010
1111100110011011
110
11000011010
10111100
11010
1010111011
1111111101100111
1001000111
111111111
1111111001001100
1111110100110011
1111110011010001
1111101000000010
1111100001010000
1111110111100000
11100101
10101000
1000101010
10010000000
1000111101
1011011000
110011010
1100001101
111010111
10110100
1111111101101001
1111111110011111
1111101010101010
1111011011110111
1111101010111000
1111111101101000
1111111010111111
1111111110000101
1100001000
10100101
1111111000000010
100000101
1111101100000011
1111110100101000
1111110111111010
1111111010001011
10101000
100100101
1001011110
110011111
1001111011
100010011
1011011101
100100000
1111110111001101
11110
1111111110011010
1111110010010100
1111110111011110
1111111101000011
1111101001110111
1111111000000011
1111100110011011
1111111010101011
1111110100100011
1111110010001100
101010111
1111111010110110
1111110001101110
1011101011
1111110111100010
1111101011111000
1111110000100101
1111111110
100011011
1011001
10010010
1111111110011110
1000111100
11000101
101001001
100111011
111100001
100111011
1111111010101011
1111110111000001
1111111000101011
101010111
101001111
1111111111000010
1111111011110000
10000001001
1111011101
1111110101100010
1111111100111010
1111111001001010
110
100000000
1111111110010010
1111101010111000
1111101101111110
1111111010000111
10111101
1111111111101001
1111110100111110
1111101100101011
1111110111011110
1111111011100111
101000100
1010101011
100001110
10000001
110100010
1010011
1111
1111111110100111
1101110
1000000
1111111010110001
1001001010
1101100001
1111110010101100
100111
1111111110100001
111111101
11001011
111000010
1111110010110000
1111111101101101
1111111000101001
1111101101001111
1111100011001001
1111010011110010
1111010011000001
1111011101110101
1111110000101111
1111101100110011
1111110010000101
1111110010100011
1111110110110111
1111111110011101
1101010110
1000001101
1011001111
1111111011100100
1111111010001011
1111110100111001
10111010
1111101010100001
1111111011010110
1111111010100110
1111111110111000
10001001101
101011100
10111111110
1111111110000101
1111111100110010
1111101100111011
1111101111100111
1111110000001110
1111100000111101
1111010011010001
1111001110110010
1111011000101001
1111010101100101
1111100011101100
1111101110001001
1111111110101001
1111001
110010001
110101010
111000001
1111111011101111
11101100
1011000100
110011100
1111110011011110
1111110111110000
111111
10000001111
10001100100
1111111010000000
10000110010
100001111
1111110111101100
1111111010110111
1111111110001100
1001101111
1000111100
1111111010001111
1111101011010010
1111110101100001
1111101111011011
1111111000110100
1111110000111000
1111110010101100
1111111110111000
101001101
1111111101001000
1111111110111111
11101111
1011010001
1111100010
1111110110001111
1111101110100011
1111111111011010
1111111111101101
1000001000
10000010011
1111111101010100
1011001110
110000001
1001001101
1000000001
10001001011
1111100110
11000001011
11001101011
111000010
1001001010
1111110001101001
1111110011100010
1111110001110011
1111111000001111
1111111011100111
1111111111001000
1111111000011001
1111111100110101
1000110000
1111111101110101
1000000100
1111110011011010
1111111101001001
1111111011101111
100011101
1111111111010001
11010100
110000001
1111110100100101
1011111101
1111101101
1010001011
10100010100
1100001001
111010110
10111010110
10001011111
1011111100
1111111010011000
1111111111000110
1111111000100111
1111111100010111
1111110011100110
1111111010100100
1111111110101011
1111111000100101
1111111000100001
1111111100101100
111011001
1111111011010000
1111111101010011
1111111110101111
111100
11111111
1111110001110011
1111111110101011
1111110010000000
100100111
111010010
1100001
111010010
1111111110101101
1111111001010001
1111111111000010
1001101101
1100011
10001011011
1101101010
11100011
1111111101011011
1111111101001100
101110000
11110011
1111110110011011
1111110110110010
1110100
110011001
1111110010011100
1111111001111001
1111111110001110
1111111111101111
1111111110000101
1111101010000011
1111110100000001
1111110101000010
1111111110110000
101101000
11111000
1011101100
1111111111100001
1111111111000001
1111111010101111
1111111011000000
110010000
1000101000
100100111
11001110
11011001
101001010
100011001
1111111111111110
1111110000011111
101001
1001011011
1001101001
1111111000000111
1111110111001111
100110110
11110010
1111111011011100
1111110101111110
1111110101011101
1111101010001111
1111111011101101
1111111111100011
1111111
100100
11011011
1111111001110101
1111111111010010
1111111100111101
11011011
1111111110101110
1111111110100110
10101100
1111111010010101
10010010
1111111101111100
1111101010110010
1111101100111100
1111111110000010
1111111101010000
1111101010001011
1111110100100000
1111110011100111
1011010
1111111011111110
1110001
1111101111000100
1111101011100100
1111100110010000
1111110000000110
111110
1111111110101101
1111111000010101
1111111011001011
11100110
100011010
100010111
10100101
11000100
1111111111001111
1111111000001010
1111111110001101
1111110101101100
1111110011010101
1111101001010111
1111101110000011
1111111001101010
1111101000110101
1111110110001001
1111110110010111
1111111000101111
101001100
1111111101110000
101000100
1111100001
1111110100101110
1111110001000101
1111101100111000
1111101001111110
1111110011100100
1111111110011110
10101010
1111111101011101
100001011
1001011101
1111001
111011100
111100100
1100111011
100110
1111111110100100
1111110101111010
1111110001101110
1111101000101010
1111101100101011
1111111010010100
1111110010111111
1111111000011101
1111111001010111
1111111111101111
1010110
1111111101000101
1111111111001000
101010101
10100101
1111111010011110
111010011
101010001
10011110
100011111
1111110100110100
1011100001
110000011
1001110100
100111011
1110010101
1111001100
111111111
1101100000
1111111100110100
1111101101100000
1111111101100000
1111101111111010
1111111011010100
10001
1111111001010000
100001000
100111
1111111110101111
1000000
1111111111001011
1001011101
1100000001
1011111111
10110010100
1111000110
111001101
1111111110000010
1111101100110010
1111101001000010
1111111101001011
1101111111
1101010
1101001101
1101111001
10011100101
10011010001
10011111
10100101
1111111011110100
1111111101000011
1111110110100001
1111111110110100
1111111101101010
1011111
100011110
1111111111011011
11101100
1010
1111111011101111
10100010
1000101101
101011100
101010000
100000001
10011010000
1011100110
1111111000011010
1111111011010001
1000101101
1111111011101001
1111111000011110
1111111111101000
1111101001
10111010100
10010000101
1111111011010100
11000
11000011
1111111001001101
11111110
100001100
1111111101010101
1111111111000101
101011
10101100
1111111111110110
100010011
1111111100110011
1111111111111011
101100110
10000100111
1010011110
100111000
1110100001
1010111000
1010011100
1100101110
1010110001
11010000011
11110111001
100000111100
10010111101
1101001100
10101011
1111111001001111
1111111010000111
1111110
110010
110110
100100
11001000
