1111111101110011
1111111111000111
1111111111101001
1111111100001010
100001011
110000
1111111101011101
1111111010111001
1111111111110110
1111111111110001
1111111101110001
1110010
11111001
1111111111100100
1111111111011001
1111111100100011
1111111011011111
1111111010101010
10100010
10010011
1111111101110101
1010111
1111111110110111
11010010
1111111011111011
10011
11110011
101000100
1111111110100011
101000101
11010010
1111111110010001
1111111101111011
1111111101011101
1100011
1111111001000011
1111111111110010
1111111001111011
1111111000100010
1111111000011110
1111110111111101
1111110111110100
1111111110011011
1011111
110011101
10100100
1111111101111101
1111111011000000
1111110010111000
1111110010000000
1111110011111001
1111101110010111
11000111
10100101
1111111101000100
1111111101000110
11001000
10000010
1100011
1111110001001000
1111111000010111
1111111011111000
1111111100000011
1111101101010011
1111101111101101
1111110110111100
1111110101100011
1111110001001010
1111100110101100
1111011101110101
1111011110110111
1111101011011100
1111110100011001
1111110101001110
1111110110101000
1111101101001111
1111110111000111
1111101011101000
1111110011000111
1111101111111101
1111111011110001
1111111110010011
1111111100101100
1111111100011000
1111010
1111111111001001
1011010100
1111110100010010
1111101111110100
1111110111011001
1111110011000111
1111101110101011
1111100000111111
1111110111000010
1111111000111000
1111101110010101
1111100010110001
1111100011110000
1111010110111100
1111010100010000
1111011000010100
1111011110001100
1111110001000110
1111111010111101
1111101100110100
1111110001000000
1001010
1111111110001000
1111110001001011
1111111101101110
1111110011111011
1111111010111001
1111111110000000
1111111
111111101
110010101
1111
10101011
10011011
1111111101011011
11001100
1111110001110101
1111110001100000
1111110110001110
1111111100110010
1111111010101000
1111100101111100
1111101011000011
1111111010000010
1111111101101100
1111111110101111
110011010
1010000100
101001000
111011001
1111110111001100
1111110010011101
1111101110101100
1111100111110001
1111110000111111
1111111111110111
101000010
111101100
100010001
1111110111011011
10000111011
111011011
1111111111001100
1111111111000100
110001
1111111000110101
1111111111010101
10011001110
100110110
1111111110111101
1111111001100111
1111101001001101
1111110010000101
1111110001110000
101111
1111111010110100
1101111
1111111110100011
1111111000010100
1111111101010000
1111110111010110
1111100011000010
1111101101010000
1111111110100100
1100001
1111111010010100
101100001
1111111111110111
10000111001
1001100110
110000101
110001100
1111110101101100
1111111010010010
1111111110111111
101110010
1111111000010100
1111110100100100
1111101111111001
1111110000101001
1111110011011101
11010110
110010000
101101100
111111
1111111101110110
110101001
1100100
1111111101010000
1111111110000111
1111110000000110
1111111110110011
10010
1111111011011110
100000011
1111111110100010
1111111010111001
1010001110
1111111101001000
1111111001101110
1110001
1001101
10111
1111111100111110
1111111010100010
1111110011011011
1111110000011011
1111110110011101
1111111100011001
1111111111010001
1011011111
101000100
11100010
111010110
110001000
101110100
1111111010101111
111000101
1111110010001111
1111110110001011
1111110111110011
10100100011
1111111110111001
1111111100000110
1001111011
10001111010
1101011111
1001111101
101101111
10001111
11101110
10111010
10110010
1111111101000110
1111110110010011
1111110100110011
1111111110110011
1010001001
111010000
100101101
1111111011001100
10000011
10011111
1111111111100000
100000010
100111011
1111110100111011
1010011110
1111101000
1111110100101101
1111111010000010
1111111010000011
1110100
1010111101
101001001
1011111100
101110101
1111111011010111
1111111111111100
1000011010
110010100
1111111100011110
1111110011001100
1111111001000101
1011000
110010101
1111111001010001
1111111001011010
10110111
1111111110011001
1000001000
1111111101101101
100010011
1111000101
1100101010
111100110
1011010001
1111101111010001
1111100101111110
1111111000101010
1111111110011101
1111110001101100
1001000
101001100
1000000100
111001111
1001100101
1100101111
100000010
1111111100100001
1111110100111100
1111111001111101
1111111110101111
1110110
1111111110011001
10111
1001110
110010000
1111110111011100
1001100
1111111110011001
1011010111
10001100011
111011001
1111101000110110
1111101100110110
1111110001000001
1111110110001111
1011001101
1111110100011100
1010101111
1101011100
1001011011
1010101111
1101011110
1111101000
1010011111
11010110
100111100
1111111111001000
1111111010010111
1111111110111010
1111111001110000
1111111111011011
1101101000
1001101010
1111111111001110
11001111
1101000
1100100000
10011000001
111001101
1111111001110100
1111110101001010
11001010
1111101110100010
1111111011011010
1000110
110000
1000011
1111110101100101
1111110111110001
1110111
1111001101
1110110000
11011001
110000001
100001010
1111111110010000
11110011
100011010
110110110
1111001101
1100000110
11101100
110111110
1111111011100010
1111111110001010
1000010011
10111100
1111110101000011
1100001010
1001010000
111010011
1000000110
1111111101100101
100101110
1111111000101000
1111111011101000
1111110111000011
1000111100
1001111111
110101010
1001000010
10000011010
1011010011
1111010100
1110011111
1110000000
10000001101
1110000110
11010001
1111110010000010
1111111100000100
1111111111100010
1111110011111111
1111110100101111
1101010
1111110111111110
10010000110
1110100
110101
1110000001
1000001100
1010001
1111111110011001
10111000
1111111111110111
1111111100011011
101000101
1110011010
11000010000
1100001110
1001010101
1110101111
1011110
10100110110
1101111010
111101000
1011110
1111110110100001
1111111101100001
1111111101001110
1111110001101010
1111110000100000
1111111100111001
1011100
10010101110
1111111111111100
11110001
10011010
1111111110011011
1111111111000101
1000101001
11011111
10000001
101000110
101100000
1011010101
10000011000
1101001001
1001000010
1101001110
10101011
11101011
1111111010110110
1111111111101101
100110100
10100110
1111110011111001
1111110110100000
1111110100011010
1111110111000110
1111111111100001
1001111110
110110101
1111111000001111
1111111111110100
10011101
1111111011000111
10101100
10001101
100010101
1111111101011111
1001100
1101001101
1101001111
1100010011
1011011100
1011100010
110001101
1111111000001001
1111110011001100
1111111001111011
1111111100001100
100011111
1111111000111111
1111111001001001
1111100110001001
1111100110110110
1111110001011000
1111111100000110
100011100
1111111111000000
1111101001010011
110110
1111111001101110
1111111
1111111010101111
1111111111110100
1111110111100010
1111111001010000
10111100
11011101
10011110
1000101110
1111111110011001
10011011
1111101111110011
1111110000110011
1111100001101111
1111101011000111
1101
1111111101111011
1111110011001011
1111110001000000
1111110110011110
1111101011110000
1111101111110111
1111110001110110
101100000
1110101
1111110110101111
1111110100100010
1111100110001000
1111110110100011
1111110000111000
1111110110100100
1111101110110101
1111110110110000
1111111010100011
1111111100011110
1111111110000011
1111111110100011
1111110100000000
10001
1111110011001011
1111110100111001
1111101010001110
1111110111100000
1111111010010111
1111110111010101
1111101110011000
1111110000010001
1111111001001010
1001010011
1111111110000100
1010011100
1111111101111011
1111110110011010
1111101111111011
1111100001000101
1111100000001111
1111110010111101
1111110000111101
10001
1111111010100000
1111110010110101
1111110111110110
1111111100111110
1111111100100110
1111111000001101
1111110011001110
1111111001111001
1111111001111001
1111110101001011
1111101101000010
1111110011001001
1111111000011001
1111110010011011
1111101110100111
100000000
1111111101100010
1111111110010100
1001000011
110101
11010100
1111101000100011
1111001101000100
1111011010110101
1111100101001011
1111100111010101
1111110100110010
1111111011100000
100000
1011101
110001010
1000011111
1111110111010101
1111111000000111
1111110110011111
1011
100001111
11100101
1111110100010110
1111110110111101
1111101111011011
1111101110010100
1111101010100100
10100111
1111111010000100
1111
1100010011
1100100001
1111111101001110
1111101111100001
1111011111001100
1111110101100111
1111111010010001
111
1001
1111111111100101
101100100
110111101
10101110
1000111
1111111000101100
1111110011100010
1111110101001101
1111110100100000
1111111101100001
1111111001011110
1111111011001010
1111110111101001
1111111100110010
1111111101110101
1111111001010010
111010100
1111111101101010
1111101100111111
1111111100100001
1010111111
1111111111101100
10001010
1111101101101000
1111111111010101
1110010111
1111001
11110011
1111111111101100
110110
111010110
100101110
10000
1111111111000010
1111110010010101
1111110101111101
1111111100010111
1111110111010111
1111111000001111
110101110
1111110101000111
1111110110110011
1111111010101010
111101
110100101
1111110010111110
1111111000101101
11110001
10101100
100001010
1111110000100011
1111101000110110
1111110011000011
1111111101011011
1001101110
111010011
101010011
100000010
101001000
1111111111111010
1000110111
1111111101010111
1111111000100010
1111111001010011
100100011
101101
1111111000010110
111100
1111110100100100
1111111000101110
1111111110001111
110110101
100111111
1111111110011111
1111110011
101010110
10111000
1111111111111001
1111110010001101
1111101110000001
1111100100001111
100011110
101100001
1110011010
100101111
101001
11000111
1101001001
11001101
1111111110101100
1111111100110010
1111111101010011
1111110000111100
1111101110010000
1111111011110110
110000000
1111111100100000
1111110010100010
10001101
1111111110010010
1111100110101011
1111111100001101
1111111110110010
1111111111101011
1111001
1111111101100110
10011000
1101011100
110010100
1111111011111100
111101
1110111
1111111010000111
1111111100100111
111011100
100001111
1111110111101100
1111110011101110
10000
1111111101010010
1111110010100100
1111110100100010
10111111
1111110101001000
1111110010000010
1111110000001001
1111110110011001
1101100
1111111001011111
1111111110001111
1111111111011010
1111111100110000
100000111
1011000
1111111101100000
1111111101000000
1111110000101011
1111110110011111
1111111001101000
1111111110101000
1111111100110101
1110001110
111001110
1111111010010110
1111111110000000
1111111100001010
1111111000110110
1111111000001001
1111100000101011
1111011100111110
1111100110100001
1111101000000010
1111011111110001
1111101010010101
1111100110001100
1111110001101001
11110011
1010001010
10001010
1111111101100101
1111111101101111
11001101
10101011
10000
1001111101
10100111011
100000000
1111111001000111
1111111101010001
111011111
11010111
1111110111011110
1111111110110100
11111011
1111100111011101
1111111110011000
1111111001111111
1111111110010100
1111111000111011
1111101100001001
1111111001111110
1111110101101001
1111111011011101
1111111111100001
11010110
1111111100001101
1111111111101001
11111111
