100111010
1111111010110001
11110010
1111111100001100
10010001
11111111
10001011
1111111110000011
1111111100101110
1111111100000000
1111111111111010
1110
10111111
111000
1111111110000000
1010011
1111111011011001
101001111
1111111111110101
1111111110000101
1111111111110101
10001100
1111111011011011
1111111111001111
1111111100000010
11111011
100000000
11000111
100100111
1101001
1111111101111001
100100101
1111111011110100
1111111001001001
1111111000100010
1111110110101110
1111110011100000
1111111101000110
10011001010
1111110011101100
1111110000010110
1111110001110100
1000101111
1111111001001111
1111111001100000
101011010
10010101010
10101001
101011101
110011
1101001
1000001
100010110
10011100
1111111010111101
1111111010110001
1111111011000101
1111111100001000
11101010
1111110001010000
1111111010111101
1101110011
1111111001010110
1111110101111000
1111110000111100
1111111101010001
11101000
10111001000
111011001
10010010000
1110011011
1000100
1111110010001100
1111111001000110
1111101001000111
1111111100011110
1111111010100000
1111111010000111
1101000011
11001
1111111011110100
1100100
100101010
1111111111111000
10111000
1111111101000000
1
1111101111111010
1111110111011000
10111011
1100110
100101010
10011101
111101000
1111111100000000
1111111000101111
1111110001110100
1111111100101010
10110011
1111110001110001
1111110000000101
1111101000101111
1111100111100110
1111110010001000
1111101111000100
10101101
1101000110
110001001
1111111011010000
1111110110011111
100101000
101010111
10001110
11001111
1111111111100110
1111101110011101
100000011
10001101101
1100110110
10010110100
10000101101
101110010
1111111110110100
1111111011101010
100110
1011010000
100111110
1111111100110101
111101
1111110111100001
1111110111100011
10010001
1111111101011101
1100101001
1111110101
11011011111
100101101101
1100011000
1111110100010111
1111111111001111
1111111100100101
1111111011010101
110110001
1111111100101001
1111110100001000
1111111011101100
1111111111001101
1001000101
1100111111
10100111100
1111000011
101001
110111
1111110101101000
1111111101101000
1111111011010010
1111111101111011
1111110000001001
1111101100111001
1111111000110001
111110
1111110011110010
1111111010001001
1101111001
10001110000
10100010001
1111111010001001
100010100
100000
1111111011111100
1001100100
1111111101100110
1111110111100110
1111110110010110
1111111101110110
110000010
111110011
1101101111
1111111101101100
1111111111110101
1111111010011001
1111111000011010
1111111000001001
1111101100001010
1111101111100101
1111110101011111
1111110111000000
1111111111010011
11101000
1110000
10001100
10010000101
10000101011
1011110111
1111111000100101
1111110111011010
100111010
1111111001011010
10111001100
10011100
1111111010111011
1101010
1111111100110000
111
101011010
11100011
1111111110101110
10110001
0
110010000
1111110110100101
1111110011001011
1111110101000111
1111110110000101
1111111110010111
111001100
101000101
1111111100010100
11111101
1000110000
1001011011
101110110
1111110111
1111110001010011
1111101100101111
110001011
1111100001
1111111010010111
1111111010111000
1001011010
1111111110100101
10010
1111111100000000
11001111
100101111
100111
1111110110010011
1111111101000101
1111110010100000
1111101111100110
1111101010110101
1101110
1111111111101111
1000011
1111110
101011
1111111011100110
1110
100001011
1000111000
1111111101111110
1111110111100001
10001000100
1100100100
1111111011001100
1111110100011111
1111111010001101
10001011011
100111001
101
1111111100101001
1111111100011001
1111111011010100
1111111110001001
100000001
1111110100010011
1111111000101010
1111101100111011
1001010
100110000
11101011
100010
11011
110111111
1111111110001010
1101001
1111110100101111
1111111000100001
1111110111000010
1111101110001100
1000011111
10111101011
1111100
101001100
101111
1100000000
1000111
1111111101100010
10001100
10010010
1111111111100110
1010010010
1111111111101011
1111101011111101
1111010110110000
1111011010111011
1111110011110010
110111001
1001001111
1000101001
100010110
1111111101101001
110111101
100011
1111110011000011
1111111110011010
1111110000000001
1111110110111110
1110010100
1111101111101001
1011101001
1111111111110010
1111111100000100
1010010110
1111111101110111
1111111101010110
110
10001010101
110110110
10001011001
100011001
1111100110110001
1111010011000000
1111100000100001
1111111011111110
1100100
1110000
1111100
110110110
1001010101
1000011110
110010011
1111110011001111
1111111110111110
1111100100011101
10111110
1011010000
1110011111
1001111
1111111111000101
1111111010100111
111101101
1111111011000110
11011010
1011011110
1100000111
1110010001
10101001110
101101100
1111101100110010
1111011101010001
1111111101001110
11111111
101110101
101010000
100110001
1011
110010100
1100100100
110111010
11110100
1111110100000001
1111111011001101
1011000111
1111111011111101
1111111011100110
1111110110111001
1111111000101010
10101101011
10001101010
11110011
10101110
1111011010
1110100000
10000110100
1100100001
1010010111
1111110001000101
1111101111100111
100110000
1111111100100010
1100010000
111110110
1011000
1000010010
1011001100
1110110111
1101001001
100101011
1111101110011010
1111100001000010
110011110
1111111101111101
1111110101101100
111101101
100011010
1101101110
1101111000
100110100
1010011100
1010110010
10011010011
1001100000
1100110001
1111111101111111
1111110111000111
1111111010101110
1011100
1011011001
1101100101
111111110
1111000110
1000000101
11001100
110010110
11101
1111111000001010
1111110010111001
1111111000001101
1010010
1000000010
1111111011011010
10110101010
10011011111
111101100
111001
1111111110011010
1111111111101011
100110001
1010111111
10001001101
1111111110011010
1111110101001010
1111110101100001
1111111000100111
110110
1010001010
1101111110
10110001
1101001000
101011
1111111000000010
100011110
1111111110000101
1111101011110011
1111101100011011
1111111000111011
101000010
10000010111
1111111000000011
1111111110111100
111101011
110111
1111111101110110
1111110
1111111110100110
1010101
11001
1111111110111100
1111111000011000
1111110111001010
1111111010100101
1111111011000111
1111111001
1001101111
101100000
1111010101
1001111110
101010
1010000
10011101
11010010
1111111011010101
1111110111110000
1111111011000101
1111101110011101
1111111010101110
1111110001101000
1010100011
100101110
1111101
1111111111000001
1011110
1111111110001011
1111111111000000
1111111000011100
1111111110011001
1111110010100000
1111101111111111
1111110011000111
11011000
10001001000
1001111111
1000111000
1111101110
111101011
111010000
10111110
1111111010111010
110101000
1111111011010110
1110010
1000101
1111110100011100
1111110110111111
1111111100110110
1101000001
110100001
1111111111111000
110100
1111111101011000
111000
1111111110110111
1111111101001010
1111110001001001
1111111000110001
1111101111010111
1111110110100000
10011101111
1001000101
1011000100
1110010001
10011101001
1011001
100010
1111111110000000
1111111110101001
1111111000010110
11101
1111111011111111
1111110101110011
1111111010100000
101
100110111
1111111110110110
1000011001
11010011
1111111110010000
100010010
1100101
1111111100101100
1111111110111001
1111110101011010
1111110101001110
1111110001100011
1111111011110001
1111000110
1000011000
1010111101
1110110
10111011
1111111110011001
1111111011011010
1111111111010110
1111110111010100
1111111001111100
1001100
1111111100100110
1111101100111001
1111111011001011
1111111101110011
111010110
100001101
110010110
1111110110100111
1111111110010010
1111111010100000
1111111001110000
1111111101011011
1111101101001111
1111110000011011
1111101110010110
1111111001010000
1111111110000101
1010011010
1100001100
10110110
1111111110000101
110010101
1111110101001010
1111110111001110
1111111110001110
1111111000001111
1111101110011010
101110
1111110010001110
1111110000110000
11111111
1111111011111111
1111111111111101
11111110
1111111011011110
1111111000010101
1111111110110001
1111111100000100
1111111100101010
10111011
1111111001111011
1111111111001100
1111110011101010
1111110100101100
1001111110
1111111111100101
11010110
101101
1111111101010011
1111111110010101
1001
1101010
10000100
1111111010001000
1111111001100101
1111111111101011
1111111010100101
1111101011111010
1111111110101001
1111111111001011
11001010
1111111011101010
1111101100101100
1111110010101000
1111101011010001
1111111000010011
1000000
1
10111101
1100010101
1111111111100000
10000101
1111111100001011
1111110101010101
1111111010100010
1111110101100000
1111110110001011
1111111111111011
1000110100
11100111
1000111001
1000000011
110011001
100100111
1111111011100011
1111110111010100
1100010
10111111
1001010
1111111101010010
1111110000011000
1111100001101101
1111011110001001
1111111010000010
100101110
1111111010111110
110000101
1110111001
1111111100110111
10010110
101101100
11010111
100001
1111110111110010
1111111100001100
1110111101
1010111100
1101111010
10000000111
10100101
111110001
111101101
1111111001010101
1111111001000110
1111111110111110
1101110
1111111011010010
100100011
1111110111100101
1111100101000011
1111110100010110
1111111100001010
11000010
10000000
110011110
1111111111010101
11100000
1111111101100101
1000001110
1111111100100110
1111111110100101
1111111101000011
1111111111100111
1111111100110001
1111111101101110
110001001
11011101
1000110001
1111111001101001
1111110101101010
10011
1111110110000001
1110100
1111101
11111111
1111111100000111
1111111010111001
1111101101110110
1111110111011001
10001100100
1100111
10000
1111111111000101
101011
1011011
1010011000
1011000010
1001010011
101110011
10000011
1111111001010010
10011101
1111110100000011
1111110101001011
10011100
1111111111000000
1111110011111100
1111101010110100
11000110
1111111110010110
101010110
1111111010100101
1011101
1111111111100111
1111111111100111
1111111111110101
1111111010100111
100001
1111110111001111
1111111000011111
1111011101
1111111101001001
1111101101011011
1111101111001011
11010010
1111111111111011
1111111010010111
1111111101000111
1111110111101100
1111110110110000
1111110010010111
1111110011011110
100110010
1111111001110100
1111101110011001
1001000011
111
1111111100001110
11000101
1111111010111000
1111111111111001
1111111101011001
11111110
1010111110
10010000001
11010110
1111111010111100
1111111101010011
111000101
1111110011000111
1010001
101101101
11110001001
1111111010001101
1111111101011111
10011100110
10101000111
10011001111
101001010
10100000010
1011110001
1111111101111011
101101100
1111111110101100
1111111011110111
10001
1111111011000011
