100110001
1111
1001000
1010111
1111111100000101
101010000
10000000
1111111100110011
10001011
1111010
1111111101100000
1010110
1111111110000100
1111111111011101
1111111111010000
1111111110101000
1100011
1111111111110000
1111111011101101
1111111011100001
1111111010101101
1111111011010001
1111111101111001
1010001
1111111110001010
1111111110001100
1111111110001101
1111111101110110
1111111101111000
1111111101000011
1111111111101111
1111111110110111
111010
1111111110010110
110010010
10000000011
100001000
10010101000
1110010000
10010000011
1111111111
110100111
1111110100110110
1111111111100110
11001
110110
10101101111
11101100111
11011010110
100011101
110000
1100010010
1111111100101011
1111111011110011
1111111110011110
1111111111011101
1111111011010111
1111111110101101
1111111100110110
1101011011
1111000010
1100100111
100001101111
11100101110
1111001110
1000110011
10010001111
101011000011
101101010111
10010011011
1110110101
10101100001
10110000001
10000000111
100110010
1111111110010110
1011110000
1010110111
110011011
1100100000
10001011110
100111010
101001
100000111
11110100
1111111101011010
1111111000010000
10101001
1111111001111101
10110011110
10100010101
11011111
110100000
1001110110
1001
11001011000
1101100101
10011001000
10010010010
1001101111
10101000100
1111010001
111101001
1111111111
1010100101
11000110
10110100
10100100110
1011001100
1111111001001001
110100
101001000
100110001
100001
1111110100111010
1111110011101111
1111000010
10101001100
11100000101
10011100001
10100011000
1010110110
1111000111
111101101
1111111100001100
100001000
111000100
1000000010
10101000111
1101011111
11010100
1000111000
1010011101
1111111111100101
100001100
1111110101111001
1111101001011001
1111110000110000
101111011
11010011100
1111111011110001
101000110
110101000
1111111010010010
1111000011
10000110001
11100100100
10001011011
11000110
1111110101001001
1111110011010100
1111110001111100
1111101101111100
10011001
110000111
10000000011
1101000111
1100000101
110011001
111001111
1011000
100110100
1111111000101011
1111110101011001
100001111
100010
11101101
1111001110
1111111111011011
11101101
11101100
1001010111
11001011
1100000000
1001111100
1111110101101011
1111100111000000
1111100010000011
1111101000011001
1111111010000000
1111101011110010
1111110111100000
1111110101110100
1010010
1100100010
1011110111
10110001
1111111111011011
1111111011101110
110001110
1111111011010001
1111110010101100
1111101001011011
1111110000011111
1111110010110010
111100101
10000101
1111110100110111
1111111101110011
1111111110101110
101011011
1000110000
10000101
1111100111011101
1111011101101100
1111101100001011
1111111011000010
1111110110000000
1111111001000010
1111111001000000
100010100
111101010
11011010
1000110001
1111100011
110010111
1110110
1000100
111110010
1111111101000101
1010110
1111101111111010
1111110011011100
1011000
1011111010
10100001
1111111010100111
1111110101100001
1001001111
1111111000000000
1111101011101101
1111101101001101
1111101111111010
1111111010000101
1111111110110111
1111111111000110
1111111011111000
100111001
1111111000000100
1111111110111011
110011111
111010111
110110001
1010000001
1111111110101011
1111111101010101
1111111100010010
1111110101111000
1111110000101001
1111101000110110
10101010
1111101011110100
1111111110111100
1111110010111100
100000100
11100000
1111111101100110
1111100110011011
1111110100010101
1111110010001011
1111110000101111
1111111001001100
1111111101101110
1111111100100111
1111111110101000
1010101
1111110110110000
1111111011001010
100101000
1011000
1111111110001010
111
101001111
1111111110011001
1111110011101001
1111110011011000
1111110110011110
1111110000110110
1111110011111100
1111110100110011
1111111011001010
1111111001111111
10011100
1111111010100010
1111110100000011
1111110011010010
1111101111010001
1111101111110001
1111101101001111
1111111000100001
1111110011110111
1111111110001011
1011110
1011100
1100
1111111011100010
1111111010001110
1111111110000100
1111111010010001
1111111110100010
1111111110000010
1111111110100100
1111111010000011
1110101
1111101111110111
1111011100010000
1111101011010101
1111111010010110
1111111100110000
10011100101
1101000101
1111101001000110
1111110010101110
1111101101011000
1111111011011110
11001001
1111111010110110
1111111010000010
1111111010111000
10111
1111111101111000
1111111011101101
101011
1111111011001101
1111110110111000
1111110010011011
1111101000010010
1111111001101110
111101110
101010101
1111111110010001
1111111111011111
1111110000001110
1111100110001111
1111101110011010
1111111010100101
101000110
111010001
1111111001101011
1111101011001000
1111110111011100
1111110011110110
1111111111001001
100111
100101000
1010110010
1111111111101110
100011010
1111111011100100
1111110110100010
1111111100001001
1111110101001101
1111110111011110
1111111010010101
1111110110110111
1111111010100000
101100110
10010101111
1010000111
10001101010
1111111001111110
1111101010111101
1111100011010110
1111110010101010
10011100
110000101
1111110011000101
1111110000011011
1100000
1111101010011101
1001111011
1111111111100010
101000111
101100001
1100
1111111101110011
1111111011000000
1111110111101101
1111111110100101
1000001
1111111001011100
1111111101110010
101110011
11010110
10001100
10100000001
10110010010
10000010011
1111101101111110
1111110011011001
1111110001100001
101001001
1111110101100011
1111000
1111111001001110
1111111100000011
1111111111000001
1111111110110000
1010101011
1001011111
11101000
1001100110
1111111111000111
111001001
1111111111011100
110110001
111100100
1111111011011100
1111110100111001
1111111111110011
1000111011
1010101010
1011011010
11101110101
1111000010
111110
1111110001000111
1100110111
1111111110110110
10001000
1111111000110001
1111110100100101
1111111010101111
1111111110100110
110010100
100001110
1111111110100011
1010101001
10001000001
11110011
100111
110111111
1001010110
1111000100
11101111
1111110111001011
1111111010111011
10110000
1001001101
10100001110
10010001000
11001000000
1000100101
1111111110000100
1111111001000001
1110110010
1100110
111100100
11100110
111111
1000100010
1101100011
1110000010
1100011101
100101000
10000110110
111011101
1101000011
1101111000
11000101100
11110001
1111111111001011
1111110111010110
1111110100011010
1
11001001
1000010110
1101110010
1100101000
1110010010
1001001101
111101100
111101011
100011100011
1100111101
1111111110111100
11110110
1111111110011000
10001101
1111111011001110
1111111111110111
1111111010110010
1111111001110100
1001001010
10000001100
101111001
10010001111
1010011011
1011001011
1111110111100101
1111110100100001
1111111101010100
1001
1111111111001111
1111111101101011
1101001111
110110011
11110000
111111000
1101110
1111111000000100
10111010100
1111111100001110
1111111100110100
101011101
1000101110
1101
1111101110001101
1111111111011110
1111110101000000
1111111010110101
1111111111011001
1011100100
1101101011
1101110011
10100010
10000010
1111110111010110
1111110000100010
1111111101011100
1111111101100001
11011
111010
1011
1111111110010000
1111111110100001
111011110
1001001
1111110111001010
10000010010
1111111000111010
1111010010
10001
1111111100100110
10010010
1111111011000000
11100100
1111111001101100
1111111101101000
110001110
1100111
11101111
1110100011
111110001
110000101
1111110011011011
1111111001000101
1111111001100100
1111111001000011
100010011
1111111011010100
11001111
110011
10111100
10011111
111100000
1111111111101111
1100100110
100110100
1111111110000011
1111111011111001
1111111100011001
1011101101
10100101110
1011010101
110110110
1111111011011110
11110000
1111111101001000
101110001
110011101
1010010001
111110100
1111111001100101
1111111101001111
1111111001100001
1111110110100100
1111110000010001
1111111101100010
1111110111100011
1111111010000000
1111111001011001
1111111101100001
10110110
1111111100100000
110110100
1111111111011111
111010010
100000101
1011010000
1100111010
11001011110
101101011
1111111010110110
1111111110010001
101100001
1000111011
101110011
100110111
1001101000
1111101001
10011000100
1111101000
100000111
1111111000001101
1111110000110100
1111110000110110
1111111111000100
1111110010000110
1111101101010011
1111111110001011
11011011
1111110110011100
1111110001100001
100110110
10011001
10010111
110111110
10000111011
1100010011
1111111010110010
1110111111
1100011
1010010101
1011011100
11111010
1001011111
100111111
1111000111
1111101011
1011111010
110100001
100011001
1111111011100001
1111111101000110
1111111010100010
1111111000101110
1111101100110010
1111111011100011
1111110100111010
1111110010111000
1111111110011011
1111111000001100
110101100
111001
1111111101110011
1111111110110100
1111111000111110
1111101101000101
11000
1111111101010000
1111111100100010
110100101
1100100
110100010
1100101
1111111110001001
1010000100
11000101
1111111110010010
1111111101000000
1111111111001101
110110010
101100
1111110001001010
1111101101100010
1111111001011110
1111111011000110
1111110011000111
1111110110001000
110001
1111111100011110
10001000
1111111111011100
1111111000100110
100000011
1111111111000110
1111111000110000
1111111010110001
1111110110001110
10101101
1111111010010101
1111110101100111
1111111000010011
100011
1111110111110011
1111111111100111
10000110
1111111011010101
1111110011011100
1111110011111110
1111100110100001
1111101101001011
1111110011001101
1111101000100000
1111111010010101
1111110101111010
10100110110
1111011110
100000010
11011101
100111110
1010110001
1111101010010101
1111101011010010
1111111000000001
1101
1111110101010111
1111111010001101
1111111101100001
1111111111010011
100000001
1111111000001001
1111110110101100
1101011
1111111111101000
1111111011110011
1111101011000100
1111111010000000
1111111111010001
1111111111001101
1111111110011111
1111111000101011
101010110
1111100110111110
1011101101
1100010010
11011
1111111110100010
100111001
101101
1100111110
10110100101
10000011000
1101111011
1100011000
1101011110
11010110
1111111101110101
1111111100101010
1001000101
11110000
111000000
1111111011000100
1111111001010100
1111111100110100
1111001
111000
1011010111
1111111111111001
1111110011101100
1100110011
101011100
1111111001001010
1111111111010001
1111111110100011
1111111110001100
100100111
1111111111000100
11000000
1111111101011110
1111110100111100
1111111010110110
1000010001
100001100
100011001
1111010011
1110101110
110010101
1111111111000101
1110101100
1111
101110101
1101001110
1010101101
1101110001
1001100111
1111110111100100
1111111011000011
11101
101010101
1111111110010000
100001101
11110110
