1111111100010001
1010101
1111111111110010
1111111110111011
1111111011000111
1111111010100100
1111111100111001
101000110
1111111100000010
1111111010111000
1111111101000110
1111111110000110
1111111100101110
101111001
110010010
11100011
100111110
1111111100101101
1111111010111011
1111111011010011
11111110
1111111011000110
1111111100000110
11000000
1111111110100111
100001000
1111111011001011
11001000
101101
100001000
10111011
1111111111011111
1111111010100101
1111111100010101
1000001
110111011
100000001
1111111110100001
100011110
1001101100
1011011010
1100110
10001001
1111111110011111
100011111
1001101101
1010011101
1111111111011110
11101010
101010000
100101001
10010001
1111111101001011
1111111110001010
11010110
10101101
101010100
11000001
100111010
1111111100101110
1111111111000011
1111111110000111
1100011101
10000010001
10110000011
1100010000
10000111100
10110100
10100100
1111110011101000
1111110001111110
1111110000011010
1111100000110000
1111101001101111
1111110001110010
1111101100110100
1111110110010011
1111111111011011
1111110101111111
111010110
11011100
101101010
1111111110001110
101000101
1111111111101111
1111111111111001
1111111011111011
1111111101000110
1111111011100000
1100101110
1001010000
1111111001010111
1001001101
1011101001
1110111001
10000011000
1110001111
10100010100
10110011111
11000010
1101000
1011111110
1111111101011111
1111111101101001
1000010010
1111110100101001
1111110011101011
1111011000101100
1111101101001110
1111111100010111
100110000
101001100
1111111010111111
1111111111001000
1111110010000001
1111110111001110
1111110100111011
10101001
1011011010
10110100110
11011001
10001011011
100100101
11011100111
10100111101
10111110001
1101100111
1011010100
110101
1010101001
1000111101
1111110111001101
1111110011010110
1111110001011111
1111110110111111
1111101000111001
1111100111001011
1111110111011111
1010000010
1111111011011001
1111111110011010
1111111110001010
1111110011001000
1111111100000011
1111110110011100
1111101110001000
1011101010
111101001
10000011111
1100100101
10100011001
11001000111
1100101001
10011100001
1111100010
111110010
111100011
1110101000
1011010001
11101100
100100
110110011
1011000100
1111111011000001
1111110111011111
10011011011
110101101
1111111011001011
100001100
1100010000
11100000111
1111111110011111
1111110111100011
1111111110010100
1010101010
10000101100
1101010110
1101010111
1010000110
1110001001
1111111011
10000011110
1010011100
1000000100
1101010001
1001011010
1000011010
11010111
100101
110111101
1001101101
1111111011010101
1111111001000110
11001001
111001
1111111000101001
1111111100111010
110100110
10000110100
1001101010
111001000
1000001001
10111001
1001011110
100011000
1011000011
11010
1001000110
1001011
1001110011
110111111
10100000001
10010101100
1101101110
10010111110
1110100001
100101101
1010001101
1011100101
1000001010
1111111110101001
1111111111001001
1111111100100111
101110010
110001011
1111111100000000
11101011
111111
1101110011
1111111110001111
1111110110001001
1111110111011100
100011011
1111111010110111
101
1011100
111110011
111010101
1011101001
1101001011
10110001110
1110000110
1011101011
110011101
101001101
110001
111100010
1111111111100011
1111111001100011
1110101110
1000000111
110111011
1111111101111010
1111111110101000
1111111011110011
1111111011001000
1000101100
1000100
1111110010010101
1111110100000110
1111111001010111
1111111100111000
1111111100010000
1111110100111010
1111110111000111
1111111000100001
1111110001101001
1111111001101001
1111111111011110
1011010100
1000100110
10000101
111010101
1111111110110010
10001001
10010001
1111010
11010001001
111110001
1111110110011111
10110
1111111111011111
11101
1111111011010100
11000011
1110000
1111110110001001
1111110011000000
1111111111111011
1111110100100110
1111110100111100
1111110100111000
1111101001111100
1111100110110101
1111101000000110
1111110001110000
1111110110011101
10000111
1101000
1111111010111100
1111110111001001
10011010
1110101000
11101011
1001000110
1111111011111101
111010100
1111111000001110
1111111000101110
1111110100100000
1111101100110010
1001001100
1111111001100101
1111101011100000
1111101110001000
1111111000100110
1111110011011111
1111111000011000
1111111000100000
11010
1111110011011001
1111111011101011
1111101101101000
1111101011011110
1111100010101110
1111111001010111
1111111001011010
1111110111110110
1111110010100110
1111110111100110
1111111101101011
100100100
1111110110001110
1111110010101010
1100011
1111101010100101
1111110110001011
1111111111000010
1111110000000111
1111100
1111101100100110
1111101011001101
1111110110101010
1111111011101011
1111111101110010
110111
1111111110011110
1111111101101111
1111111011010010
1111111010001001
1111110000111100
1111100110001011
1111110101000000
1111110101011110
100001011
1111111110010010
1111111001011000
1111110100001100
1111110100111001
1111111001000110
1111111011110100
1111110101111010
1111111001100110
1111101110110010
1111111010110100
1111111010010011
1111111011101100
1111111100
1111110010100110
1111110111111101
1111111011001111
101101111
1111111111010000
1010100101
110110000
1111111101100010
11111
100000
1111111010100010
1111110101010001
1111110110000011
1111110111101001
110001011
111111010
1111111101000101
1111111111000001
1111110110011110
1111101011110111
1111110001111011
1111111001111001
1111110100000110
1111111101111010
1010000111
110111001
10100000
1111011100
1111111110110010
1111111110011100
11010
111011001
1111111111110001
1111111011110001
1111111111001010
1111111111001101
1111111101010111
1101100
10101010
11111101
1111110001100011
1111111100010010
1111111110100000
1111111111010101
1101110
1111111111010100
1111110101101011
1111111000010001
1111111101100101
1111111010000111
1111111000000110
10001011011
111000110
10000110
1111111000100110
101111111
10001001
1111111111100111
1111110111000010
101101111
1111110110101111
1111110101001010
1111111001100011
1111110110001111
1111111000111001
1111110111110110
1111111101000111
101001000
100111
1111111010100010
1011101
1111111011111001
1111111110100101
100111110
1111111000001101
1111111000001111
11110101
1111111000010000
11101110
1111011110
100010110
11001010
1100110
101111010
110011010
1111111111100010
1111110011001100
1111111100001110
1111111010000001
1111111101010000
1111110110110001
1111111101110011
1011
1111111101101101
1111111111011110
1111111010000001
1111111011100100
1111111110100001
1111101111011011
1111110011111011
1111111110111010
1111111111010001
1111111000011011
1111111010011100
1001111110
1111111100011001
1011111
1110000100
1111111110011000
1011101100
1111111000101111
10011
11010010
1111110101001111
1111110001001101
1111110110111110
1111111001101010
1000000
1111111111000110
1111111111001010
1111111100000000
1111110111111100
1111110111100111
1111111101111100
10010100
1101
1111111010110010
1111110110100110
1111111001101111
110111
1111111100100001
1111111101101011
110011011
11000000101
1100100110
10000111010
100011011
1111111001000100
1111111100001011
1111111010011100
11110
1111110110000111
1111110101101011
1111111000101010
1111111101111110
1111110110010011
1111111110101111
1111110100010110
1111111010001000
1111101011011011
1111101111100000
1111111111101001
101110101
100000010
1111111101000001
1111111011011100
1111111010100010
10000100
1111111110010111
1111111110111010
101100100
11010100000
10001100000
1000110111
1111110100001101
1111111111100011
1111111010100101
1111111101100101
1011110100
101010100
100101110
11101010
10010111
1111110110000001
1111111110100100
100010
100100
1111111011110111
1111111100110110
100101000
11111010
101010110
10000
1111111100001001
1111111110001011
1111111010001000
10101010
1111111100000001
1111111011000010
100101001
1010010111
1111111011100001
1111111111111100
1001011000
1110110100
1101100010
10000001100
10110110000
10011110111
111010010
1001001111
111101001
110001000
1101111100
1110110001
1001010001
100000
1010100001
101001000
100010111
1111110110011011
1011101
1111111100011000
1111111110111101
1111111100101101
1111111011000110
1111110111100000
111001
1111111110110010
1111111010100111
1111111100100111
1010000011
1010111111
1110000101
110111001
1111111010011011
11100000
1101010
11
110011010
1010000011
111011100
1010100111
1100101011
1000001111
1111011
101001110
1111111101110000
1111111001100000
1100101
1111111001101001
1111111111011010
1111001111
10010111011
1111111110110001
1001100111
10000110001
110100
1111111010011100
1111111101001111
10010001101
111001110
1111111011110101
1111111111010000
1101010001
1111001001
110101110
1101011100
110111100
1010111000
1010100000
1101000111
100001011
10000000
110100011
101101001
10000
1100001
100011000
1111111011011111
10001101010
11000111100
110000011
1111000010
100110010
1001011110
100110010
1111111110001111
11101111
10001011011
1111111110111010
1011111000
11100000001
1111011000
1011100110
10001000001
1111010100
10010111000
1100100011
1000011010
1111110111
11000
10010110
1001010001
101001100
11001111
111000111
111111111
100000011011
100001101000
1001110010
1010100100
1111110101010111
1111111111010111
10001110
1111111011010010
1001000100
10111010011
10101101100
1111111001
1001111000
101101110
100111001
1010111111
1111111001100111
1111111111100111
1110000011
10011101100
1101100001
10101010000
100110100
110100111
10111000100
110000101
100011001
1110110011
10100011000
1111100100
11100100100
10001
1111111001110111
1111111100000100
1111111111000101
100101110
1111110010011111
1000011110
1001011010
1111110111001010
1111111110000011
10111101
1000010100
1010011101
1111111110011110
11111101
1111111111100110
1111111110010100
1111111110100011
1010011000
100100101
11111011
1001011000
1001110011
1111110111101111
1111111000000011
1111111000101010
1111111110110000
101010001
1111110101101101
101010010
1011110
1001010
1111111011110001
101000010
111101
1111101101101011
1111101110000011
1111110011010010
101011
11111110001
10011001000
101101011
1111111000110000
1111111100101101
101111000
1101111
1111111000101100
1110000100
1111111000010001
110111111
1011101110
1111111110000111
1111111001100101
1010100111
1011111100
11111001
110111100
1111111010111100
1111111101101111
1110100
100
1111111111100111
11011010
1111111011010010
11000001
100101011
1100110111
11010111
1110001000
1011011010
100010110
1000111000
11010011111
1010000101
10000100101
101110100
1010010
101010101
1111111100010100
1111111001101101
1111111101110010
11101010
10011000
1111111110101110
1111111100001000
1111111010110111
100000
