1111111100011001
1110100
101001
1111111110100001
1111111101100100
1111111101001100
100100100
1111111101111101
11011110
1111101
1111111101001001
11110
101011
11100111
101011111
111000110
1111111011101011
1111111011001011
10101100
1111111011100110
110001
1111111100110100
11000100
10111111
10111011
11111010
10101001
1111111100100011
1111111111011010
1010011
101010010
10011001
1011011
1000111101
1001001111
1011100110
10001110110
1100000001
1110101111
1100111110
10000000110
1101000101
1111110101100100
10010
11110000111
100110010001
10100111101
1100011111
10011001011
1110010111
111001101
1101001111
1111111010111001
100101
1111111100010000
1111111010110111
101001111
10111011
1111111111101011
1010010110
1011100000
1001101111
10101111101
11001001110
11000001111
100111101111
101001101100
110000011011
11101111110
101010101
1111000000
1011011100
10011010011
1001111010
10001010010
100111011
1011001011
1110111111
110111111
10111000000
10011001010
10101010111
1111111110010111
1111111100000001
1111111100111100
100100111
1111111001000000
1001111110
10001110000
10100011111
10001010101
1101100100
10001100100
10111011111
11001111111
11100011111
100000101101
10100111000
10000000001
10011110111
100111010
101101
110011011
1000011
1111111100110100
1111111001000110
1111111000011110
10011110001
10100100101
1111111101001110
1111111110111111
1111111100100111
11001010
1111111101011111
1111110111001010
1111101110111110
1111111100110011
1011100100
10010010001
1001101111
1111110111
10110010001
10101101000
10110001000
101011011
1111111110100111
111001111
11111101
110101011
1101010101
1101010101
1111111110100001
1111110110001000
1111101101100100
1111101000101011
1111110101110000
1111110001100001
1111111100100010
101001010
10001100100
100101
1111111111000101
1110000
1111111001111011
10101100110
1111111011101111
1111111110001010
1111111111000110
1111111011110011
1111110101100011
1001101010
1000000101
111110001
1011111110
1010001011
1111111011001101
1111111101010001
100010100
11101
101101011
1111110111100101
100
1111111100110111
1111110110101110
1111111010010000
1001011110
11101010100
1101011011
10001100
110101110
11110011
1111111011010001
100000010
1111110101100110
1111110001100110
1111111011000011
1111111010100111
1101101
1001001
1010011001
1100101100
101111011
110011011
1000111010
1001010000
1111111101000011
1111111101000011
1111111011000101
1111111010000100
1111111010100110
1111111011110100
1111111010011011
1111111101101001
1101010010
1111111111010100
1001001101
10011000
1111110010011100
1111111010110110
1111110000011110
1000000110
11001010
1111111110000101
1111110100010110
1101111
10110010
1000111010
1110101000
110000001
1010010101
1010001101
1011011111
1010110
1111111011101000
1111111011110000
1111110111100100
1111110010010000
1111111011001111
1111111111011011
1111110011011100
11110000
1111011111
1001010
1100000111
1110111101
1111111101101110
1111110100111011
1000101
1011000101
1111111101011011
1101110
10111110
11000001
1111111111010000
111100
11011100
101110
101111
11111111
10111101
110011000
110110000
10111000
1111111110011000
1111110101101110
101
1111111010101110
1100000
1111111000100011
1001011000
110010011
1000010111
1111111000111000
1111101001000001
1111111111101100
1011001
1111111000000001
1111111011000011
110000001
1000101100
100111001
11100001
11011111
1111111011111110
1111111000010001
1111111100101111
1111110101011000
1111111000010111
101111100
1111111011000100
1111111011000001
101010101
1111111111111001
1111111101000000
1111111110001000
11111101
110011110
110111000
11010101
1111111001100010
1111111101010011
1111110101110000
1111110101110111
1111111110110111
1111111111001101
100110111
1001001001
110001000
1010101000
1111111111111011
1111111100011110
1111111010011101
1111111001110001
1111110110000100
1001011
1111111101000101
1111111111000110
11011
100000111
1111111010101101
1111111000011110
1111111111000000
1111111010001101
111011010
11010100
1111110001100010
110111100
1111111110010101
1111110010100000
1011110101
1111100000101101
1111111001110000
10111101
1100011111
10101111
1011101
1111111111110001
1111111101000011
1111110100110010
1111111001111111
1111110111110101
1111111110111110
110010000
1111111011001101
1111111010110110
1001001
11010011
1111111001000101
1111111011000101
1111111010101000
1111110011100100
10111011
1110010011
1101100100
1000000001
1111110101010010
1111111010001011
1111111010111111
1111100100001001
1111111111010111
1001100110
11111010
1000010011
1111111000111111
1111110011101001
1111111111000001
1111110110100100
1000100
1001100
1011001000
111100111
1111110011110011
1111101101110001
1111110101110100
1111111010100011
1111111111111101
1000100
1111111111011001
1111111101100011
1000110000
1111110011
1111111010
1111110100111100
1111110111101100
100000111
1111110001101100
1111101011110100
101111100
101011
111010
110100011
1111111101101110
1111111111011111
1111111101011001
1111111110111001
10000110
10111000
111010000
1111110111111111
1111110001100101
1111110000110011
1111111100111000
11000110
110010010
101100011
1111111011111001
101111110
10010010010
110101001
10100100100
1101100101
10110100001
1111111110100011
1111110101101111
1111101010110011
1111101
100100001
1000
11000100
1111111111001101
1111111000111111
1111111100001101
1111111101010100
100001100
1111111111101100
1111110
1111110111011110
1111111001100100
1111110110110100
1111111001011110
110111010
1111111000100011
1111111100101111
101100011
100001001
1111111111110010
1101001010
10000100001
1100010101
1001110110
1111111011100001
1111101111111111
1111110111000110
1111111001110011
111001101
1111111011010111
11101100
1001000
10001110
1111111111010010
1111111110110101
1111111101011100
101100
111000101
1001000
1111111101111011
11000110
1111111010110011
1111111111100000
1111111010101001
100000110
1111111110110110
1111101111000110
1111111011000100
10111001000
11101011100
1111111011101011
10111000101
1111111101111100
1111111101010101
101011010
101011110
101111010
110100101
10101001
1111111110100101
1111111100010110
11000011
1111111110000000
1010010100
1011101
100011000
11101110
1111111110111111
11110110
1111111011111100
10110111
1111110110101001
1111111011010001
1111110000110111
1111111000110001
111001010
1001101101
100110001101
111101101
11101101100
101
1111111101110000
11000010
100111000
100110101
1111111100110011
1100101
1111111100110010
1110111
111
1111111111001000
11011101
1000101001
1111101000
1111111100100111
1111111011000100
1111111001100101
1111111001101110
1111111101010111
1101100
1111111110110010
1111111010010001
1001011
11001000
110101110
10111100000
1111111110111000
11000111100
111001101
111011010
1111111110010110
1001101001
1111111110111011
1111111110010110
110101011
1111111111001100
101110111
1001101010
1010101011
1010001100
10001000001
100010011
1111111100111100
1111111001111110
1111111101100111
100100000
1110110
1000000000
1111111101010000
110011000
1110111000
1011110100
1000100010
11100001000
1111110000111011
10011110111
1111111111111001
1111111011010010
11000000
1111111100111010
1000001
101111111
1011111000
1011001110
1100101
101110100
11100100001
10000001100
10111000010
1011111101
1111110110000000
1111111010101111
1111111100001000
1010110011
1001110110
1000011001
110011011
1010101010
10101101000
11000110010
10101111
1010010101
11110011110
1111111010000011
1111111111001111
1011000010
1101110010
10110110100
10010000100
10010011011
110000011
1001101110
110111001
1100101101
10010010110
1101000000
1010100101
1111111110100110
1101
1111111001101110
101100100
100110100
110001001
1010
10100111100
1111001111
10010011110
1101011101
101111000
1010111100
1010101101
1111111010001011
1111111110001101
1110001011
10110101011
11000110101
100111110
1111110000011001
110101101
1101100000
1111111111010111
1000001000
101111101
1001010111
11111000
111000010
11100001
1111111010010001
101001000
10000101111
10001011
1010100010
101111100
1111111101110001
110110110
1011101011
1111111000110001
1001001100
11010010111
1111111100000000
110100
1110101
10001101110
1111000100
1111111110110010
1111110101110011
1111111000100000
1111111000001110
1111111011110100
100000001
1111111011011000
11010001
110010010
1000011001
1001001
1111111110010000
10011101
11101101
1001011
1111111010100010
1111000
1111111100100110
1110011
101101101
1111111110010000
10010010100
1111111011010110
1001101
1111111011000100
1111111011110000
1100110110
100011010111
1111111011000100
1111110110011100
1111110000010111
1111110101100110
111000110
1111111111010000
1111111010100010
1111111101110000
11100110
1010101001
100000010
1111111101100001
101011110
1111111011000111
1100010
1111111100110101
1111111111011000
1001011100
10100100101
10111001100
1111110111001100
1101000000
1111111000100100
1111111101001011
1111111011111110
100101001
1111111011010110
110010111
1111111100100101
1111110001000010
1111101111101011
1111110001110110
1111110110110001
1111111010000010
11111101
110010100
10001101110
111100101
100001100
1000001001
1001100000
1111111101001010
1000001101
11110100
110010111
1001010011
1001100110
1001010010
101111011
1000000011
1111111100101101
1111111111001010
1111111110010111
111110
101101000
1111101111100000
1111110000001111
1111101110000000
100011100
110011110
1111111011001001
100101011
1011110011
1000010010
11000101
1010001000
11000110
1001001100
101000101
110001
11010110
1000000010
1010100011
1111111010010101
1111110011110101
11000110
110011
100110111
110100101
1111111101101101
10001
11000
10001101
1110101
1101110000
1001011010
100010010
1111111101100000
1111111101100110
1111111111111110
1111111101111000
1010000
1011010010
1011101011
1010001
1111110010110001
110100100
10100000000
10001101011
101000110
1001100001
11101000
1111111001000010
10010011011
100011100
1111111010010100
100110000
11010100
1111111101010100
1101111
101011110
1111111011000001
1111111000100111
1111111011010001
101000000
110011000
1101011
1111110111000001
1111110001110010
1111110010011011
11110000
1111101001011111
1111111000001001
1111110010100011
1111101010010101
1111101010000110
1111111110100111
11101110
1111111011011111
1111101111100101
1111110110001010
1111101101110100
1111111100110101
100010000
1111111111010101
1111111110101110
