1111111101110100
1111111110001110
11001101
1111111100001010
100101
100010101
1111111101111100
1111111
101010101
1111111111001101
10101101
110
11111110
10101110
1111111111100110
100001
1111111100011011
1111111110100101
100101111
11010
1111111011111010
10111101
1111111011000101
1111111011110001
1111111010100110
100001001
1111111100111111
1111111110010011
1111111110100011
1111111111110101
1111111100011100
1100001
1111111101010001
1111111101101101
1111111011000110
1111111000100011
1111111101110111
1111111101010000
1111110010001101
1111111101001101
1111111100000010
1111111010001011
1000110100
11100110
110110
1111111110101100
1111111010100110
1111110001000001
1111101101101000
1111101100100101
1111101110000001
1111101110110011
1111111011001011
1111111011111110
100011100
1001111
1111111101000010
1111111110000001
11010
1111
10110
1111110111100011
1111111111110001
1111111101101101
1111111100111101
1111110101010011
1111111110110111
111111
1101111010
101011001
110111011
1101010011
101111100
1111111101110110
1111111101100001
1111101101000100
1111100001100001
1111101010110111
1111110011101101
1111110011101110
1111110110
1111101000
1001110
11111010
1111111111101100
101000101
1001111011
1001000001
1101100
1111110111111001
10011010
100000100
1010010
1100100101
1111111101001101
10000111
1100010101
1111110111111000
1111110110000101
1111110000011100
1111110010001011
1111110011100010
1111111011111000
1111111011111000
10111000
1111110000110110
1111111100110100
1111110011110111
1111110111100001
101000111
1111110101010010
1111111011110101
1111111011111111
11001000
1101100110
1101010
1111111001000111
1111110111111100
1111111111110000
1111110010111110
1111101101000111
1111100010110010
1111011001000000
1111101101010101
1111110000110101
1111110001101101
1111111011000110
1111111111000100
1101001
1111110110010000
100110101
111110101
1111111100111100
1111110101010001
1111111010100100
1111111010000111
1111110010001101
1111110111001010
1111100110100101
1111100111100001
10011000
1111111101100011
111011000
1111100101
1000101111
11101101011
11011101101
110000111
111010011
1010100
1111110010000011
1111110111110000
1111111110000001
1111110010001111
1111110110110011
1111111110101000
1100010000
1111111010100001
1111111011100011
1111111000000011
1111110010110000
1110100
111101101
1111111001011011
1111110000111001
1111100100101001
1111101000100100
1111110010001101
1111111011101010
1111111110110001
1111111010000100
100101001
11001111
10001110011
1111101000
1110100
1111111010000000
1101000011
1000101000
1111111110000000
1111111111001101
1111110111100001
1111111100101100
1101
1111111100001010
11100000
1001010
1011000100
1111111010100100
110010000
11010010
1111110101101010
1111110100010100
1111010100110111
1111101101110111
1111110100001101
1111111100011101
110000100
110
10010111101
11010101
110000010
1000001101
111111
1111111101001000
1000110010
1111111111001000
100010111
1100000
100010
1111111101111001
1111110110111100
111001111
1010111111
10100010
1101000111
1111100101
1010010110
1000010110
10011110
1111110001101001
1111010110100110
1111101100011011
1111101111100101
1111110001111111
1000110011
1111110110010010
1000010100
1111111010010011
100000001
11010011
1010011010
1100000010
10011010101
1101101101
1111010100
1111111111010011
1111110111000011
110100001
110110010
111101010
1011011111
11111110
110101111
1001000100
101100
10001111011
1100100010
1111110101111000
1111011000101011
1111101010100111
1111110110111011
110010101
1111001001
111111
1111111100101011
1111101010111101
1111111110100101
1111111111010101
1000100111
10010011001
1100111011
1000111010
101110101
110101010
1111110101110011
10100010
1111110010
1110111111
11001111
1111111111101101
110001001
1111111111001111
1111111111101110
1100001001
1111111111001110
1111111001001000
1111101110000110
100001011
10000111111
11110101
1111111110100110
1010101001
1111110100101111
1111100101011111
110001100
111111111
111100111
1111110000
1110101110
10000101010
10101101
1111111000000111
1111110010001100
1111111101110001
10011100001
10010111011
101010001
1111111110000111
1111111111111010
1111110111101100
1111111011111110
1111111110001101
1111110110000111
1111111010000101
1010001110
1000011101
1111001111
10000
1111110010001100
1111111111110000
1111101110010011
1111110110011001
1001101000
1000011011
111110001
1100011001
1111111110001110
10111100
101100101
1111101000110101
1111110000101001
1111111111111000
1001111110
1011
1111111101001011
1111110101101111
1111111000000000
1111110011110001
1111111000011011
1111110101101110
1111101001011011
1111101010110000
1111111100100110
1111111001101110
1010111001
1111111101011111
1111111101101001
1111110101111111
1111110111111110
1111100110111100
1111100101000101
1111110000010001
1111110110110011
1111110110010011
1111101111001110
1111111010011110
1111101000001100
1111101010011010
1111110000000111
1111111001001100
1001110
10111
1111110110110111
1111111110010000
1111111100000001
1111101110011010
1111111100010001
1111110101001010
1111101100000101
1111011101000011
1010
1111110110001111
11111001
111010011
100001110
1111010010
1111111000101110
1111100000111000
1111010010100101
1111011010010010
1111100111101100
1111101101010011
1111100000111111
1111100010010011
1111100111110101
1111101110010110
1111111010010011
11011001
100111
100101101
1111111000001110
1111111011010000
1111110000110000
1111101000101000
1111110011000001
1111110110000011
101011010
1111111111001000
10001
10010101
1111111111100101
11011011
1111101111111000
1010100000
1111111000000000
1111111000111010
1111011101000001
1111011100000000
1111101110101001
1111011110010111
1111100101100011
1111111000111010
1111111010001001
1000000
1111111100000001
110011011
1111111010101000
111100
1010
1100011
1010011
1111111001011010
0
111000100
1000011100
1110011
11001
11100100001
1110000110
1101110
1111111100000110
10111
1111110011101000
1111110110011010
1111101010001101
1111100111010110
1111101110111111
1111110011100010
1111110110110110
1100101
10010110000
1110001010
100100110
11001001
1001001
1011100
110001010
110111111
1111111111001011
1100011
1110100000
110001010
101110101
110100000
1111110101011110
10100111
10100011010
1111111110111000
100010
1111111010111000
1111100001101001
1111100000011100
1111101110111001
1111110110110001
1111111001000100
1111111110000100
1100011001
1100000000
1010011111
1111001001
1001100001
10111111
1011100
111011101
1000100010
111010100
1010111000
1111111101001001
10000100010
100011100
100100000
1111111111100001
1111111001010110
1011001110
1011000111
111100
1111111010101100
1111101110110101
1111111000010011
1111110100110101
1111111011101011
1100001100
10000
101101010
10011001101
100010101
111011111
10000110001
1101001110
1111111100101101
1111111110011011
100010100
1111111110000001
10000010
101111101
1111111100011101
1111111100
1001000110
10110110
1111011101
11000101
11111010
1111111001010010
1110011
1110101
1111110000110001
110101011
1111111110010101
111010100
1000000010
1101111101
101011001
111101101
1001101011
11110000
1111110011
1100000100
1111111110001100
1111111010110001
1111111101010010
1010001001
10000
1011100000
101001010
1001001
1111111100110010
1111
10101101001
1111110110
100001011110
1010101100
110001011
1111110011101010
1111111010110011
1111111
100111100
1111111010111011
1100011010
10001100001
1001100100
1100101001
101000
111110001
111111000
11101011
1111111011111110
1111110101110100
1111110000111001
1111111001111100
1111101001100100
1111111111101000
1111110101111000
1111111000000001
1111110000100100
1111111110101000
1000001111
1000011001
10000011011
1100001000
101010100
1111110001010011
1111111110110101
1011000000
1111110011100111
1111111101100000
100000000
1111111110000001
1111111101100110
110001101
1111111011011001
10111
11011000
1111111101000001
1111110010111110
1111110100010000
1111101110110101
1111101011100111
1111100100010010
1111110010100101
1111110010011110
1111101100101100
1111110100001000
1111111101111001
1010111000
100000111
100110111
1010110011
111000000
100011011
1111111101011000
110001
1111111010000110
111011010
1111111011100101
1111110101100101
1111110001110110
1111111000000110
1111111011101011
1111111001001111
110101
1111111000110010
100011111
1111110100110100
1111111001110000
1111110100000100
1111110110111110
1111111010011100
1111101011011101
1111101111001101
1111101001011000
1111110110010011
101110011
10111000010
11100010
1111111101001001
111101101
1111111101011000
1111111011011001
1111101101100110
1100110
1100000111
1111
1111111010001011
1111111010000011
1111110100110001
1111111101101001
1111110010010010
10111
1111111011100011
11010011
10100011
101110101
1111111001010001
1111110010010000
1111110111010111
1111101100001010
1111101110111101
1111111100001000
1111111010000110
1001001101
10111111001
10101011
1111111111110110
1111111101111011
1111111101010000
1111110000100001
1111100001101010
10101000
11010
110111000
1100000
1111110001011000
1111111001001111
1111111000011111
101110100
0
1001001000
11001001
1111111111001111
100000011
1111111010101101
1111110000100110
1111110011001101
1111111000011110
1111111000100101
1111101111000100
1111110100101110
11000100010
1110101110
101010000
1111111110001010
1111111110101101
11111
1111111110101000
1111110000000011
111111100
11000110
1111111111010000
1111110110001000
1111110101101000
1111111001110011
1111110111111011
100100000
1111111011100100
1111111111010101
110011
1111111101111101
1111110001111000
101111
1111110011100100
1111110100101011
1111111110010100
1111111101000110
1111111011000100
1111110110101000
1011101000
1000011101
1010001010
1100001
1111111101000010
1111111110000010
1111110010110011
10010010010
10000100000
100111101
1111111101101011
1111111001101110
1111111001011110
1111110101101110
1111110010100011
111101000
10010000
1111111110001000
1111001
111000001
1111111100111110
1111110101101110
1111100111110101
1111010101100100
1111100111010110
1111110011011110
1111110101100001
1111111111101100
111101000
1000011111
1101000111
10001100
111111
1111111110100110
1111111010101111
1111111010100100
1111100111100001
1111101011011000
1111110011100001
1111111111011000
101000
110000001
1111111100100001
1111111110100000
1111110110010111
1111111010011111
1111110111010110
1111101111011011
1111101101111100
1111110101011011
1111101010111000
1111100011111010
1111110101110001
1111111001110111
1111110011110111
1111110001001110
1111110011001000
110000010
101001110
100111000
1111111011001111
11111101
1111111110101001
1111111111101101
1000110101
1010110010
1001011100
1111111110101100
11001100
110110111
11000111100
100010001111
1100010010
11011111101
1110010000
11001100011
100010111101
1111111111111000
1111111011011110
111011
1111111010101001
1111110111101010
1111111010010010
10111
1111111101011001
10011000
1001110
11110100
