100011011
11010111
1111111101011100
1111111101010011
1111111100100111
1111111011010101
1111111100010011
100010000
1010100
10011100
100001001
1111111100101111
1111111111111101
1111111110000110
100101100
100000110
1111111111000001
1111111110000010
1111111011000001
1111111011111100
1111111110000100
100100100
100010000
1111111111100010
1010001
1111111101010100
10000
1111111101010000
1111111110111010
1111111110010000
101001010
1111111110111000
11001101
100000010
1111111100001010
1010010
1111111111100110
1111111100111110
1111111010111001
1111111101101100
1101101
1111111010110010
1111111110010011
1111111110010001
1111111111001001
100110001
1111111111011011
100011111
1111111100111001
1111111100110110
1111111011000010
1111111011010100
1001011
1111111110100000
1111111111100101
1111111101110110
10101000
1110110
1111111011000101
101011010
1111111111110111
1110100
1111111110010101
1111111110010101
1111111100101101
1111110111011000
1111110110000000
1111111011101001
1111110111101001
1111111101000111
1111111000000110
1111111110100110
11111011
1111111111101100
1111111001010111
10011
1010010
1111
1111111110000110
1111111000110111
1111111011011100
1111111100000000
1111111110011111
1001
1111111110010101
11001101
1111111100010010
1111111011101000
1111111110010101
1111111111011101
1111111011001110
1110010000
111101011
1111111001000001
1111110011011001
1111111001000011
1111110010100111
1111110100111000
1111111000111010
1111101010011111
1111111011110000
1111111101010111
1011010
1111110110
10010001010
10011100
1111110111010101
1111110111001001
101100010
10011100
1000111111
1111111100010100
110110
1111111111010001
1111111110110010
1111111101110110
1111111111000101
1111111001111000
1111111011100111
11110110
100000111
1111110101100000
1111110011111101
1111110110011101
1111111011001100
1111110001001000
1111100011010011
1111101010110010
1111101010010001
1111101110101000
1111110111111010
1111111001010011
1111111110111111
11111101
1111111110101110
101001011
1010000001
101111011
1101100000
100101101
1111111111100111
1111111110011000
1111111001010111
1111110101011000
1111111010001100
1001011010
1000001100
1100100001
1011111100
1100100000
1100101000
1100101011
111101101
1111110100001100
1111110111110101
1111110110101111
1111110011001100
100000110
11111000
1111111110110010
1111111110111111
1111110011010000
1111111100001101
1110001001
1010010100
1111111101000101
1111110001110111
110110110
1001000
1111111000010010
1111111010001001
1111111111111000
1000011010
1101010110
1111111100110011
1011000010
1111111110101011
1111111101111110
11111
10000101001
1000001000
1111111001101111
1111111011111011
1100110101
101101110
11010000
11110110
110111010
10000101
1110001100
10000001111
10101010
1111111000110011
1111101000000000
1111101100001010
1111111001001111
1111111100100100
1111110110001101
1111111011001010
10101110
1111111010100000
1111111011000110
1111111000001011
1111110110010000
1111111011100011
1111111111101110
111000111
1010010100
1011000
1001000001
1001011111
10000111
101100
1111111111011110
1111111100011100
101011001
1000100111
1111111011110010
1111111110001011
1000010110
1111111101101110
1111110110011001
1111110110011110
1111110010111000
1101011
1111111000101000
1111111111010000
110110100
1111110100100111
1111110100111111
1111111110101101
1111111000100011
1111111101110101
1101010
1111111110100011
110111110
1111111111010101
1001110111
1111111111100100
1111111111000110
1111110111010000
10010111
1000001111
11010010
1111111101111010
1111110110110001
1101101
1111111011110001
1000101010
1111111100011110
1111110100000110
1111111011001001
11110
1111110101110011
101010001
1110111110
1111111110110000
1111110000000001
1111110011111000
1111111010111001
1111110101110010
110111
1111111101100010
1111111110101110
1111111111110000
1101000110
111111
1111110111001011
1111111011101010
111101
10010001
1100111
1111111010110001
1111111101100111
1111110111010100
1111111000001111
10100010
110001001
1111110110111111
1011010110
11011110
1111110010101000
1111101110000111
1001010100
1111111011101011
1111110110010011
1111111010111000
1111110100000000
1111110111101111
1111111000100111
1111110011111000
1111111111000011
1111111101100100
111111011
1111110111000111
1111110011000101
1111111110011110
10110110
101100001
11001111
1111111100110111
1111111110110001
1111101011000111
1111111111011011
1011101
1111101
1111111001111110
1010000001
1111111011001000
1111110001011101
1111111001110000
1111110000001111
1111111010111111
1111110000010000
1111110111010100
1111101100010001
10101011
10000
10111001
11010000
1111111001101000
1101010
1111110011100010
1111111000001100
1111111100011110
101000010
1110010
10110100
1111111001110011
1111111001001011
1111110011101011
1111110111111011
1011101100
100110110
1111111001001001
1111110111101001
1111111110110111
1100101
1111101111100101
1111111010010011
1111110000010010
1111101111010101
1111111001001110
1111111011110000
100011111
110010100
110111001
100010110
1110100
1111111010000000
1111111001100010
110001100
11111110
10011100
110000111
1111111110001110
10110000
1111111001111010
1111111110111000
111100100
10001010
1111110101101001
1111110000101000
1111110110000100
1111111010111011
1111111100001010
1111111100011101
1111110010101000
1111101111011101
1111110010100101
1111111001100100
1000001110
11110110
10010010101
1001101100
10010011
10101000
100010111
1000001001
10001110000
10000100010
11111111
1000111
1111111110110011
10100000
1111111101100100
1111110111100010
1111111011111100
1111111110001010
1111111011111000
1111111100000100
100011110
1111111110101011
1
1111110011011100
1111101111001101
1111110101001101
1111111100100000
1111111010010000
101111111
110100010
1011000
1111111111111101
10011001
111100011
1101110
111000111
10110110000
1100100101
11111
1111111100011010
1111111101010010
1111111100010100
1111111111111111
1111111101101100
10100111
1111111000000011
100010001
1111111101101011
1111111000111000
1111111101101110
11100001
1111110011100100
111100110
10001000010
100010010
1111111111101001
1111111101110111
1111111010010110
1111110001010110
1110000
1010110
1111111101100101
1111111001011101
1011010110
1100011001
1000100001
1100000010
1000111
1111111111111001
1111111001010000
100100100
101101111
10000111
1111111001011010
1111111101001001
1111111011100111
1011010
10101111
1111111100101101
1111110010111000
101101
10100001101
1000101101
1111111101011010
1111111001100100
1010010
1111110101001100
1111111001110010
11111111
1111110100001010
1000011001
1110101010
100011000
100100010
110000110
1111110101101010
1111111001110110
1111111010001001
1111111110010110
1111111010000100
1111111101111001
1111110100000011
1111110011110101
1111111010000000
1111111011010101
1111111100010010
1110111
1111111001001100
10011010
1010000111
1110101111
1111110110011000
1111111000101011
1111110100111100
1111111100110110
1111111010010010
1111110001110101
1111111101001010
101000110
10011001
1001000000
1111111101001010
1111110010011110
1111111101110100
1111111110110000
11011010
1111111100000101
1111110111101011
10110111
11110011
1111110000
101010001
1111111101110101
1111110111111111
11001010
1111110110101110
100111011
1111011100
1101111000
1111111111001110
1111111010011111
1111101111101011
1111101111001110
1111101011010110
1111110110111110
10010010
10000010
10000
1111111010110010
1111110011110101
1111101101001010
1111110111111101
10001000
10011000
1111111000111111
1111110000101100
1111111000011001
1000001111
10100010000
1100010001
1111110100101110
101010011
1111110110001011
1111111010101000
1111111111101111
1001101010
10010111
1111111110010011
1111111001011110
1111101101001001
1111111000010110
1111101100001101
1111111111110011
1001100010
101001001
1111111010111011
1111101001100110
1111100111000010
1111100110110110
1111110110010110
1111110110000000
1111111111000010
1111111000100001
1111110011010010
1111101111110010
1111110110011111
1110000010
1111111110110011
1111111111000001
1111111101110011
100111
1111110000011000
1111111001110110
1111111010001110
1111111101011000
1111101011000100
1111110001001100
1111101011110110
1111111000111100
1111111001011110
110000001
111010101
1110011
1111110011111100
1111011011101010
1111100001010101
1111100100111010
1111110001110111
1111110001111100
101011
1111111001010000
1111111100110001
1111110111000011
1111111011010110
1100001001
1111111001100110
1111111000011001
1111111101001011
1111111011011000
1010001
1111111100011111
1111110111000111
1111110110010100
1111101100100001
1111101101111001
1111111001111011
10000010
1111111101001010
10101000
1001110010
1111111101101000
1111101100011110
1111011110011000
1111101010000001
1111101001000111
1111110011000001
1111110110110010
1111111001101000
1111111010001100
1111111101010101
1101100
110
1000011000
1111111000101110
1111111111001101
100000001
1111111110010100
1111111011110111
1111110101000110
1111110010011101
1111110010000010
1111111100010001
11111001
10001000101
100101111
101111100
1000001000
10111010
1111111111011110
1111101100000000
1111101010011111
1111110010101000
1111111001111010
1111110000110010
1111110010111111
1111111110000110
101010101
1001111101
1010111101
100001110
1111111110011011
1111110110010100
1111111111001000
1111111100101001
10001110
1111111011111010
1111110101011101
1111110100111011
1111111010101100
1111111011001011
1111111110000100
1001100001
110010001
1000111101
1111111111110101
111101010
1111111100011111
1111101011111111
1111011111010111
1111100001011011
1111110000110010
1111101101010001
1111110010100100
11111001
110000111
100001110
100011111
1010111001
110111001
1111111100010111
10111111
10110010
1000101
1111111100001110
1111110100101010
110111100
11010111
1100001110
1111111100
1111111010
1001000010
110110010
1100110
10000
1110000
1111100110101101
1111010001110101
1111100100011011
1111110010101110
1111110110101010
1111100011111000
1111111111111101
1001011001
100010010
111111
1111111110000000
11011001
1111111011110110
10011100
1111111111000011
1111111110001011
100100110
1010111100
1111010110
1011101101
1111111100011010
110010101
101100001
1111011110
110100101
1001010001
1111111011101011
11011101
1111101100000011
1111100110001011
1111111100011100
1111111001010000
1111101001111101
1111101001011100
1111111
1000110
1111111111111110
100101001
1111111100000101
11011100
1111111100100001
10110011
10100100
1111111100000101
100110101
1000111
1101010001
111101011
1011111010
1110111111
101011111
1111111101111001
1111111010001011
10101111
1100010110
1101100010
1111111010101001
1111111011000001
1111111101011001
1111111000100111
1111111101001000
1111110110000010
1111101101100010
1111101011110101
1111101111100110
1010101010
11011111
1111010
1111111101100001
100010110
100111100
111
101011011
10010001
1000010
11101001
1100110111
10100010101
11011000111
111111101
1111110101111101
1111111001100010
10001000100
1111001001
1010011110
1000100111
1111111100011100
1000101001
1000101111
11101011
10010101
1111111111001110
11010011
10010000
100000110
1111111010111000
1111111100010011
1111111011101111
