101010111
100001101
1111111110001101
111100
1111111100101101
10010000
10101101
1111111101111000
1111111010111000
100001001
100001011
111
1111111100010110
1001010
1111111110000110
1111111101001101
110010
1111111110111101
100101010
1011101
101110
1010111
1111111101011000
100010110
1101100
1011010
100110
100000001
1111111101001100
10001010
1111111100001011
1111111110110010
101000111
1111111110010110
1111111111000000
1111111110111011
1111111111110101
1111111100110001
1111111000010101
1111111001101010
1111110110111101
10100101
10001001
1111111100101110
100000010
1111111100101000
1111111011001111
1111111000000111
1111111011011001
1111111111010101
1001011
101011001
11100110
1111111101101011
1111111101000110
1110001
1111111110110110
1111111100000000
1111111101010000
1111111111100101
1111111111001000
1111111100011111
1111110100001101
1111111001001001
1111101010110000
1111101110000101
1111101010100111
1111110111000011
1101011
1000110001
10010101
1010010001
10011001111
1010101011
10000101100
10101000011
1010000
1111111011100000
1111111101100010
1010011110
1111110011001100
11100111
10101101
100011000
1111111110110001
1111111100000001
11100110
1001100011
10000011100
1111111110001100
1111111111001010
1110000101
10010001110
100000011
1011101011
1001001110
1010001100
1011101001
1101010001
1011010110
101111010
1001101
100000010
100001
1011110
1111110010010100
1111101100101111
1111110111101011
10101101011
1111110110111110
1111111011100100
11101
1111111011001111
1111111101001011
10111010
11011011
1011001
11101001
11000110
1001001111
10101001010
10100110010
10101001101
1111100010
111111011
100011100
101001110
1111111101
1100101
10110100
111100101
11011011
1111111111101111
100001100
1111111010011111
1111101011101110
110011111
111111111
11011100000
1111111010001010
1111111110001111
100001000
10001100
10000010010
1001101000
11101001010
10001110000
1110011000
1111111100001110
1111111110001010
11110001
1111111110101100
110111100
1111001
100000000
110110000
101010010
100110011
1001101000
111000110
1101000010
1111111101010000
10110100
111100101
1111111100000100
1100111101
10101101111
1111111101110101
1111111100011000
1000101111
1111100110111000
1111111100110110
1111110110110101
1001100011
11110100
1101100
10101111
1011010
1000000
1111111101101110
1111111111000011
110111001
110011000
100011011
110000000
1010101001
10010111
1000111001
1000000110
1111111001101011
1111111010001000
100100010
1100010001
100010000011
100011100100
10000111111
100101111
1011111101
1111110000111110
1111110101111100
1111110111101000
1111111111110101
1111111111100011
1111111101001100
1111111110000101
10110010
10000110
101101
1111111110001001
1111111100100111
1110001001
1100011000
1010000100
1011111010
11100101
111100101
110010110
1111111110010001
1111111111111111
1100000000
1100011010
10100100010
10111101100
110111001
1111111011100001
1000100100
1111111110101010
1111101011001010
1111110111100101
100100
1111111101110001
1111111101010001
1111111101010110
110010
111010100
101001000
110100001
101001001
10111110
110101
1111111100000010
1111111010000100
1111111100001010
1111111010111010
111010
1111111101100100
1111010001
1110001100
101111110
1110111001
10101001101
10010001
1111111010111101
10010100
1111010010000100
1111101010011101
1010101
110010011
101000100
1000010
110101001
1110001
1111111110101001
1111011
1010001
1111111011111000
100011100
1111111100001000
1111110100011010
1111110110011010
1111110101000010
1111101111011110
1111101110110010
1111111010100001
11100001
1111111110000011
11100101
10100100011
1010011001
1111111100111010
1111111001101100
1111110101010011
1111011001010111
1001
1111111100000010
1111111100111011
1111111100101011
11001101
111100
1011
1111111100110101
1111110111100101
1111111001001000
11100010
1101110110
1111111001010010
1111111111001101
1000001
1111111101101011
1111111000000101
1111110110011111
1111110001111001
1111110000001011
1111101000000111
1111010000110111
1111111001111111
100111
10111
1111111010011000
1111110000101100
1111011110111010
110101000
1001101110
1111110101101001
1111110011000010
1111110101001011
1111111100010001
1111111011100011
1111111100110110
1111111010100010
1111001001
1101100101
10011100011
1100001000
10011010
1011010100
10000001000
1111111101011101
1111111111111001
1111110101101010
1111101010101100
1111011010110101
1111010110111110
1111111000111011
1111111101011010
1111111111011101
1111111010101111
1111100100001111
1111011110100111
1111111000110000
1111110110101101
1111110100101111
1111110100011100
1111111110001011
1111111110101101
1111111110101110
100000010
11101001
1000110011
1111110011
1110110111
1010010000
100101111
110101011
1010001011
1111111101111000
1111111001100111
1111110101110111
1111110110100000
1111100010101011
1111011001010111
1111110101000001
11011001
1111111001011100
1111111110001110
1111101110101010
1111100111111111
1111111111101001
1111101111101010
1111111110010110
1111110100011100
100001111
11111001
10010010
1111111110100101
1111
10001010
1011101101
1011111101
101110100
101101
10010011
10101101
1111111001010111
1111111001101110
10001010
1111110100011101
1011
1111111100011000
1111111010100111
1111110001001001
1111110011101111
1000011100
1111111011011101
1111101111010110
1111111101101011
1111101110100100
1111011101101010
1111100111101110
1111110011100101
1111111100011001
1111110011010111
1111111000011100
1111111011100010
100100110
111011011
1101010110
10110000
1111111110100111
1111111101101001
1111111101010000
1111111100110011
111001111
101011001
11110101
110110001
1111111101010001
1111111111111001
1111100011101100
1111110110101001
11010110
1000111011
10010010100
1111110101101111
1111110010100001
1111100100001111
1111100110011010
1111010110000100
1111100000110001
1111100011111111
1111101010010111
1111110101010010
1111111001110101
1111111111100001
11010111
1111111111100000
1111111110001101
1111111010101111
1101001
101110110
1101011011
1111010110
1110011010
100010111
1011010000
100010000
1011001001
1111111001000100
1111110010001011
1011100111
10000101110
1111111110111111
1000000
1111111000111100
1111101100100110
1111100000101101
1111010101000111
1111011001101000
1111100011011100
1111011000010011
1111100101101111
1111110110011000
1111111010111010
1111111111011000
1111111010100111
100011
1001100110
1100011000
1011001100
10000011101
1010100001
1111111101101100
10011111001
1111110000101001
1111101011101110
1111111101110101
11001001
1111010110
11011111
1101110010
1001011110
1111111111111011
1111111010011010
1111111000010011
1111110001111100
1111010111111101
1111010001101011
1111001001111111
1111010001111100
1111100000111111
1111101010111011
1111110100110101
100100
1111010111
11100000
1111010110
1101000011
10001001100
10100011
1111111100110100
110101010
1111101001000101
1111101000110100
1111110100010100
11000101
1101000001
1000110101
11101001001
11000001100
1111101100
1100000000
11001010
111101
1111111010101010
1111101010111111
1111101111111100
1111100010011000
1111101110000011
1111111001000111
1111111100010100
1001111110
110110100
1111111101110110
1001010100
10101000
1100000010
1111111010001011
1010011
101101010
1111110000100100
1111101011010111
1111110100101111
1111111100100010
1111110100011000
1111111110001011
10111000111
11011001110
11001010010
10110010100
1010100101
1000111000
101110010
1111101011
1101011101
1111111111001110
1111111000101001
1111111100101010
1111111010111100
1111111101010101
100000100
100101111
1111111010001010
10111101
1111111111001110
1111111110101011
11000100011
10100110110
1111111101101110
1111100101011001
1111110111011010
1111111101001101
1111111000111100
1111110101011100
111011001
10000100011
10011001010
10011000110
111001100
10000011011
10111001110
1110001100
1101011010
1010010101
1101011
11101100
1111111101110110
1100101
1111111101110001
100100110
10001101
101010101
1111111100001110
101100001
101011000
1101011101
1111110011101010
1111100101111111
1111111101010010
1111110111111110
1111111010001011
1111110111001011
11100000
1101000010
1000001000
1100000100
1100011101
1000010101
110000101
1111111110100000
10101101
111101110
1000110001
100100100
1111111100111010
1111111001011011
1111111111011010
111101
110001100
100101101
1111111010111100
1111111011111100
1111110110111011
1111111000011001
1111100100011110
1111101100001111
1111111010000111
1111111111000000
100010001
1111111111001100
1111111101011111
1111111100011011
1111110110011110
1111111100111110
1111110111000110
1111111110001101
1111111011110011
1111111101000010
11000011
1111111011110000
1111111111100101
10101001
10010100
101111111
1011110
1111111111110110
101110111
111010110
1111111111001001
1111111111110110
1111111110100000
1111100010101110
1111101001000011
1110000
1111111100101110
1111111101010000
10001100
11100010010
10010000111
110011111
1111111101010000
1111110001111111
1111111000110101
1111110101110000
1111111100110010
1111111100011110
100110110
1111111100101111
101100
1111111101010000
111011
101100
10100111
1101011
1111111011000111
10100101
1111110111101011
1111101111101000
1111100100011000
1111110000000010
1111100100000100
10100101
1111111110000000
1110000
1111111101001010
1111110011101001
11000000110
101101011
1111111110111011
1010101000
1011000000
1100001
1111111101110001
1111111101100111
1111111000010100
1111111110001000
1111110111000110
1111111010100111
1111111011101111
100101011
1111111011011101
1111110111110101
1111101101111100
1111101011010100
1111100011101011
1111100001011101
1111101010010001
1111101110000110
10001111
10001111
101001001
1111111111001010
100101011
100111110
1111110010010001
111101
1001110000
1110110111
10010010001
111110010
10001101010
1111011010
100010110
1100111
11111111
1111111011011110
1111111110001111
1111110111111110
1111101011011110
1111101110010001
1111100001010010
1111101000111111
1111110011110001
1111101101011011
1111101011111100
1111111011011001
101
1111111111001000
11110001
1111111010111001
10111001
1111
1010101001
1010111010
10010011001
111011110
1111111110001110
1111101110001110
10001000100
11101010111
1100100011
1110110
1111110110001100
1111110100111011
1111111011110110
1111110010001010
1111110100010101
1111111011110100
1111100010101101
1111110001100100
1111111001011111
1111111000011010
110000010
100100110
101001001
1111111110010001
1111111011011100
1111111011110000
100100000
1111111010110110
11000110
1000000
1111111011001010
100000
1111111011011011
1111110110011100
1111100111010001
1111101010110101
1111100010110100
1111100101010101
1111100110011000
1111011010011011
110001100
110011111
1111111111001001
1111110101011111
1111111010111000
1111111000101001
111100
1111111110000100
1111111101011000
100010001
111101
100110010
1111111100101110
