1111111100
1111111111101011
1110
10111000101
1100010011
110110110
101000101000
1001000011
101100110
1111100111101111
1111101110
10001110001
1111110000011111
11010111010
1111111110011010
1111101010000100
1111010110011101
1111011100000001
1010010100
1101010110
1111101111011101
1111111100000110
1111101010111010
100110100
1111110101101001
1111111001011111
11000111001
101111
1001011111
1101101000
