10001010110
1111101110101110
1111100000100011
11101111100
1111100000101001
1111111110100011
1111111111111000
1111111001011000
1011
1111110011110100
1011100100
1100110000
100010100111
1111111110011100
1111111001010011
1101101101
1111110001101001
10000011101
1111110011100110
11011011
10000111110
1001111110
1111110100011001
1100111010
101001101000
1111111010011110
1111100111001111
1111111001111100
1111100011010111
110100101
