1000000000
1111100100011001
10110111110
11100110110
1111010011111010
1111100110
1111101101101101
11110111001
10000111110
110001101
1111101111000100
1111100100100011
1111011010110000
1111101101010111
1001011111
1111110000110000
110101
100100100001
1100001101
1111111000110100
11111111
1111000100
110001
1111011111110011
1111101100110011
1110010100
1111101110010001
11000111011
1111101001101001
1111110100100000
