1111010000011000
1111011111001101
100001110000
111110111
1111111011101101
1111111010001111
1011011010
100000101000
1111101101000110
1111111100010110
100101101
1111110011101000
1111111101001000
1111110101
1011110
1111111000000101
11010001110
1111000011100100
1111111101001100
1111100000001001
1000000110
11001001111
10000110
1111100001001000
11011000110
1000000010
10110111000
11011110
1111110000010110
1000011110
