101101111101
1111100010001000
10101010011
1111111000011011
1111100110101011
1111111111101101
11100100101
1111111111110111
10111000111
11000000011
11101011110
1001100
101110001101
101101100
11001000001
1111010001000001
11100001011
111001101
11100101111
1111111110101101
1111101000010010
1111011010011100
10100010111
1111110110100001
1111111010110101
1111110110000000
100101001
1011000100
100110011011
1000001
