1110
1100101
100100100
1111111010110000
1111111100110010
1101001
1111111100101111
1100101
1111111110001011
1111111110001011
1111111101000100
1110101
1011111101
1010011111
1100011
11001110
1111
101010010
1111111011100001
1111111100100001
11010
1100110
1111111111100100
11000011
1111111010110100
1111111110001110
1111111011100001
101011101
11110000
1111111011101110
1111111111010101
1111111010110110
1101000
11101110
1100011010
1010001100
1000110001
10010011011
1010000111
11001011011
11010111101
11100001001
10111010110
1011101010
10000101111
1101110101
10101000001
10001000000
11011010100
1100010101
1011001100
1001110100
10000110
101001011
1111111100001101
1111111111011000
1111
1111111110111010
1111111110001000
10111001
1001111010
1001110110
1100001100
1101000011
1111111100110100
1111101011110100
1111110101111000
1110100
1111011
1111111010110100
101000011
100101100
10000001000
1110001100
1011001100
10011011010
1010100011
1001001101
1111001001
1111111011
1111111011001010
1111110111010001
11110
1111111101011100
1111111100101001
10001100
1111110010111111
1111111110100100
100010000
1011111001
11101111
111110000
1111111010110100
1111110110001010
1111101111101110
1111111000011110
1111110011000011
1010001
1111111101101011
1111110100110110
1111111100011011
1111111100001000
110001011
1001001001
1111111011111010
1000111011
1111111111000001
101111001
1110101010
10110110
1011011100
10000110
1111111101000001
101111110
1111110000100011
1111111000010101
1111111010100100
1111111101101010
1111110100100000
1111110010110110
1111100110011010
1111110011101001
1111110101111010
1111110111111111
1111110101010101
1111111100100000
1111110100101100
1111111011011111
1111111010000001
10000001
101100110
11011010
100101010
10011010000
101100100
1011001000
1110001100
1111101100
11010011100
111110
1111111101001000
1111111011101000
1111110100110011
11001
1111101100000001
110001
1111110000101110
1111111101100010
1111111111011111
1111110111011110
10001100
1111111001001010
1111111100111001
1111111001110101
1111111010110011
1111111111111011
111011111
101000110
11101111
11101
1011011100
1100110011
111000101
10001110100
1010101000
1111111010101011
10001001110
111001011
100011001
1111111100000100
110101000
1111101101101110
1111101111011010
1111111011111010
1111110011000100
1111111111100010
1111110101010100
1111110001100101
1111111010000110
1111110111111011
11001000
1111111110010001
101100110
1000001001
11100011
100111111
100111111
1011010011
10000010101
110111
111110101
101001001
10101111000
100011111001
10111000101
10110010
1111111110010111
1111111000010100
1111111111000000
1111101001010110
1111101011000101
1111111100010111
1111101110000101
1111111111001011
10110101
110100100
111000011
11010000
1111111101001000
1111111100001010
10000011
111111110
111111001
1110000001
10010010001
10011110110
10101000100
1100001111
1010011000
110001100
101100110
1001011011
10011111001
100010101
100101001
1101110
1111110011001010
1111110001100011
1111110001111111
1111110000000010
1111111110011111
10111111
1111111100000100
110011
11010
11111100
11010111
1110001
1111111101111000
1111111101111110
1111111110101000
1001001100
1100000110
10011101011
1011000111
10011000101
1101100000
10101001010
1111111111111011
1111111001110110
100111101
10000101011
1111111110010000
1111111101111111
1111110011011000
1111110101110100
110010001
1111110101110011
1111110111000111
1111111010100011
1111110110011111
1111111100000110
1111111101000001
1111111111011101
1111111101111111
1111101101000111
1111110000010110
1111101001000101
1111101010111010
1111100111011110
1111101111111110
1111100111110011
1111101101001100
1111110101001110
1111101110011101
1111011101111110
1111110010100100
1111111011000110
1101011
1010010011
1111111111000110
1011100
1111110100001111
1111111101111101
100110101
1111111001100011
1111110101100101
1111110100111100
1111111010100001
1111111100110001
1111111011001110
1111111101110110
1111110101000010
1111110001110100
1111100110001000
1111101001101010
1111011001001101
1111000110011101
1111000000000000
1111000000000000
1111000000000000
1111001001000101
1111000000000000
1111000111101101
1111011010011001
1111100000111111
10000010001
1010101101
1111111101011111
1111111010011001
1111111100100100
1010100
1111111011101011
1111111010010001
11110001
1111111001011100
1111111011111110
1111111110011101
1111111011001101
1111111001000000
1111111010001110
1111111101110111
1111110111100101
1111111010001000
1111110010010011
1111110011001010
1111101011100100
1111100100100001
1111010100110001
1111001110010010
1111000000000000
1111001010000011
1111010000101010
1111101001000111
1111100
101100
1111111100111111
110010
1111111101000111
100110001
1111110010011110
1111110101010011
1111111010110100
1111110101101010
100010000
1111111111010010
1111111110000110
100011100
1111111111010111
11110101
1111100
1111111100000011
1111111110000011
1011010100
110100101
1111111001011100
1111110010101111
1111101010100011
1111101010000101
1111100011100110
1111100100111001
1111111000101110
1111111100101111
10011011
100001000
11010000
1111111010100111
10000100111
1111111000110011
1111111010001011
100010101
1111111100110000
1111111010001101
1111111001110101
11101011
1111111011000101
101110011
1111111110100011
10011010
110010111
1111111111101010
110001100
110110111
110101100
1100110110
1111111011111000
1111111011001000
1111110100000001
100111
1111110010111010
1111110111101011
1111111101001001
1101010101
1111111010100111
1111111011110101
1111111000010001
101011010
1111111000000100
1010011001
1010000001
1100010
1111111101010100
110001110
110010110
1111111100001010
1111111111001101
1111111111011011
1111111111100011
100100010
10110
100111101
1111111111101001
10000011000
10101110
1111111110101101
101101001
1111111111000001
1111111011010110
1111110001110011
1111111101101001
111011111
1111111011010011
100000110
1111111111001010
1111111010000000
1110
1001011111
11010110
11101001
11111000
1000001110
1111111011101100
101001110
1111111010000001
1111111101010101
1110101
1111111110011001
110011011
1001010011
10000010
1000110010
11010111
1011010
1111111011110000
1111111011001100
1111111101010001
1111110011000111
1111111111000101
10011000
1111111100010001
1111111011001111
1101100
1111110111001111
1110011
1111110100001100
11001111
1111111100000000
1111111001111011
1111111101101111
1111111110001001
1110000
1111111110001101
11110011
101110100
111011100
110000001
10001101
1111111111010000
1010110101
1111111010110011
1000010111
1111110111110011
1001011
1111110100101111
1111100000011110
1111111001010101
1111111100111010
1111111101110011
1111111110010001
11011001010
100001101
1111111011110001
101101000
10000101
1000011
1111111101100001
1010011001
1111111101101111
1111111101101100
11000
1111111100100010
101001111
110011001
110101001
111011000
1000100
1000010000
100000100
100100010
11001111
111011010
1111110111000011
1111111001110111
101001001
1111111101010010
1111111110001101
1111111001000000
10001000101
10101001010
1111111110010110
110110101
1110101000
1111111111000000
11000
101101011
1111111101100000
1000000000
1111111110100100
111000
101000001
110101110
10111101
110001101
10101100
1001011001
1111111111011010
1111111111010100
1111111001110101
1111111010011001
1111110100011101
1111111101110001
1111110101100000
1111111101000000
1111111111101010
10111101
11110011
111110011
1111111111001111
1111111101110001
1111111011001011
10110100
1111111110001011
1111111101100011
111101
1111100101
111000
11001011
101010001
111010010
110100111
11001111
1111111111010101
1111111111010000
1000110001
111010100
100010100
100011000
1111111111111011
1111110101011001
1111111001111101
1100010
1111111001100000
110000010
11000011
10000110001
100100
1101100
1111111001100001
1111111111010010
1111111011101011
101011101
1111001
1111111010010111
11011
100010100
1010111000
1111111110011110
101110111
101001001
1001100011
110
1110010111
1011001010
1001000011
111010100
1010110100
1111110110110110
1111111111001100
10100100
1111111011010011
1111101101101010
1111111110110101
1010001111
1011100011
1111111101101100
11000000
1111111011110001
1000100001
100101000
1001010110
1000111010
1010100010
111000001
1000100000
1000001001
11111110
110101101
1101011
110011101
100111101
1101001111
110100101
1110101000
1001101010
1011010011
1111111111001000
10101101
100000
1111110010011001
1111110111010011
1011111011
1111111100011010
1111111011100111
1111111000110100
1111111001011100
11111110
1000100110
1111111101111010
1010011110
1000101101
1000010011
111010000
1001111111
11010101
1111111101010010
1000011
1111111110101110
1111111001000010
1111110100110010
111011001
11000001
11011
10110110
1111111011110001
1111111111010111
1111111010110111
1111111111110111
1111111101000100
100111011
100100001
110100111
1111110110101101
10110000
1111111111000010
101000110
1111111000011001
10111
1111111111000001
1101100
11011100
10010
1111111010110010
1111111011011001
1111111110101110
1001001011
1111111001011110
1111110111110110
1111111000000100
1111110111110100
1111111010000111
1111000
1111111010110010
100001111
101010000
1111111100110101
10001111
1111111000100100
1111111101101001
101100011
1111111110101110
1111111100100010
11100010
10011110
1111111010111101
1111111100000101
1111111100001010
1111111111110001
10111101
111000
1111111011100010
111101010
1111110100001101
1010111110
1111110100100001
1111111101110000
1001
1011110
1111111011111011
110100
100011111
1111111110011000
11101001
100101001
1011111000
1111111011100101
1111110100111111
1111111011000001
100000001
10001110
1100100011
100001110
111010111
10000101111
1011001101
1111111101010101
1111111010000110
111111000
1011100101
1110111101
11101010011
10011110111
11001111110
11110100010
11011110111
1010111001
10010010
1111111100100001
1111111111100000
10011000
1111111110000110
1111111110001101
101100100
1111111111000110
101001
11101011
1011010101
11010111
1110000110
1110010110
1010101110
1111111011011001
1111010101
100110100
1001110110
1101111101
10000011010
1011110011
1001111110
1110100110
1101100110
10011111010
10000000001
11001011
110001
11010000
10011110
1111111111110111
1111111111001011
10101101
100000010
1100100
1111111110110101
1111111111111011
1111111011100111
10111110
1111111110110100
1111111101101100
11101
100110
1111111011000110
1111111101110110
1111111100010100
10010110
110110
10011100
1001101
1111111011010101
100111100
100001100
101011011
1111111101100100
1111111011011000
1111111110010110
11011000
