1111111011100011
11110100
1111111010101110
1111111101011100
1111111101101101
101010010
1111111110111100
1001110
1111111101110111
1111111011010011
1111111111000000
101011010
1111111011000111
1111110100101010
1111111111001100
1111111111011100
1111111010101011
10010011
1111111011111100
1001101
1111111101110010
111100
1111111110000111
1111111010110110
1010010
100010101
1111111111000010
11100101
1111111111100111
10101011
1111111110010010
1111111111001111
1111101
1111111000100110
1111110111111110
1111110100101010
1111110001011101
1111110111111001
1111111001100001
1111111000011101
1111101010011111
1111111001101011
1011011100
1111100001101001
1111101001110010
1111101111110111
1111101111110101
1111101111100001
1111100011101000
1111101111001110
1111110101011110
1111101011001111
1111111100011100
1111111110011011
1111111111000010
10011101
1111111101000011
1011000
10100001
1111111000011000
1111110011111111
1111110011110010
1111110101010111
1111101010011001
1111101011011001
1111100110011000
1111011110110100
1111001100111001
1111101000111101
1111110011100010
1111111000001000
1111101111101101
1111110101011101
1001
1111110101011111
1111110000111110
1111110000110111
1111110001000010
1111110001000000
1111100100110000
1111101110001001
1111101101110000
1111111010111100
1000000
100110100
11010001
1111111110011010
1111110000110001
1100011
10100
1111110011100000
1111111101110100
1111111010011100
1111100101010111
1111101011010000
1111101101011110
1111101110011100
1111101010000001
1111110011101001
1111111111110100
1111110110010111
1111111011101000
111100110
110101011
1011000110
1010100101
1001110001
1111101110001100
1111101100100010
1111110100011100
1111111110000001
1111000
1111111101011101
1111111111100011
1111111100101010
10100100100
1010111011
101011100
1111111110001010
1111111011111101
1111111000001111
1111110101011001
1111111101000100
11010100
101
1111111000000100
1111101111011001
1111110011101000
1111111101011101
111100
1000000000
110001101
111110001
1101011001
10000101110
1110100001
10110100100
1111001011
11001000
1111111001111101
1010000
1111111100010000
1111110100101011
1111100100
1100110
101101000
110000000
1100001101
10010110100
10101110110
1111011001
1001110010
11010110
1111111000111111
1111111100101001
1111111110000101
101010100
100001010
1111111100001110
1111111110001110
101001001
1111111010100000
11110101
1111111101001111
1111111011110000
101101000
1111111001100110
1111111000010111
10001000
1111111001111111
1011100000
1111110100111000
1111111001111101
10010111001
10110001001
1011001100
10101101110
10000001100
1001101001
1000000
111000
1111111010100110
101100000
1000001
1110
1001100111
1111111010010100
10000001
1100100101
1111
1101111001
10100000000
110100101
1100101
11000001011
1111111001001011
11110010
1111111000111000
10011100
1111111010000001
1111110000001111
1000110110
1111111110010000
110001100
1110001100
111010101
101011100
11010110
11101100
1111111111101011
1111111111001000
1011001011
100110011
1011111010
11111011
110010010
1011000
10001000
1101101110
10010101110
1110010
1010111
111011111
1111110110010101
1111101100111110
1111101000011110
1110010001
110111011
1111111010110011
101101
10101110
1111111011011010
1111111010010000
111001110
100001101
1011001001
110111101
1111111110011010
1111111101001101
11001010
1101101000
101100110
1010011000
1111111110011110
1010101110
1000000000
110010001
110000011
1110111011
11000101000
1111111101000001
1111111100001001
1111011
1111110111111000
10100010100
10001110
1111110100011111
1111111101001101
1111111001100111
1111111011101101
111111000
1100111
111
1010110001
101011110
1111111110100101
1111111110011001
1111111101010011
1100010011
101111110
100000000
11001101
1011100
1001101000
10111100
1100110100
10100000010
11001110111
1000011110
1111111001110100
1011110
1111111101000001
1111111111011100
101000011
1111111111011110
1111110001011111
1111111000111010
10100100
1101
1111111111101110
100100010
10110110
11010
1111101111111011
1111110010010001
1111111110001101
1111111100000001
110100001
1111111101011001
10000101
1111111100011000
1111110101100101
10111010
1111111111110001
10100001110
11100001111
1011001010
1111110001100011
1011101110
1111101101011101
1111110011101011
1011000
1111111010000001
1111101010101000
1111111101001111
1111110111110111
111100
101011101
110100011
1111111110011111
1111111010101010
1111101100001010
1111110001001011
1111110100011110
11110
1111111101011000
1111110111111001
1111110101001001
1111110001010100
1111110110110110
1111111101000111
1111110011110010
1111111010011001
1000000010
1111111111000100
1111111010100001
111000110
1111111011101111
1111111111010110
1111111101000101
1111101110000100
1111110011010100
10000101
1111111111011000
1111111111111110
1111111111101001
10011101010
1001010011
1110101
1111111111101101
1111101111011101
1111110011111011
1111110000001101
1111111001010010
1111111110011000
1111111001011110
1111111111001100
11110000
1111110010111111
1111110000111001
1111101001110000
1111101111011111
11111
1111101101111110
1111111100100011
111000
1111101101111111
1111110101101001
1111110111100010
1111110101000110
1100011
10000111000
1000000010
1111110001
1011110001
1111110010
1110111000
1100011100
1111111000000111
1111111000000110
1111110100011110
1111111001101010
1111111010110111
100010111
10011001
1111111111111011
1110101
1111110110011011
1111111001100011
1111111101101011
1111111011101101
1111110101101001
1110111110
1111111100101111
1111110100111000
1111110010000010
111110010
111001001
100011100
1010001110
10000101010
10001100101
1010001001
1001011001
1100000100
1011111001
11011100
1111111111100111
1111111101111101
1111101000
100011010
1000110001
1111111110011100
1111110101100001
1111111001010111
1111111100010101
1111000110
1111111010011101
1111110101011101
1111101110010010
1010101100
1001010010
1111101000
10011010
10110000011
11000100
110110111
1011101000
10011101001
1010011110
1010010100
1011010000
110000101
101101010
1000001110
101111110
110000011
1010010101
10001111
1111111100011000
100000
1111111001100110
10110110
10010010000
11011001
1111111011100111
100011010
1111100011101010
10011001
100110011
1010011101
1011000
1100001110
1000000010
1001100111
1011011011
1110111100
10000110011
110111001
1001001010
10001000010
1110101101
1001101101
10011100111
101001101
11011111
1110000
1111111100001000
10101
1111110110001101
1001111
1111110100
111000100
1111111101110010
1111111100110000
1111100000101101
11001001
1011111010
1000000101
1111110001111101
1111110110010010
1111001100
1000100001
1011101110
111011100
1111011111
10000110100
110111110
10001111011
110100010
11010100
111011110
111000110
1000011100
10011100
1111111010111000
1111111010100101
1111111111011000
1010111
10010000
101001101
1111111110111011
1001100101
1111101101100100
1111101110001101
10111
101100101
1111110101000101
1111111000100011
101011010
1111111101110101
10011
1111111000100100
1111111110110100
11001110
111000011
110100010
1011111
1111110110110111
111001
1101001010
1111110111000000
1111110110100000
1100110
110101
1111111100101111
1111111100111011
1101111
1111111110010010
1111110100011010
101010101
1111101100011010
1111111000010101
101101000
1000001010
1010011110
1111111011101100
111000011
1111111010001110
1111110101011010
1111111000110001
1111110011000100
1111101101001000
1111110101111101
1111110110100101
1111111001111000
1111111000111011
1011001
100010000
11110111
10010000
10001
1010100100
11110111
1111111100111110
100001001
100010110
1111110110111010
1111011011010000
1111111000110110
1111111101011110
1101100000
1001001010
1000001
1111111010110000
1111110110000111
1111111001010001
1111101111000000
1111111000010001
1111111001000111
1111110001101100
1111110001110001
1111110001110100
1111110001010000
1111110011001110
1111110110000101
1000111000
10000111100
1011010101
111001110
1011010
1000010
1011000001
111010110
11110010
1111000111
1111110001111100
11110
1111111110100011
1111111001101011
101110110
10101011
101010001
1111110101111000
1111110001100110
1111110111010110
1111110011100010
1111110100001000
1111101010110010
1111110010111111
1111110111000111
1111110011111111
1111110100110111
100001
11001001
101111000
10001011
1000000110
1010001101
111011011
1000110010
10001101100
1010001110
1000000111
1111110011011101
1111111101001101
1111111100110111
1111111111101101
1111111000000110
101011010
1000101101
1111110111100010
1111111001110010
1111110110001001
1111110010011111
1111101101101111
1111110000100101
1111111011111111
1111111101101110
1111110110100010
1111111010110011
1111111100000011
1111111101000001
100100111
100100010
1011011100
100011010
1010100000
1011111000
11001011111
1100000101
1111111111100110
110000
1111111010110110
1110100
1001000
1111111110100010
10110011001
100100111
111101010
1011100110
1101001010
110011111
10110101
1010001000
10110111
1111111101011000
101101010
1010001100
1111111110011000
100010110
1111111100110011
1101000001
1100010010
11010000
111111111
11011011
111010110
1110100000
1100100111
1010100010
1111111100101001
1111111100100010
1111111101000101
1111111010110111
10100011100
1011111000
1111111100000101
1111111111010100
1010000100
1010110101
101110111
1001001110
11001001001
10110111000
11011000001
10001101000
10100101
1101001
100101101
1010000000
110100
1110101011
1101110010
100011
10100100
1111111100101111
1111110000011001
1111110100011000
1111111111111001
100111101
110111
111010101
1111111100111110
1111110010001011
1111110000100011
1111101010111101
1111101000010110
1111110100011000
1111111011010000
1111111110101100
110110011
1111111011001110
11110011
1111111100000111
1111111110100110
10
11011000
1110110
1111111010111011
100111
10101101
110101101
10001111100
10010001010
1111111000010101
1111111001001110
100000011
100111110
100101101
11000
1111111010010000
1101110011
1111111101011000
110110000
1111111111001000
1111111001111001
1111110011001111
1111111010110100
1111111101011100
1001001110
1111111000111001
1111101111100111
110010100
1001111111
1111111010000101
1111110001010101
1111110011010000
1111110110101110
1111110110001001
1111110001011110
1111111100001010
1111110011101001
1111111101000110
1101001
1111111111010000
1111111011101011
11001000
1111111100110000
100101011
10011011
1111111011101101
1111111110010101
1111111000110000
1111110100010011
1111101110110000
10100011
11000111
1111110110100110
1111111000111110
1111111100000111
1010
1111110000110111
1111101100001011
1111111010101110
1111111111100110
1011101001
1111110110001001
1111110001101000
1111110110011111
1111111110011111
1111111011010011
11000111
1111111101010001
