11000100
1111111010101100
10110110
1111111100110011
1111111111000001
1111111110110100
1111111110011011
1111111101010010
1111111111001101
1111111101001000
1001110
110
1111111110101101
1111111011000110
1111111110001101
1111111110010110
1111111100110110
1111111011111111
1111111100101010
1111111100110110
1111111100101100
1111111110011000
11000110
11101011
100111101
100001001
1001001
1111111111110110
1111111010100010
1100001
1111111
1111111110001010
1111111001111001
1111111110110010
1000110
1100001100
11011
1111111110001110
1111111100100100
1111110111110010
1111111110010000
1010101001
10011110100
1110111110
10010101111
1010011010
111000011
1111111011111101
1111110111011100
11010101
111010110
10000010000
1111111011111100
1111111011010111
10000110
101000000
10111001
10110000
1111111011111000
101010000
1011111110
100000100
10100010
1011111010
10110110011
11010000011
11001010110
1011111
1000000100
111110001
100111111
1111111011111000
1111110001101111
1111100111011001
1111110101110001
1111111000011001
1111111010001101
10000000
101000111
1100110001
100010101
100011100
100011
101110
100110100
10100100
10001001110
1001000011
1111100110
1111111010100111
1111111101100000
1111111010101111
1111111101110110
1011001011
1111111011110110
11101010
1001111011
1001001
1111110101101100
1111011011010100
1111010101001010
1111011111000011
1111011101100010
1111100110101110
1111110000010100
1111110111000111
1111111101011111
10000011
1001001110
1001000100
1111111110101011
1111111110111001
1111111111010111
1111111101111001
1101011001
100000111
10001100
1001100101
100101011
111011001
11100011011
1111111101100111
1111111101100010
1000110001
1011011010
10001111000
1111110010010011
1111110000010101
1111101010001000
1111011011100000
1111011001100000
1111100011101110
1111100101111000
1111101110001110
1111101010000010
1111111011101000
1111111100001010
1111111110011100
1111111110000100
1111111110101111
1111111011000001
1111111111011000
11010100
1100000100
10101110011
1101100010
1110001000
1110110000
10011110101
100110110
1110011111
1111101100
1001010010
1010111100
1111111111010101
1111111101110111
1111101101000110
1111100011011000
1111101110101101
1111101001000011
1111011111101001
1111100001100100
1111101000111011
1111110001100011
1000110
110010101
101011111
101110111
110111
101101011
1010101
10101100010
10101110111
1111111101000011
111010100
101100010
10000101111
1100101010
1010001111
111110010
10001111100
1011101101
1110101111
1011111
110101001
1111111101110010
1111110010001101
1111100001010111
1111100010000010
1111110001101111
1111010000111001
1111011000010110
1111100110001010
1111110001100100
1111111100111000
1111110101101001
10111110
10101111011
10011111011
100011111100
1111011100
1111110111001110
100011001
1111111111010111
10100110
11101110
11
1110
110000000
1110101110
1110001110
1101010011
1000001100
100111010
1111110010000010
1111101010101001
1111110101101110
1111101111001111
1111100000001001
1111010001000010
1111101111000010
1111101011001101
1111111000100110
1111110110010111
100101011
10011111100
10101110010
111111101
1010000101
110101100
1111101
101000010
100001101
1111111010110110
110110
1111111111111001
11011011
111010111
10011000110
1111110111
11110010
1111111100010101
1111110111001011
1111110000000110
1111101011110110
1111110001110001
1111101100110001
1111100001110001
1111100111001000
1111111010101011
11111011
1111110101101100
1011110000
10010000111
110100100
1101010001
11000110100
1010011100
1111111001111010
1111111100100111
1111111000100110
1110011
10100110
100001
100011001
111011000
11001111011
11000000100
11011101
1111111101100111
1111110000111010
1111101010101100
1111100110111000
1111101010001110
1111110101110010
1111100011011011
1111110101100001
1110100111
10010110011
1110000000
1100000100
11100110011
1111111110
1110
1001011101
110010100
1000111111
11010
1111111011010110
11000010
1111111101010100
1111111010000011
1111111100011101
1100111110
10001011101
101010111
11111000
1111111010110010
1111111101001100
1111110100100110
1111100110011101
1111101010010001
1111110000110100
1111111001011111
1111110101100100
110101101
1111011010
10011010100
1111011110
10110001010
1111111001
111110000
1111111110101011
100001111
1111111100100110
100000101
11101101
1111111110000011
1111111101111001
110001101
1000101
1111111110111000
1100111010
1010111100
100001110
1011000001
1000111000
1111111001010000
1111111100000011
1111101110010111
1111110101010111
1111101111010110
1111110000101010
1111110011111000
1111110111000011
10011100001
101100010
1100101011
1111100011
1010101000
10100001
101001111
1111110101011001
10010111
1111111110101111
1111111001011010
1111110110100101
1111110101110000
1111110011010110
1111111001000101
1101110111
10000010000
110001010
111111100
1110001110
1111111100000100
1111101101001111
1111100110001111
1111110010011010
1111100100101101
1111101101101001
11111000
1111111110111011
10111100100
1111111101000001
1110010011
10101010010
1101111011
1111111101110010
1111110101001001
1111111011000100
11011011
1111111110111111
1111111010010110
1111111100011111
1111110011111000
1111111111001110
11110101
1101101001
100110011
1000010010
1000100110
101101011
1111111101000100
1111110100000011
1111110100011110
1111110111000011
1111111111101111
11000011
10011011
10111111
100111111
1111111000110110
1111011000
1101010011
1111111110100100
1111110011011101
1111100111111000
1111110111011010
1111111011001111
1111111001101011
1111111111101000
1111111101100101
1111111110010111
1111111110100110
110001111
100001000
111111110
100110110
1000011
101110000
11101
1111111011000100
1111111001011101
1111111111100000
1111001101
1111111011001110
1110101110
10011000100
100111001
1111110100000101
1111111111100111
1111110010000100
11101000
1111110101010010
1111100011010010
1111111111100001
1111110101001000
1111111100111111
1111111001011111
10111
1010110101
110110
101110101
1001111
100110101
111001110
1110101010
110101100
1000010
100101111
1111111010111000
1111111110101101
1101011010
10111110100
1111111011111001
1111111011110100
1101100011
10001110101
111100001
1111111001111100
1111111111001001
1111110101001011
1111100110011001
1111111000110110
1111111101100001
101111001
10110110
1011
11000101
111001
1111111111111111
1111111110000010
1111111101000101
111011111
1000011110
100110010
1111111111101000
1001100001
1001011111
1000100101
1101001000
1000011001
1001010000
100100001
11010101110
1111111110000011
101111010
10101001111
1111110010100111
1111110100000001
1111101110110011
1111111110001101
1111110101100101
100100000
11000
1101000
1111111000000000
10101110
100000101
110011010
10000110
101010100
111000101
111010011
1001001
1111111110000010
1010100100
1000110100
1111111001001100
1001011110
10111011111
1110001101
10011001000
1101100011
100011
11011001101
111101111
1011101010
1111111100110001
1111110111101010
1111110101101000
10110
1111101110101011
1111110000100011
1111101111111001
1111111010110010
101010111
101111011
1010110100
101111110
1100000000
110100111
10001111
1111111101100110
100100110
110010001
1111101110101100
1111110000100000
10111010000
101000110101
10000001010
1111111110011011
1111111110110010
100001
1001100011
1100010
1111110100001110
1111101000110111
1111110100010110
1111111000100111
1111110011010100
1111110101100110
1111110000110100
11001110
1011111110
1010010100
1000101110
11100011
1111111100001101
1111111110111111
1111111110011101
1111111100000001
1111111100010110
1111110101110000
1111110100101111
1111111100111011
1101110110
11100001001
1001110010
10011010
1111110100001000
1111111000111011
10110101010
100001100
1111101100011101
1111101011100100
1111111000111001
1111111101101011
1111111000101101
1111111111001110
1111110100001011
1001010000
1111000111
110001010
1001
1111111101111010
1111111011100011
1111110111010000
1111111010001111
1111111010011101
1001110
1111111011110011
1010011
10010110010
1100100101
111111001
1101111
1111111111011011
100101111
1111111111011001
11011011100
1100100001
1111
1111110011000010
1111101111101010
1111110110010001
1110001
1000101000
1111111111001001
11011000
1111100
1111111101000010
1111111010100101
1111111110111011
1111110100001111
1111110111110100
10000
1111111111001100
1011100
1111110110000100
1111110100101001
1111111111110001
1000001110
1000111000
1111111011110111
1000011111
101100011
1011001100
11000101110
1100110001
1111111010010000
1111110011110110
1111111101001101
1111110111111110
101011001
10001011
1111110010111010
1111111111001111
100101
1111
1111111010011010
1111111110110100
1111110011001111
1111111011110010
1111111100111100
1000101101
1111111110110001
1111111100011101
1111111000001100
1010001
1001000000
1111111100111010
101
1110010
1111111101110101
101010001
1111111111101010
1111111100101010
1111111110101001
1111110001100101
1111111000000001
1111111111111100
1111111111011001
1111110101010001
110001001
1111111110100010
1111111000101101
1111111100110101
1111111001111101
1111111011000111
1111111100010001
10000101
100010100
1111111101101011
10100111
1111110100100001
1111111110000001
10110110
110110011
11110110
111001
1111111101000111
11001000
10000011111
1111111000000101
1000110011
1111111
1111110110001001
1111110010001110
1111111010001100
1111110010011110
1111110011110001
1111111010010011
1111110011011111
1111110001100101
1111110101011011
1111111101110011
1111111000000011
1000110
1111111110010000
100010
1111111000111101
1111111110111101
1111101111010010
1111111100011111
1111111011110111
10001010000
1101001011
10111011
1111111011110000
1111111111100001
10000011
1111111111111101
100010011
1111111010110001
1111110111011101
1111111100111110
1101011100
1000110111
1111111001100011
1111111110000001
1111111010010001
1111110111111100
1111111110100001
1111111011010010
1010110
1010000110
100000111
1111111001110111
10111110
1111111001000101
1111101001001111
1111110000001111
1111101111100100
10011010000
100111111
1101110
11010110
1111111110011111
1111111101000000
1111111110001000
100010001
1111111010100111
111001011
10001001100
100111000010
100100011011
11011010101
1101111111
111011100
10000001111
10110011000
11001000
1010101011
1001001100
1100000110
10101001111
11000000111
1111000
1111110111011111
10000110
10000111
1001001010
1111111110100110
1111111010100111
1001100
1111111011010110
11100
1111111010110010
1011010001
111100110
10010110100
1111001000
10100100001
11010000010
11111100010
100000000001
11101101000
11010000010
100010000010
11001110110
10110001101
11010011001
10001110111
10010111110
101011011
10101010
101000000
1111111110101111
1111111010111000
1111111011001000
11111010
1111111111000101
