10000000101
10000000
1111110110110010
100000011
110010110
10101001001
1111110101000111
110110
10010
1111110100110110
1111100101001101
1111110110010001
111001110
10100000010
1111111110111000
1111110101001001
1111101100010011
110011
10110010000
10000111010
11100111
1111111001110111
1111101111000001
1111101001110001
1111111010100101
111000011
110011001
11000010000
1110101010
1111110010110110
