11100001010
10000011
1111100001001000
1111111110001100
101010000
1111110111001001
11101111011
1111110000110011
1010011100
1111110000110011
10001011111
1111100111010000
1111010000110100
11001101111
1111110100100001
10001010101
1111111111
1111110110011100
1111000100
11001100101
1011010111
1110010001
1111101010111001
1111111101100000
1111010100000101
100111000
11000000100
1111110110001000
1100101
1111110111100110
