100100001
1111100110110110
10000101010
1111111111110111
1111111110001111
101001110
11001001010
10111100101
10110001000
1100011000
1111110111010111
1111110101001010
1111110100111000
1111110010110001
11011
1111111100010110
1011010100
1111111000111110
110111001
1111011000001001
10111001001
10001011110
1111100100010001
1101111011
1111001111101111
1111101100101110
11100100111
11010010010
10001001001
1100111001
