1111100010010111
10001101110
1111111010001000
1100000010
1111010011110001
11001001110
1111010010000110
101011100
1100111011
1111110010110001
111101110
110110
1111111110101110
1111001111011001
1111111010101100
1111100100000110
11011101100
1010000
10011011100
1111101000111011
1111111111101001
1111101001110110
10011111100
1111100101000111
1110110100
1101010101
100000001000
1111111100101101
1001111100
111111100
