11001101101
1111100010101100
1111111111001100
1100100010
100001000011
1000
11100001100
100001011110
100100011000
1111101111001111
11000100
1111111110011110
1111111100110010
10010100110
1111110010110000
11110100110
1111101000000010
11111010101
10110011011
1100011010
10110111
1111011101101011
1111101011000111
101111111111
1111111001000101
1111111101010100
1111110101001100
10100001110
1001111101
1101001001
