1111110001000001
10110010111
11100111111
101101000000
1111101010101000
101100011110
1100001001
1000011011
10110011
11110101111
1111010001000001
1111111101001010
1111100110110010
1010110100
10111000110
11000111011
101111111
11110000010
1111100111101110
1101111111
1111101001001010
1111111110100111
1111011100101001
1111110110011011
1111101110000101
11011001001
10111101010
1111101000101101
1111100101000000
1111110001110000
