1011101101
100100101011
110011011
1111011111111111
1111111101110011
1111010000100001
1111110011111001
10011111011
1111110001001000
101110001
10111001111
100001001010
11011110011
10011011
111010010
1110111000
1111011000101010
1111100111010000
100000101100
1111101100100000
10100110001
1111110110011000
101000011011
10110100
100100101110
11000111011
1110100100
100100101
1111110001101000
1111100011110110
