1111111011011011
101000011
1110010
100100010
1111111010101100
101011010
1111111011101111
1111111110110001
1111111111010100
1111111110011101
111111
1111111101110110
10011110
1110000
1111111010111101
1111111011111011
1101110
1111111111011110
101010100
101001000
1111111010111000
1111111101110011
1111111011010101
1100
1111111110100101
1111111111000110
1111111110100100
1111111110001000
100000100
1100
1111111010110001
11110000
11001110
1111111011100010
11111000
111111
111011111
111100110
10111101
100010
1111111100100101
101101
10101000011
10000110
1111101100101101
1111100111100100
1000001010
1111111000000001
1111111001110001
1111110101000101
1111110101010111
1111110101011001
1000111
1111111101000010
11111
11100111
1001000
1111111111111111
1111111011101111
10100110
1111111011010001
1111111010111101
1111111110100001
111111100
101011100
100001001
1001100011
111101110
1111111111010111
1111110010011110
1100100100
1000101000
1110100
1111111100001000
1111110010110110
10000000010
1000101111
1111111101101000
1111110111001011
1111111101101000
100101010
1111111110101001
100011001
1111111111001000
1111111101100011
100000101
1100000110
10010000111
1111111101011111
1111110110001101
1010
11111010
1001011100
1100000110
11010
1101000
100111000
1111111101111000
1111101011101101
1111110100110111
1111110100110011
1111111110111001
1111111001101101
1100110111
11
1111111100100101
1111111101011000
1111101111100000
1111101110000001
11
1111111010010100
1111111110111001
1111111100000110
101101011
1110001001
1111111010
1111111110111110
1111110000100111
1111111101001111
1010111101
1001001110
1111111100100110
1111111011000100
1111111011000100
1000011
1111111011100101
1111110110010011
100000110
1001101011
11011001
11011010
1111111110110000
1111111101111000
1111111100110011
101011
1111110110010011
1111100111010001
1111011001010011
1111101110101011
1111111000001111
1111111100001111
1111111010101101
10011011011
10000011101
1111111110111001
1111111111101111
1111110000110101
1111110101000100
1111110010001011
1111101101000110
1111110100010101
1111110101000000
101011010
1111111111111001
1111111110000110
1010110111
1100010111
101001111
1111111100111111
1111110010111000
1111101000000011
1110010
1011101101
111001110
110010110
1111110100010011
1111111010101101
1000111
1111111011000100
111000000
1111101111010110
1000
101111011
1111111001100110
1111110011000101
1111111001001101
1111110100111101
1111110010001001
1111110101101101
10100111
1110001
1111111101011100
1111111100100111
1000110010
1000111010
1010010101
11001011
1111110101000011
1111110001010010
1111110110101100
100110101
101001001
11010011
1111110101011011
1010101100
11011111
100000110
1111111011100100
1111110000010001
110110111
1110000110
1111111010101101
1111111010110001
1111111111110100
1111110110100101
1000110010
11001010
1111111010011010
1111110111010110
1111110111110101
1111111111011100
1010101111
1111011110
1111001101
1111111101000101
1111111011100001
1111111100011111
1111110101000001
1111111111010010
10010010101
1111111100101111
1111101100000111
1111110100110100
100010011
1111111011010101
1000000011
1111111010111110
10010100110
1101110011
1111111000011011
11001001
10101001100
100100110
1001011000
1111111111110111
1111110110000111
1111110011101011
1111110001110100
1001010000
10001010111
100010111
1101111011
11011000
101
1111110100011101
1111111001001100
111100
1001101000
1111111101001011
1111110000111000
1111101110000000
1111110101100001
1111111101011111
1111111000101011
1101101010
1101100001
100110000
1111110110110111
1101110110
11010001000
101000010
1111111000101101
1111111011100111
1111111001000000
1111100110000100
1111111101110110
1010100110
1110110011
1101100111
100010101
1001100110
1111111111110000
1111101011100111
1111110100111000
101101001
1111111111110000
1111110100000000
1111101100011111
10010101
111010111
10100000
101000
1110101001
1111110011110001
1111111010101001
1111111000010110
1101001101
1001110001
1111111011000100
1111101110000011
1111110101010010
1111111000111010
1111111000000111
1111111101010111
1110001110
11011010110
1100010111
1010100111
1111110101101010
1111111010110011
1111100111110111
1111110100011101
1111110011111110
1111101010001010
1111101110101001
1111111110100111
1111111110010001
10110001100
100011000
1000110010
1101000
1111110100011011
1111110001000000
1000000
1111111100100010
1111110000110110
1001000
1011101101
110010011
1111111100010110
1011101
111101001
10101000011
10101100101
1010110011
1111110111110101
1111111000111000
1111110101010010
1111110111010101
1111111000101010
101000001
1111110100100011
1111101101101000
1111011110010101
1111101110100000
1101101101
1111111011000000
111110000
1111111011010011
1111111000001010
1111101110111001
1111111001000001
1111111011111011
1111111010010010
100100010
101010
11000010
1111111110100111
1110111111
10000100011
1111011100
1101011011
11101110
1111110100101001
1111110101110101
1111110011110101
1111101101111101
101010000
1001101000
1111111110111001
1111111001000110
1111111010010110
1111110001111100
100011101
1001101011
101111001
101000100
1001111011
1111101110010101
1111111111001111
1100101110
1111111010000101
1111111101010110
11110110
110111000
1111111110100111
110110
111110000
1111010101
1101001011
1101001010
1000001
1000001001
1100101
1100111110
10000001110
101
1111111110011111
1111110110010001
1111110110111110
1111110111010010
1111110101111011
1111111010010100
100110001
11001101000
10011010101
1111111100000001
1111111111101100
100001000
111111010
1010111
1110001
1111111100101001
100101
10110000
1010011100
1111010110
1000000100
1110010101
101011
1111111111111111
111100100
100111101
1110100110
1101111101
1111111011110101
1111111100011000
100110110
1111101001100011
1111110101001101
1111111011110111
1000001
10001111101
1111111011111011
100011000
1111110100011111
1111111000111001
1111110010
10011000
1111111100010001
1111111110100000
111011001
1001010101
111000110
1101000000
110011010
1001001101
1110010
10001
101001101
1111110111111111
1100000011
1001111010
11000101
1111101101100000
1111110111011100
1111110010110111
1111110101101001
1111111110100001
1000100001
1111010100
1111111110010011
110010100
1111110111101110
1111111110101000
1000101001
11101000
1111111111000011
1111110111111001
10100
1000100011
1101010001
1011111111
1111111101010110
1110010
1111111101011111
1111101101101111
1111111110100110
1111111110010000
1111111010110101
1111111111011111
1111111010110011
1111111101011010
1111101101111001
1111101110111111
1111101000001101
10000
110001110
1111110110100101
1111110010111101
1111110011011111
1111110100110111
1111110111011010
1111110101100011
1111111001011011
110110
1111111101010011
1111111101100110
11000000
111011000
100000101
1111111100000101
1111111000101111
1111110100111111
1111110100001100
1111111101000011
10111
1111111100010101
1000001100
11000100
1111111111010010
100000100
1111111110100100
1111110011100000
1111111101000100
1100110100
1111110001111010
1111110001100101
1111101000011010
1111100110101001
1111100011001010
1111101100110011
1111110100100110
110010100
1111111011011001
1111111111101100
110010010
1010010101
1111111100011100
1111101100110110
1111101101100001
1111110010101100
101110100
1111110100010000
1111111110000000
1111110100000000
1111111011001010
1111101110011100
1111111001100111
10111100
1100100
1110001100
1000010100
1111111111111100
1111111111101100
1111111000001110
1111101111001011
1111101100010011
1111111100011001
1111111110110001
11011000
110000110
1111111111001110
1110
1000
1111111000101000
1111110110111110
1111110000000110
1111110100001101
1111101011011101
1111111100001011
1111110001011011
1111110100110100
1111101110111011
1111110110000010
1111110001000101
1111111110100011
1010010100
111111011
10000001110
110101
1111111110001011
1111101010010010
1111101111000011
11001011
1111110110011001
110010101
1111111100111101
10010100
1010001
1111111010110011
1111111110011101
1111111111110100
1111110010101111
1111110111010010
1111110101011011
1111111011011000
1111110111001011
110001000
1111110000000101
1111101101000011
1111110100100001
1111111110000101
1111110011100010
1111111110100110
1111111100011110
100000101
1010010100
101100111
1111001110
1111110111001001
1111110110000110
1111111000100111
1111111111001101
101001111
1111111110100111
101110110
10001111
1111111111000010
1111110110000100
1111111001101111
1111101101011110
1111111100100010
10101111
1111100
1111110101100101
1111111101111100
1111110111100001
1111110111101110
10110111
1111111100101010
1111111110000000
1111111001101101
1111111011101010
1101100
1111111111110111
1010111111
1001111001
1000100110
1000010
101110010
10010101
1111111111111010
110111111
1000001000
110001101
100010
1111111011000110
1111111000010000
1111111001000000
1111111111100000
1111111000110001
1000011011
11100011
1111111100111110
100100101
1111110110001011
1100000
1100001000
1111111010010011
1111101111100011
1111110010100111
10010010001
1111111011000111
1101110
10011100
1111110100110000
11101100
1001100010
1110001111
111010111
111001100
10100
1000100001
11001011
111010100
111011010
11000100
1110101
1111111100111101
1111111100011101
10111011
1111111110000101
1111010
1111111010011010
1111111100011101
1111111011110101
1111110001011110
1111101111111000
1111111110001011
1111011000
10010
1111111110100111
10000110
1111110101011100
11011000
1101001100
11110000101
111111101
1111101000
101111001
110110110
10010111
100011110
1111111010110010
1111111000000101
1111111101010011
1111111001000000
1111110010011100
1111110110100011
101010000
11010110
100100110
11111111
10100100000
10100000
1111110111100000
1101011111
1010010011
101000011
100
11010011
1111111110101100
10010111011
100011010101
11000011001
101110101
1101111111
111010001
1001111001
1111111001011011
10110001
1111111110001111
1111111010111011
1111111011011100
1111101011110101
1111100111011000
1111100111011000
1111111010100100
1111111011010110
1100011001
1100100111
1101101100
1101100001
1111111110010010
1111111110100011
1111111110110111
1111111110111011
1010000
11000000
1111111011011010
1010001
1111110100101111
110110000
10101110111
100010100
1111110111111101
1111111000000001
1100000
11111011
1111111100101001
1111111110000101
1111111000100010
1111110010111001
1111101101010110
1111101111111101
1111101111011110
1111101101101110
1111110100010110
1111101101000101
1111111000111001
1111111010011100
101001100
11001000
1010100
10010000
100011110
1111111111111001
1111111111001010
10011110
1011011110
1011110101
1111111000101101
1111111101000100
1111111111000110
1111110101011011
100111000
1111110111110101
1111110000111000
1111101001000010
1111100010101011
1111110110001000
1111111100011010
1111101101100100
1111101100001000
1111110011011011
1110010
1111111111011101
11100101
1111111110110101
1111111100010011
1111111011011010
1001
1111111111101011
