1111111100001100
1111111100101110
101010100
1111111111101101
1111111100000101
101010000
100001110
101000000
100111101
1001000
100110110
11011
1111111011011011
100111101
1111111111111001
1111111101111101
1111111100001111
10011
1111111111001100
1111111101100010
11110110
1111111110000010
1011111
1111111011111100
1111111111010110
11101100
1111
1111111110101010
1111111101000110
1101001
101000100
1111111100000001
1000100
1000111
100000101
101010111
1011111
101101101
1000101111
1000110001
10010001
1111111100111000
1111111111101100
10110011
1111111010000011
10100111
1111111110010000
101
1111111101001011
1111111010001100
10110111
1111111010111011
100100000
11101000
1011110
10101111
100100011
110011
10101000
1111111100010011
1111111110010100
10110110
1111111000011110
11010010
11001010
110001001
1111111110001101
1111111011010010
1111111000000011
1111110001100111
1111110001000100
1111111001111110
11100010
1110110100
1110000111
1010011111
1001111011
10011000011
1000110101
10011011
1111111100000100
1011111
1111111110000011
1111111101000011
1111111101101010
1111111110001110
1111111111101111
1111111111011101
1111111010010011
1111110100101110
1100111
1111111010101000
1111110010100100
1111110010110101
1111111110011001
1111111001111101
1011001
1111111001101110
1111110011111110
1111110111010100
1111011111100000
1111100100000010
1111101110111110
1111111100011111
101110001
1111111110110101
1111110110111001
1111101010011010
1111100011101010
1111111011011001
10010111100
1111111111100011
11110111
11111
1011011
1111111000011000
1111101110010100
1111111001111001
1111111010010001
1111111011010000
1111110101010001
1101101
111001110
1111110101111001
1111110111000000
1111110111100011
1111111100110011
1111111011100001
1111111000100100
1111110111010001
1111101011000101
1111101001101011
1111110110011010
1111111010101010
1111111011111101
110000011
1000
1110011001
10110111101
1110000010
1111111011101101
1111111110010001
1010101101
1111111001001100
1111111100101100
1111111011010101
1111101010100000
1111111101000101
1111111001110011
1111111100010000
1111111001000101
1111111100101001
1111110101101111
1111110000001110
1111111110001001
1111110001001001
1111110010011001
1111111001000010
1111110011001101
1111111010101110
1111111101000011
100101101
1001100011
1111111111011111
1111111100000100
11111001
11010100101
1101100011
1001000
1111111110001111
1010001
1111101101000001
1100101
1111111010101111
1111100110001010
1111110001110000
1111110100000011
1101
1111111101000000
1111111001000010
1111111001101111
1111110110100001
1111111011101011
1111110111010111
1111110011111001
1111111101010111
1110000
1001100010
1110000100
1101110001
1101000101
1100110111
11110100110
11010111000
10001000011
101110011
1111111011011010
1111101111100101
1111111111101100
1111100100100010
1111100100000000
1111110110111100
1111101101001100
1111111001000100
110101
1000001000
11100011
1111111100111111
100111
1111111011000100
1111111110110010
1011001001
110110110
10010101100
11110100101
10010101100
100000111011
11011110101
100011011111
10101111111
10000111000
1101001101
11001100110
1000001110
10101
1111111011001111
1111101110110001
1111110010110001
1111100000101011
1111110001010001
1111111010001001
1000010
1111111101000110
1001010
1111111101101101
1111111010111011
110010110
100001011
1010001001
1111010000
10100111011
10111001001
11000101010
11111111110
11101101111
11111001110
10101101011
10110100100
11111111000
1100001100
10001101010
1111000101
1111111111000000
11001
1111101101111100
1111101010101110
1111110111110110
1111111110010011
1111110111111000
1111111010000110
1111111110011100
1111111100010010
110100100
110000000
101100100
11001111
10100
1111111101011101
110001001
1100110111
1101000100
1101110110
1001101001
1001010100
111100000
1111001
10110000110
1001000010
10111011
1011101100
1111111101110110
1111110111110101
1111110101101010
1111100100100010
111010101
110110111
1111111111000001
100100100
10110010
1000010010
1101101101
1010100
1111111100010011
1111111011011100
1111110101010000
1111101111100000
1111101000000100
1111100110011011
1111101010000000
1111100110101111
1111100100110010
1111101111010110
1111101011010101
1111101011000111
1111110111100111
1111110110010111
1101001001
1110001000
1111111101100110
1111101111110100
1111110011001000
1111101111111100
1111111110101001
111000100
100110111
1111111110101110
1111111001011110
11101111
1111111110111011
1111110111101000
1111110110110111
1111111100011101
1111110111111100
1111110110011110
1111101100110110
1111011011001100
1111010110011111
1111011001010111
1111000101110000
1111011100010110
1111011100011010
1111011100101000
1111100110110110
1111110011001110
1110011000
11101011
100110
1111110111110001
1111100111111100
1111101111000000
1111110110101100
1111110111000110
10110011
1111111010011110
11010101
101101
110000011
101110
11000110
101110001
1111111111111100
1001
1111110010000011
1111101110001101
1111101110001011
1111101000001110
1111101100111101
1111100111001101
1111011101000010
1111100110010010
1111100100000001
1111100100001011
1111111010001110
1010100
101010111
1111111000001010
1111101001000001
1111110000011011
1111110010010110
1111111100100110
11011000
101010010
1111111011011001
1111111110010001
11000101
1111111110111101
111001000
100111011
111100010
10110110
1111111000000001
1111111100001000
1111111101011011
1110111111
10111001
1111110010100110
1111101000100010
1111110010100010
1111110001110101
1111101100101000
1111111111100111
10011010
110010101
1111111100000011
1111110010011101
1111101001111111
1111111111000001
1111111101001101
1111111101110001
1111111111001011
1111111100100100
1111111110001010
110011110
100101101
1000010011
101010
1010111100
11001000
10110010
1111111010000100
1111111100001110
1000000100
1000101100
1111110011111001
1111110001001101
1100010
1010000110
1111101101100111
1111101011001000
1000000
110101111
1101001
1111110011000101
1111101000101011
1110001
1010001101
1111111110110101
111001011
10011
1001001000
1000000100
11111100
110010111
1111111110010000
1010011
1111111000100011
1111110010011111
1111110111111111
1111111111000111
1111111010001001
1111111110001111
1111100
1111101111111011
1111111111001100
110111010
1111110100001010
1111101101101011
1111101101101010
1111111110001001
100000
1111101011001001
1111110101111011
1111110100001010
110001001
1111111000110001
1111110111101001
1100111
100110000
110111000
101101111
100001000
1111111110011100
10100011
1111110100100110
1111110111000000
1111111110101010
1111111111110000
1111111110111010
1111111011001010
1111110100000100
100001
1111110101010001
1111111100011011
1111110000011001
1111100010010110
1111110001010110
100010111
11010110
1111101100111010
100110000
1111101011011010
1111111000000101
1111111110111110
100110011
1111111001101101
1111111110000100
10010001110
1010001000
1111111000100000
1111111110010010
1111111111010001
1111111101100010
1111111011111000
1111111100001011
1111111110000101
11001101
1011110
1000101
1010101100
1111110010011111
1111110100000001
1111101110100010
1111110001111000
1111101110011101
1111111110010010
10100111
1111101101001101
1111111001110100
1111110010001011
1111111000100101
10010
1001010010
1111110110101011
1111111100010101
1111111011100101
1111111101001011
1111111000011110
1111111010010011
1111111100001001
1111111111101000
1001011
1111111111100001
1010
1111111101000001
110010100
1111111001010000
11111101
1111110111110110
1111110011110100
1111110010101111
1111101001111100
1111111111111001
1111111111011001
1111111001010010
1111101000100010
1111100111011010
1111111000111011
111100010
1111111101000110
1111111110001001
1111111110011010
1111111100100000
1111110111100010
100001011
1100010
10010000
1111111100100001
100100
1111111111001101
1010101
110000001
11110110
1100110
1111111000111000
101010
11000110
1111111011100000
1111101100101100
1111110100100101
100111110
1111111111000111
1111110010101101
1111100101011101
1111100001010000
1111110001001110
10110001
110110110
1111111101010000
101001000
1111111110111010
11000101
10011101
10110011
111000
1111110111110010
110
1000111
101100000
11100
100100101
100000010
1111111101111100
1001110010
1011100
1111110110000110
1111110010000101
1111110001110100
10010101
1111111011010111
1111110011100001
1111101001111011
1111110010110101
101101
101100111
101101101
11001111
111101010
11001101
101111
101111100
10010011
10101000
10010110
1000011101
1001110
1111111001110010
100100
1101011000
1100101011
100111010
1111101001
1111111100111010
1111110111111111
1111110010011011
1111110101111001
101010001
1111111110100000
1111111010000011
1111100101011010
1111111010011011
1000110101
101010000
1100100000
1111111100001011
1010110
1111111100001011
101100011
1100110
110011001
1110010
1000010111
11111111
100010010
11111001
10110011
10010010
101110
100011
1111110111111000
10111101
1100010100
1111111110100011
1111111000100001
10011
1111111101110010
1001101
1111101111111010
1000101010
10101111100
10011001100
1001111101
1111111110000101
1111110001010101
1111111101000001
100010011
100001110
111100111
111110100
10101010
1111111011000010
110100001
1111111010101100
1111111101101110
100010000
10110011
10010101
1111111100101011
1111111101010100
1001011001
1111111011010011
1111111000101101
1111111011000000
1111111110110001
1100100
1111111001010010
1111111100000101
1111110111101001
1111111000110110
100001101
1111111111000011
101110111
10100100
110111011
1111111110110011
1001001111
110101001
10010100
1111111000001011
10101001
1111111101001101
1100100111
1111111110100110
11100
11100010
10110000
1111110100111001
111100011
1111110110100110
1111110111101100
110110
10000100
1111111010101011
101100000
101010011
1111111110010001
1111110110111101
1110101001
10000110
1110001
1011110110
1111111111011111
1010001010
1110001100
111001000
1111110011100011
110100110
110101010
101001100
110010100
10001010
1110100
1001111011
11001010110
1010010100
10011001100
1111110110011001
1111111001000000
1111111100110111
1111111011111011
100000
100010111
1111111101110010
1010011110
110110010
10111101
1111111000001001
1111110101011110
1111101101100000
1111110011000010
1111111100001110
1111111000001010
1111111000001001
1111110001100011
1111111011001100
111100100
1111110111111010
1111110100000110
100110010
1111111001001011
100000000
1011110011
1000111110
1111111101000001
1111111010101110
100001101
10101001
1111111011111010
11100100
1001000
1111111010100111
100000100
1111111011100000
1001110
1001001001
110011
11001010
101101100
1111111000010000
1111111110111110
11101111
1111110110000111
1111101100111110
1111110100010010
1111101111011001
1111101111000110
1111100110010000
1111110000011110
1111110011100001
1111111101001000
1101011
1101
1111111111010101
100001010
1001
