1011100
11000101
1011
1111111110010000
100111111
1111111110101011
1111111101111110
1111111100101011
1110101
1111111011110110
1
1111111011111110
101110101
10000010
111100100
10011111
1111111101111111
100010011
1111111010110000
1111111101110100
1111111111111110
1111111100011100
11110111
1111111100100110
110111
1111111101110101
1111111111000000
1111111100111000
1111111111000000
100101111
1111111110011100
100001001
110110
101000000
110011100
1011011
1111111101100001
1111110110111110
1111111000010110
1111110010111111
1111111100001001
111010
1111111100001000
111011010
1101011010
10100010
11110111
111010000
1101111100
111101000
110101010
10010011
1111111111110100
1111111111100010
100111100
100101
11011011
1111111110111011
1111111110101101
10101001
1111111101100111
1000010
110000000
1111111100110111
1111111111011111
1111111101110100
1111111100110100
111011100
100100110
110101011
10111011111
10010111010
10011000101
1110011010
11100101100
11100001011
11001101101
10001000010
1110111001
10000110001
1111111111011000
1111111110101100
100101000
1111111011000001
11011000
1111111011110100
111101
11101010
1011100100
10000000110
10000010110
1111010101
10000011010
11000101
1110101011
110100011
10000111001
1000000111
1101100010
10010100000
11000010000
1110110010
1000011011
10000011110
10000001011
1101000110
1111111000010000
1111110001111110
11
1111111111111011
1110100010
100011011
1101000
110111
110000010
1111100001
1011010110
100100010001
10111111110
10001011110
10110010111
10110100111
10101011010
101010011
1111111100001001
1111111101100000
1111111010111110
1001000001
1111111111001110
1011100
111111011
100001111
1111111011010010
1111111110000110
1111110001100000
1111110011001100
100011010
111101101
1110000001
1001001
1111111100001001
100101110
1101100111
1111101011
1101100111
110011
1111111011010000
11000000
1111111010010011
11001
100100000
1111111011011001
1111110001011001
100110111
11111110
1110
1001011010
100110
1010111
1111111011110100
110110
1111110101001101
1111111100100101
110110010
1111111001111110
1111111001101001
11111001
1111111110101011
1111111110000010
111111100
1111110000111101
1111111101000011
1101010100
1000001100
1111111100000111
1111110001110000
1111110010001001
1111111010001100
1111110011101000
1111110100101111
1111111101010101
110010
1111111001001010
1111111111101111
1011001100
1111111111100000
110011
1111111100010000
1111111011011110
1111110011010110
1111110010110000
11100100
1101010110
100010011
11101000011
111000011
10011010
1111000010
1111110010101110
1010110101
10100010011
10000111101
1111110111110000
1111110101001010
1111111010101010
1111111010101101
1111110011001001
1111111001001110
1111110101111000
1111111000000010
1010110011
110010111
1101100110
1010110010
11000001
1111111101110101
1111111100110011
1111110000100011
1111111111111111
110111110
10011010
10011100
10111010000
1110000
1111110001001101
1111110100000111
1111110100110100
101111101
1001000000
1000010110
1111111101110100
1111110110010111
1111111011000111
1111111101010111
1111111110101010
1111110101000111
1111110110111011
101111
1011111100
1111101
1111111110110000
1111111100100100
1111111110001000
101
1001101101
1101111
1000100011
110001001
1111111011110111
11110010
110010001
1000011101
1111111000111000
1111110100001100
1111110101101110
1111110010011001
111111010
100010000
111011011
1111111110111100
10111111
1111110111101110
1111110000010110
1111101011101100
1111110111100101
1111111111100011
11011100
110000010
10001101
1111111101111111
1111111000110000
1111111001011001
100111000
1111110111111000
1000101110
101010
100001100
1010001111
1111111111001100
1111110111011000
1111110110110111
1111110111100111
1
1111111101001101
100101011
1011110001
1111111100110100
1111111000001000
1111111000011010
1111110101001001
1111101111001100
1111101011101000
1111110101001010
1110001011
1101000001
100111110
1000100001
1111111110101011
1111111010100001
1111111110010110
1111111111111101
1111110000110111
1111111011100011
1000011010
1111001101
1111111010100011
1111111011101010
1111110011101100
11001001
110000
1111110010110110
1010100110
11000001111
111111
1111101100101011
1111110001110110
1111111001100101
1111110111110100
1111111011111111
1111111110001100
1001101101
1000110010
1000001000
10010001
1111111100101001
1111111111111011
10001000
1111111010110101
1111101101010110
1111110110111111
1111101100001011
1111111010111000
1111111010000001
1111111001000011
1111110101000010
1111110001110010
1110001
1111110100110001
1111101101100111
1111110101000000
1111111110101100
1111110101111010
1111101111110011
1111110111101010
1111111101100001
1111111110110100
1011110010
1111111100110000
1101101
1100011010
11100100
10000100
1111111110010101
1111110110101111
1111110101110001
1111111001010000
1111110110010100
1111110110011110
1111110001001100
1111111010111111
100010111
1111111100000100
1111100100
10011000
101000100
1111110001101101
1111101101110111
1111110000101011
1111110010110111
1111110111011000
1111111011100101
1111101100010000
1111111010111110
110011110
101011100
100001
1001110000
1100001011
1111111111100001
1111111101001001
11111
1111111010110010
1111111000110100
10001111
1111111111011110
1111111110001001
110011
1111111110111111
101100001
1101010001
1111111011
1111111111100100
101111000
1110111000
1111110110111111
1111110010110011
1111101111101110
1111111010000010
1111111011001111
1111101001001010
1111111010011110
1111111101001111
1111110111001100
101000
100001
1111111010011011
1111111110111111
11101
1111111001001110
1111110100100110
1111111101100001
1111110
1101001010
101000
1001000010
1111111101011110
1111111010100000
1111111001101001
1111111111100100
1111111010011111
110010111
1111011000
10000011100
1111101110101100
111000011
110100110
1111111001110000
1111100001100100
1111100101010000
1111100101000010
1111100111110001
1111110101001011
1111111011000111
1111110110001101
1111110111110101
1111111011001011
1111111010110000
1001001
11001000
1000001001
1111111000
1000001100
100101101
100101011
111011001
1111111010100101
10000001000
1010101010
1010
1110010010
11111110
1000001010
1101011000
101001100
1111111011001100
1111101110001010
1111101011001100
1111100110111111
1111101010000110
1111101110010101
1111110011000001
1111110101111000
1111111001101100
1111111011110000
1111110010100011
100000011
1100000000
10001110110
10011110011
1010100000
10101010001
1111100010
1101011011
1111111010000100
11001010
1111000100
10101101
10011101100
1111111110001001
11000110001
10000011101
1000010100
100000
110100010
1001110100
1111101111100011
1111110000000100
1111101111100101
1111100110100010
1111110111101010
1111110110001010
1111110100011100
1111111101100111
1111111111101001
100111000
110001000
1000010100
1011001111
110101100
1111110000010010
1111110100100011
1111101101110101
1111111110001001
1001000010
1111101010110101
1010111011
1111111100110001
100101000100
1110010011
10011111000
110000000
100100000
1101000110
1100
1111111101010111
1000001
1111111000100000
1111111010100111
10100101
1000110101
1000100000
10111111
1111111100000110
1111111010110001
1111111000000111
1111111111110101
1111101101000101
1111110110110011
1111111001100011
1111101110100110
1111101010101101
1111111000010011
1100100
1111110110110000
1111111101100100
10100110000
1110100000
1110010101
10010010101
100011101
1011000110
1110110011
1101001001
111110100
1010111110
1110101101
1111100110
10000010111
1010001000
101111111
11111101
1111111111010100
1111111011110000
11111
1010110
1110100110
1100101101
1111110010110111
1111100000111101
1111101111011111
1111111100101110
1111111101110110
1111111001101100
1100100110
111000100
10110010101
1111010100
10010111110
10101110110
100000011111
11001100001
11001111111
10010101011
10100001101
10000110011
101011101
1100100010
1001101100
10001101
110110
1011111
110001001
1000101010
1100010011
1010000101
100011
1111100001100011
1111111101111101
1111111111000101
11010001
100011010
101110110
1111111001001000
111000011
10001101
1111110000
10011111100
10010001110
10010000000
10010101010
1101001000
1001100110
1000001111
1001111011
1010110010
1010111001
100101000
1000001101
1111111101010111
100001001
110101000
1111111101011110
1111111111000111
11111111
1111110010001101
10011000
1111111001011001
1111111110011101
100000
110100
1111111011100100
1111111100110011
1111110110100100
111
100001101
101101110
11111110
110111010
1001
101
1111111100101111
10001110
111011
101101101
1111110111111111
1111111101011101
100111111
11010001
1111101011110111
1111111111010000
1111110100001010
10001
1111101101011110
1000110
11001000
100101111
11010101001
1011010001
1111111101110100
1111111111000101
1111111111000011
1111111101101000
1001001
1111111111001111
1000000010
110010111
1111111111011110
1111111110110001
1111111111111000
101101111
1111111010101011
1111111011001101
111100
100010101
1111111111110010
1111110111110010
1111110100010000
111001100
1111101111100101
1111110011011111
11010011
11111110
100101110
1111111111001110
1001101
1111011001
1111111000001111
1111111011010101
1111111101110001
1111110000011001
1111110110110100
1111111101001101
1111110110001001
1111110001010011
1111110000010101
1111110100010111
1111110110010111
1111110110110000
1111100111000011
1111110111101111
10101
1111101100101111
1111101000000100
1111101110111011
1111111000001010
101110000
1111111111010011
100000110
1111111110110100
11100100
1111111100010010
1111111111011001
1011100101
1100001
1111111001011011
1111111001000100
1111111000101011
1111110101100110
1111110101010010
1111110000111000
1111101000001110
1111100010111111
1111100011101010
1111101001111000
1111100100011011
1111011100100001
1111010101011011
1111110100100010
1000
1111101100010000
1111110010100001
1111110111100111
1111111100001011
1111111001011110
10011110
1011100
1111111101101111
1000011
10110110
1111111111000100
1111111010110110
1111111100010000
100101001
1111111001110110
1111110100111111
1111101010000001
1111100000010011
1111100000100010
1111110110000101
1111110111100010
1111101101010011
1111101011011010
110000
10010001
100111001
1111111101111100
1010011
11000111
1111111001100110
1111111011111110
11011111
1010100
100001110
1011110
10011000
1111111101000100
1100
1111111110100011
1111111110010010
100001010
1101111
1111110110111010
1111110111111100
1111111100001100
1111111101111001
1111110110010111
1111111100100011
1111111011111010
1111111010110100
1111110101100011
1111111100010010
1111111010000110
1111111100001000
1111111100000111
1111111010110000
1111111000110001
1111111110110011
1111111111011000
1111111100101110
111101
1111111110010000
1111111100010100
101000001
10111000
