1111111100110111
11001111
11001100
10000010
11001101
100001011
110010
100110101
0
11011100
1111111100101101
1101001
1111100
1111111100011111
1010111
1111111100100001
1111111100101100
1111111011000001
101110
1111111111101111
1
1111111101000111
110001
1111111110110110
1111111111010111
1111111011001011
101100
1111111011000001
1111111011000001
1111111111010111
1111111111101100
1111111010111110
101011
1111111100111100
1111111000000101
1111111010111110
1111111011011111
1111111010010010
101111110
1111111101100111
1010001
101001100
1000110111
1011100000
1101011000
1011111011
100010
101100101
110000011
1111111101100101
1111111011011111
1111111101100100
1111111100001110
1111111011101111
1111111011010100
1111111100000100
1010110
1111111111010110
1111111101011101
110110011
1000110100
1111111111101011
1111111001110010
10010001
1111111111001110
1111111001100010
100011101
1101001
1111111001110010
1111111001100001
1111111010101011
1111110011111111
1111111101011010
101100
1111111110011001
1111101000010101
1111011101110110
1111110001000100
1111110001111101
1111111101110011
1111111111011110
1111111110110001
11101000
101000101
1111111100111011
11101111
1111111110011010
1111111111110010
1111111111111000
1111110110101010
1111110010101110
1111011111010000
1111100000111011
1111100011001001
1111100100101010
1111100011110001
1111101011011111
1111011011001110
1111001111000010
1111011110100001
1111011111011101
1111011111100000
1111100001101100
1111101100101000
1111010110100011
1111100010111100
1111110011001101
1111110011000011
1111111000111000
1111110101111100
10101
1111111010110000
100101110
100100010
0
10010111000
1111111010100000
1111110100001110
1111101101100110
1111110001010111
1111110110111101
1111100010100000
1111011001101110
1111100000000011
1111101101001110
1111100110100001
1111101010011010
1111110010100010
1111110010001001
1111111010100010
1111111000111000
1111111100001110
10111100
1011010111
10100110000
10100001100
11111100
101101111
1111111111001010
1111111101011100
11011110
1111111011010110
1111110111111011
110000011
1000101110
1111111011101100
1111111111000000
1111111110011000
101110010
1111110111111111
1111100011100100
1111100010010100
1111101110110011
1111111001011111
1111110101001111
1111111001111111
1000100111
1101010010
10010100100
1111111001011001
1111111111100011
1001110001
1010011001
1111111100100011
10011101
1111111111011001
1000111010
1111111101001101
100010010
1111111110101101
100101100
11001001110
10010110011
1101001101
1000110100
1111110111110100
1111111100110000
1111101101011110
1111101101001000
1111110100111000
1111111001000001
1111110001111110
1111111000100111
1111110111110000
1111110110010110
1111111011111011
1111111011000100
11111000
1111110100001100
1110100110
1111111000010100
1111100011111010
1111100111111011
1111111110010010
1111111100100010
1010000000
1111111100111001
10000011101
11111001011
11101110000
100100010
1000100
10100010
10000001011
1111111010110101
1111010
1111111110110100
1111110111011111
1100001
1111111111110000
1111111000111110
1111110000101101
1111110101011011
1111111001111010
100010101
1111111100110111
1111111101000100
1000101000
10010100
1111101111010001
1111110100011011
1111101011011101
111111
10100100010
1111110100001101
11100111000
1001111111
1010011110
1100011110
1110100100
111010000
1111001111
1011100101
1011110001
111001100
1111111110000110
10011111
1111110111001100
1111111010000101
1111111101000110
1111111011011101
1001100
1111111111110010
1111111010011001
1010100
1111111010011000
10010
1101101111
1111111010110101
1111110011001010
1111111101101001
10010111
10011001011
11011111011
11011111011
1001111100
1011010101
10010011000
1001111110
1110101111
11110011
101111101
1011110100
1010111111
1111111011
1111101001
1100111001
1000001101
101100000
110110010
110011101
10011011
1000101111
1000000111
110011001
1000110000
101000111
10110001
1111101100010000
11000100
1010110001
10111010110
110110011
1111111000100110
111110110
1100100001
10000001011
1111111111110011
11111110
1000111111
1110011001
10101011111
10011011001
100000010011
10100110100
10001111000
1101011110
10011011
1111111110
1100001101
1010100010
1110010011
1101000010
1111111000100010
1111111111000010
1011101101
11101110
1111101111111001
11000101011
10100110010
10001100110
110110100
1001100011
1010001001
1111111111010111
1001000100
10101011
1100000100
10010010001
10111011100
10111111000
10110011010
1100111110
1000101111
1111111111000100
10111010
1011011010
1001111101
1001011101
10101001
1000001
1111111100100110
1111111100011100
10110001000
10101101001
11000000
1100101100
11000100101
10010001011
1000011000
100101100
101001111
1111111101001101
1011100010
10001110110
110001011
11001111
1011001000
10111
1111110010000101
11011
11101101
11101100
111101001
1110001100
1000111000
11010111
1111111011010100
100000111
1111101101101010
1111110000111000
1110000110
11101000100
1101110001
1111111110110110
10100001100
10100110111
1111111011110010
1111111010001101
1111111101001101
1111111101100111
10111
1111111101101000
1111110010100010
1111110111010010
1111111111010011
1111110001101100
1111100110010101
1111111110010001
1111101111111101
1111111001101110
11001101
1111111100001110
1111111100101001
1010111010
1001001001
1111110011101011
1111111000111001
10110011
101100010
1000011110
10101010100
100001001
1010111010
10101110001
10000011
100000
1111111011011100
1111110011101111
1111101010000101
1111110100101000
1111101111000000
1101100
1111111110110010
1111101111110111
1111101010010101
1111111000000000
1111110111110000
1111111010111101
111000011
1100100
100001010
1010111
1011001
111100011
10011000001
1111110111111111
1111110100010110
111001000
1010100010
11001110
101100101
1111111111110111
1111111100111011
1111111000111101
1111110001011110
1111110001110100
1111101101011010
1111110001000011
1111111101101111
1111111011001000
1111111110001001
1111110011100111
1111111010100001
1111111100101011
1111111011111111
1111101110100100
1101100
11111110
101001010
101111111
100010000
10000001000
101111101
1111111011001111
1111101001100111
1111111111110110
1111111110000111
1010001010
1111111101000000
111000111
1111110011000100
1111111101100010
1111101111101111
1111111010101011
1111011
10101110
1111111101111110
1111111010000000
1111110101110100
1111111101111011
1111110111110101
1111111000000111
11111101
11100
10001010100
110101100
11010010
100011101
1010111000
101011111
100111011
1111110111111110
1111100101001001
10100100101
1111110101011101
10001101
1111111111010100
1010001100
1111101110110000
111110
1111111110101001
1111110001100010
1111111100110100
1111111010101010
1111111010010111
1111111100101111
1111111100111011
1111110111100100
1111111011011110
101111101
111000110
1111111100001110
1011001111
1010101101
10000001
1001010001
1111111110101010
1000100010
111110010
11010110
1101110101
110110000
1111110010111010
10011101001
1111111110100001
10100010011
1111101000001000
1111111101100001
1111111001010001
1111110100111011
1111110100101111
1111111011001100
1111110111000101
1111111011001101
1111110100101011
1111101010011110
1111110110110100
10111100
101000
111010100
101000010
100000011
1111111000101111
1111111111010011
1111111011010001
1100000
1111111000100010
1111111011101111
111110101
11101
1111111001000010
111001
1010110001
10110010101
1111101101110111
110110100
1111111100001010
1111111001000101
1111111001100111
11000001
1001001
1111110001011111
1111101110000111
1111110111111101
1111111111011011
1000000
100101001
1111111100110101
10000
1111110010110110
1111110100000000
1111110111001011
1111101100111010
1111101010100101
1111110100110100
1111110010111100
1111111101000011
1101011010
1111111110001011
100111111
1111111010011101
10000111010
1111111101110001
1011000000
1111111000111111
1111111010101011
100101110
100110111
110101
1111111011011001
1111110111010101
1111110110111110
10000111
11001110
11000010
1111111000001001
1111110010001010
1111110100000000
1111111001110110
1111101101110000
1111110101010111
1101111
1111111010100100
1111110110011001
1111111001110100
110011011
10111011
1111111010110011
1111111011111101
1110011000
100100000
1110110
1111110111111110
1111111010101000
1111110101101101
1111111111011010
1111111111011101
101001100
1101111
1111101
111100111
10001110
10000
1111111111110110
1111111011100000
1111111100110010
101110
1111111010100001
1111111100011010
1111110100100110
1111110110110001
101000100
1111110110110100
1111111001100011
1111111101110100
1111111111011010
1111111001001001
111101010
1111101100010111
1111111110101111
1111111010100011
1011101
1111111110001010
1111111110001111
111110010
101000000
1011000
1111111111001010
100001010
1000000000
1001001000
11101000
110110010
1111111101110110
1111111010100101
1111101100011111
1111101100010111
1111110101101100
1111110010111001
101010011
1111111110100110
1111111101011110
1111111110010111
1111111011110101
111100
1111100110111000
1111100011111011
1010111
1100110
10010000101
1100001011
1111111101110100
1000111100
1001000011
11101010
1111111110101101
1111111010110011
1000111
11111100
10001110
101111111
1111111000010000
110110
1111110001100011
1111110001010010
1111110011110111
1111101101011000
10000011011
1001101000
1111111000011010
1101
11110001
1111101
1001100111
1110000010
101111001
1001000001
1001100011
1111111001000100
1111111110011101
1111111010101110
1111111111000111
11101011
1000
1111111011100000
1111111010010110
110000
1111111101101010
11001111
10110000
1111111110000011
1111111010101001
11001010
1111110010100011
1111101101110111
1000000111
1111111100100000
1100110
101011101
11011011
11100010
1111110000101101
1011111111
111100101
1111111001000100
1111110111101100
1111110110011011
1111111101100111
1111111000101011
1111110001111000
10000011
1000011011
111001
1001100011
1001010000
110000001
10000010
11001111
1010011000
1111011
101011111
1111101
1111111010011010
1110010000
1111110100000111
1111111101111101
1111111101111100
1111111111111000
1111111110001000
100
1111111011111001
1111100110010101
1111101101000000
1111110010011100
1111111011110001
1111111111111011
1010110010
1000011010
10000101
110101000
10101110101
1011011111
1111110111
101000101
1011000
110111101
10110001011
1001100101
1111111100110001
10110100
1111110110000010
1111110111001001
1010101111
1111111011110110
10010110
1111111110011100
1111111110011011
1111111111101100
1111111111111100
10100100100
100000000110
1111100111
1001110011
1000111010
1000101101
11010111001
100001011
1001001101
100010100011
10100001010
101100111
1101001110
11011001000
1000100011
1011101100
1111111110000001
1000001000
1000101110
10000101110
1111111101011110
1111111011010110
1010001
1111111111000101
