1111111111111010
10111010
1000100
11100110
111100
100000
101010
1111111110011110
1110101
10000000
1100110
100111000
1111111011011010
10101101
1100001100
1011000
1111111100010100
10000100
101011000
1111111100000010
100001000
11110110
1111111111000011
1111111111100101
1100010
1111111111100111
1111111111100101
10001011
100100001
1111111110101101
11100110
101011000
1111111111101001
10100110
10010101
1111111110101100
100111101
1111111101001000
1111111001001110
1111110011000111
1111110001001110
1111111100001000
10111100100
11000110010
10110111000
1101110010
1111111000000001
1111110011110010
1111111000101110
1111110011111100
1111111011000100
1111111011100010
1011111
1111111011001011
10111000
100001111
100100111
1111111111000110
100110101
1111111101111010
1111110110111100
1111110101001001
11110001
1000011
1111110101101110
1111110101101110
1001001000
1111111110100111
1111111010001101
10001100
1010100101
10010000100
1011000001
1111111011111001
1111110101100100
1111110010001101
1111110010001001
1111100111001110
1111110010000010
101
111100100
1011011011
101011000
1111011
1000110
101010
1111010101
101011
1111101010001110
1111111100110101
1111111111001111
101100
1111111101111101
1111111111100100
11101011
10011111
101000001
1010010101
11010100
1111111010110001
1111111110101110
1111111010100011
111101000
1000111000
111000010
1111111111110010
111110001
1010001100
1111111000001011
10000000
1111111011010101
1111100
1011101
10011000
10100011000
1011110111
10101111
100011010
101101011
1111111100111110
1011010101
101110101
100001110
1101111
111101101
1111111111110000
10010100
1111111101100101
1111110110110110
1111111110100001
1001111
1111111010011111
1111111110011101
1111111100000111
100100001
1111111111000100
1010001011
1101100000
10101101010
1111110101110110
1111111100111111
11011110
1100010011
10110111100
10000011110
101100010
1101100
11111
1111111010100111
1111111001001111
1111111001101101
1111111011101111
11011100
1111111100011100
100011111
11110011
11000
1111111111110101
1111111000100100
111100011
1111010100
1010000000
1111110000
101111110
101110011
11001001100
100
1111110010111111
11111010
1101100010
1111110011111111
111011101
1111110010101011
1111101100010101
1010011
1111111101001111
1111111011011010
101001010
111000011
1011110
101011101
1111111101010100
1111111101101101
111010101
100101011
1111111110001101
1111111101010101
1111111100100101
101100001
100111011
100001110
1100000110
111100100
100111110
11110001
1111111011101100
1111111011110111
111110
1111101111000000
1111111110110100
1000011000
101010011
1111111111100011
1111111001110100
1111111110110110
1111110110110010
1111111111100111
1111111111011100
1100111
1000000100
10101100
1000011111
110110000
10000000
101001111
10111101
11111000
100110011
10000001010
10010100000
1111111010000011
1001110010
110110110
1111110111001111
1111101110011001
1111110001010001
101010001
1001110
1101101001
1111111011011111
1111111010111001
1111111011110110
1111111000100110
1111111101111100
110000110
1111111101000001
101011000
10010000000
1111010000
1011001010
1001101111
10111101
10010111
1010011001
11011010
101111010
10001101111
1111110100
1111111110100110
101111010
10000010111
10000101100
1111110000110101
1111101011101000
10111010
1100010011
1111111100001001
1111111101011001
1111111100001111
100011
1111111110011001
1111
1111111100101110
1111111010110101
101101011
10000000110
10010010101
1110111001
110101101
111111000
1111111111001100
111011000
11100101
101000100
10000100110
1110011100
1111111110010110
111111100
11000111010
1111110111001011
1111101100100001
1111100100110101
110111010
10011011110
1111111111011110
11101010
1111111101010010
1111111011011101
1111111111000010
1111111111111000
110111000
1001000
1001010101
1100101000
10001111010
1000000010
1111111110110001
1111111111101001
1111111011001101
1111111101001110
10111000
10101
1011111000
10011111111
1111110111100000
1111110001101010
1111111011100101
1111110110111000
1111100110010000
1111100011101010
1111110001101101
1111110010
1100101100
1011000001
1111111010100101
1111111110100001
1111111011100101
1110110
1111111001101010
101011111
1001110011
1011010100
10010100110
101111011
1111111100101110
1111111100111100
1111111110000011
11000
1111111101111110
1111111101000010
101100
11011010
1111111011000000
101
1100111
1111110100111010
1111110000101010
1111101100011001
1111111001111111
1111100110
1000111111
1100001011
1111111101001100
101011110
1111110011100000
10000110
1111111000100000
1111111011111001
1000010101
10011000110
10101100101
1100001111
101011111
110111110
1111111100101010
1111111100110010
10000010
1111111100010111
1111110100011010
100000010
100011101
1111110001010011
1111110111101111
1111110001010010
1100100111
1111101011001111
1111101101010010
1010001101
1001000
1111111110011111
1111111001110001
1111110111010010
1111110111011101
1111110110011000
1111101101001001
1111111100010100
1001110011
10000100011
10100011000
1101101011
1101000000
101010011
110101100
1111111110000101
1111110100100001
1111111011000010
1111110110000010
1111111001001001
1111110001000011
1111111110010100
10010000100
1011110100
1111110010001000
1111110100000111
1111101100110000
1111110100001110
1111100010101111
1111101011011011
1111110010100010
1111101111100110
1111110010010011
1111110100001001
1111110101011101
1111111101000010
1111111001111100
1111000110
1110100110
1011001110
111011011
100001000
1111111101001000
1111111000011011
1111101101010011
1111111001000001
1111101101100100
1111110001100101
1111110001110110
10100010100
11100011010
1001011001
1111111011111110
1111110101111011
1101011111
1111101011101111
1111011101100011
1111101111010101
1111110110101011
1111110111001110
1111111010110000
1111111100110000
1111110110010100
1111111110111011
1111111100010000
1011001100
11001010100
1100000010
1001000101
1001001110
1111110101101010
1111110010100111
1111110011000111
1111101110100011
1111111100011000
1111101110101110
1111111101110100
1101111110
101011111
10010111110
1111110001101101
1001000001
10101001011
1111110100110111
1111111001010001
1111101001110111
1111111000000010
1111111001111011
1111110111101101
101111
100010000
1111111011100011
1111111011000111
1111000011
10111000001
1001011111
1000000111
1111110111011000
1111110101110111
1111101011011010
1111101011000001
1111111000011110
1111111101100000
100011001
111010101
10100111111
10101000011
10111001101
1111111100110000
1111111111001101
10100010110
110101000
101000111
1111110000000100
1111111010000000
11101
1111111010100010
1111111111110101
1111111101000100
1111111001111110
10100100
110100110
1001100110
1111111111110111
1111111000111010
1111110011000111
1111101011100011
1111110100010011
1111110001010011
1111111011100111
1111111110011011
1000011010
1100011011
10000000101
10110011110
100011110011
1011111110
11010000
1101100101
10000010011
1000111011
110010111
11010
1111111010100111
1111111100001110
1111110110000011
1111110100110011
1111111011001111
1111111100111000
1111111001111010
1111110111011010
1111111101100111
1111111100010111
1111110101100001
1111110000000001
1111110100111010
1001011
100111000
1011110101
10100101100
1110011010
100010110
11001
10100010011
10011101
1111101101110101
1111110010110101
1111111001100010
1100100
110011011
100110101
101100111
1111111001110100
1100000
1111111111000011
1111110011101101
1111110010111111
1111111111011101
1111110110110100
1111111010010000
10101101
10000001
1111111010111000
1111111110101011
10100101
1000000000
1010001011
1110101100
100111100
10100100
1110001000
1101111110
11000001
1111111110111000
1111101110100101
1111111101001011
1101010111
10101100
1100101001
10111011101
1010010100
100100011
101000000
111
1111111010011110
1111111111111100
1111111000000011
11000000
1111111110110110
100110000
11001000
1000110
10000110110
10010010101
10001011011
110000101
1111111110011100
1111110100101010
10000010001
101011111
11110001
1101011110
1111110110101000
1111111101101010
1010100111
1111111011011000
10010101001
1111011101
1010100110
1010001010
1111111110001010
101001001
11110011
100010000
1111111000110000
1010101
1111111001101000
1111111101011011
1111111101011011
1101001100
1111111111010110
11010110
10101011
1111111011110000
1111101101001100
1111110101111011
111100
1111111100100001
10101010
1011001011
1011001
1111111001000010
10000111001
10010011100
10001111110
10011100111
1001111110
101010100
1000100001
1111111110101011
1111111101011110
1111111100010100
100110100
1111111101011100
1111111100110100
1111111110101111
11110000
110001110
1010010010
10100011
100011101
1111100
1111101110110101
1111111010100001
1111111101101010
100111
10011001
1111111110011000
100010111101
1111111111001111
1111111110100111
1111111100111010
1001110111
10100000011
1000010101
11000000
1111111011010000
1000100010
1010010
111101010
1111110101010100
1111111110101001
100101100
1111111111100001
10010001011
11111011
100001100
100001001
1010000000
1010010000
1111101011111010
1111111100100111
1110110011
1110011
101000
1111111110111001
11000111101
100001101
1001100000
1111111101111101
10010011011
1001110111
110011001
1111111100000000
1111111011110000
11110110
11111100
1111111011010000
1111111011011001
1110110
100001110
1111110010101001
1111111101001011
1000001011
1111111001010100
1111111101111110
11011
1111111011001011
10010
1111111101101011
111101000
1111111010110110
101000111
1111111111100110
1100000101
1111101010110001
1111101101111010
11101000
1011011111
1100110001
1011000110
1111111011110100
1010101010
1111110110010000
10000011
1111111101101000
100111001
1111111001101000
1111110110000001
1111111001110100
1111111110000001
1111111010111010
1111111100001100
1111101100111010
1111011010010001
1111100110101100
1111100110010100
1111111110001100
100101110
1110111
1111111100000110
1111111100100011
100100010
1111111001100011
1111111111001001
1010110111
1011000101
10001
1111110111101011
1111111000101111
11001
1001111000
1111111001101011
1111110111100100
110000100
1001011
1111110111100111
1100101
10110
1111101100100100
1111101101110100
1111101000000011
1111110110101100
1001011101
10101111
1111111110100000
11110010
1111111101101101
1111111101000001
10111
1111111011010000
1111111110000001
1111110110111010
1111100001011000
10011
1111111100000101
10100000
1111111010111101
1111110010001000
1111111011111110
100110
1111101111011110
11111110
10001100111
100110000
1111110001101011
1111111111110100
1111110110100110
1111101101110110
1111111010111100
100000011
1010
100011001
1111111111000010
101000000
100011111
