1111111101000110
1111111011111111
100100
1111111011011010
1111111011011001
1111111011110111
1111111111010010
10001001
1011111
10000100
100000101
11011
101110111
101010000
100101100
1111111110000001
11100110
1111111111010101
11000010
10110101
1111111101101100
101001000
11001000
1010000
1111111110110000
1111111101101101
11001011
1111111010110110
1111111100111011
1111111110001111
10100011
101001001
10110101
1111111111011001
1111111100111000
1111111101101011
100100010
1111111100111010
1111111110100100
10100111
1101000010
111110111
1111111101010111
101000000
10000000110
11000001101
1110000001
10000001101
1011011001
1011011
110011001
1111111110011001
1111111011101001
100001100
1111111111011111
1111111011001111
1111111011111010
100001001
1111111011111101
1011010000
1011100110
1111111111001000
110010
111111111
1101001000
1111111110001100
1111111000000100
1111111101010011
1111110101101101
1111110011011010
1111100100001110
1111110010011011
1111111111010100
1001101110
11100000001
1000011100
1100100
110000100
1111111011101010
1011101010
1111111101111100
1111111111010111
1101000
101000001
100011000
1111111010110101
1111111000010111
10101001110
11000000010
111011011
110110100
1001110
1111111011101100
1111111101000111
111
11011100
10010000
1111101011010101
1111110001100011
1111101110101101
1111111001111100
1111111110111010
100101110
1111111110100100
10010101
1001101010
1100001100
10001001110
100001011
1100010101
1100010100
100011011
1111111101110011
1111111011111010
1111110011110101
1111111100110000
1111111101100011
111100010
101000110
1111111111010110
1111111111100010
1111111011011001
1111110101100100
1111111100110100
1111101110101100
1111111100110111
1111110010111011
1111110011011101
1111111010110010
100001010
11011110
1111111000010100
101
1001000110
110011
11100000111
10101010000
10110011100
1111111110000110
1111111000110010
100101100
1101001
110010
1011110001
1111111100111100
1101000101
11100001
1111111111001010
1111111011111010
1111110011111100
1111100000111110
1111100000011100
1111101100101111
1111110011000000
1111111000000010
1111110100111110
1111110101111100
1111111011000001
1111111000010001
1111111110000011
1101101100
1111111111001101
100100100
10001001
1111111110001001
1111110101001010
111001110
11
1111111100101101
1111110100010010
1111111011011110
1111101110001110
1100100011
1000101100
10101110
101010100
110101
1111110000010000
1111100011110100
1111100010111100
1111110000001100
1111101000101101
1111110110000101
1111110110101011
1111111111000110
1111111111110001
1111111011010010
10111000
1010111111
10010101
101111000
1000001110
111110010
100100101
11101011
11011110
1111111011111110
1111111111101110
1111111000101000
1111101111011001
1111111010000101
1111110010110010
1111110010000110
1111110111111010
11100000
1111101100000110
1111110100101011
1100111
1111110000111010
1111111000110010
1111111100110010
1001000
110100011
1011010
11001100
1111111100101000
1111110110011000
110010100
1100010100
101000111
11000001
10111100
1101010
10001011
1000111110
1010011101
1111110000111000
1111101100101101
1111110100001111
1111100111110010
1111101110101110
1111111100111011
10100100
1111111101001011
1111111111000101
10101101
1111111110011010
1111111110100110
1111110101110010
1111111011110000
1001100011
1001101011
100010001
1111111101101100
10111001
1001101011
10001110000
1001001011
10001000010
1101111
1111111011011110
1000101000
1000001
1111000000
1111110100010110
1011101011
1111110010110000
1111110110110111
1111110010010011
1111110111110101
1110011
1000110001
111110110
1011111010
1101010011
1010011010
11000110
10100011
1111111111100011
10111011
1111111111000100
1100101100
100101011
100111111
1111111010000001
1010110000
11001101100
1111001111
1111111001010100
1111111111010001
1111111111000110
1010011110
1011010
1111110110111110
1101010
1111111111110001
1111111101110001
100100
110011100
1010011
111010
101000000
1110100000
1101100001
1010000000
110011000
100000100
1111111011011111
1111111101110111
1100000
1111110111101010
1111111011101101
1111111011001011
10011100011
10101110111
1111011010
1001011000
1111101011111001
1010100
10110111
11101101
101100011
1111111100011111
1111110111100110
11101001
1110001001
1111101111
1111111101101000
1111111100110011
10001001111
10101010101
1001110100
1100010110
1100110
1111110101111010
1111101101011110
1111110010100101
1111101110011000
1111101111011111
1111110001000011
1111110011001011
1111001
100111001
10100111100
1000111110
1111111101101101
10001
1111110111011110
101010000
1110001001
100001000
1111111110101001
1111111110100010
10101110
1011111
1111111100001011
101110100
10100001011
1101101010
100001110
100010100
1111111101111001
1111110000010010
1111101111111110
1111110000101100
1111111010001100
1111110000100010
1111101010110110
1111101111101010
1111101100010000
1111111010111011
1001110100
100000000111
1111111111010111
1111110101110000
1111111001000000
10000
1111011101
1101010001
1001010100
1101110110
1101001100
1110101
1111111011010111
11111100
1001011100
1110000011
110011010
10001011
1111111001111101
1001110
1111111111011011
1111111000110110
1111111110011100
1111110000011011
1111111100000010
1111001
1111111011101101
1111111001101111
1111111011111101
1100110101
1111111110111111
1111111101111010
1111111111111011
1111111101011110
1000010011
1011001001
110101011
1010110000
110000001
1111111110001101
1111111100010011
1111111111110100
1110111
100010
1111111100011011
1111111110001001
100110100
1111111111001010
101010110
110010010
10100
11110000
101111011
1111111110010001
1111101101101110
1111111010000100
1111101110111110
1111111011011001
11011100
110100110
1111111111111100
1111101101011001
1111111001000010
101001110
111011010
1101110101
1111111111010101
1111111011011001
1111111010001011
1111111100101101
1101100
1111111001110100
1111111001000100
1111111011011001
11011000
1000001101
10001000101
1111111100101011
1111111110101011
11000
1111110110010011
1111100110000010
1111100010000010
1111110010111010
1111110011010011
1000011110
1111110110011011
1111111011101010
1111101111110111
1111101000111110
1111111011101010
1001111110
11111101
1100001110
101101001
1110000
1111110111001100
100010000
1111111001000010
1111111110011010
1010011
1111111110000010
1100001010
1001001011
11101000
1111111010001010
1111110101010011
1111111010100111
1111110010101100
1111101010000100
1111011101010001
1111101001110001
1111110100010010
1011101001
1000000110
1111111101001111
1111110101101011
1111111000101110
1111110001101011
1000101001
1001101001
10111011001
1000100101
1000011010
1000010111
1111111100001100
1111111011101011
1111110011101100
1111111000101111
101100111
10001010000
10001100100
1101011100
1111110100100011
1111110111000010
1111110111001010
1111111001010010
1111110010101010
1111101010001011
1111111111011001
11110011
10011011000
100110011
1010000011
1111111111011100
1111111010101110
1111100010001111
1111111001000001
100110101
1111000001
1011011000
111000011
111001001
100100110
1111111001001001
11000
101111101
10011111010
1100100111
1101110000
1000111010
1111111100101101
100001010
1111101100011111
1111101111010111
1111101110111000
1111101001011110
1111111011001011
110110
101100100
1111111101001111
1111111100010100
1000001001
110010010
1111011110111000
1111111101000110
1000110000
1011011
100001011
101000001
11010011
1111110011110111
1111111000010011
1111011
101010001
10000101000
100011000
1111111000100010
1111111100001101
10100
1111110011101100
1111100110110111
1111101100111110
1111110111000010
1111110000100111
1111110101101110
1111110011100110
1111111010001000
1111110010111011
100010
111101011
111001
1111100110000101
1111110000010111
1000110110
1111111110000011
1
1111111100110111
1000010001
101011010
1111111011001100
1111111000001111
11101100
101110001
1111111001010001
1111100111010001
1111110001010000
1111100101110100
1111100000111111
1111101001011101
1111111000110001
1111110110000110
1111110010010000
1111111010010001
1111111101110001
1000000
110111001
1111110100110100
1111111001110010
1111111110101110
1111101110111111
1111110001100000
1111111110011001
111100001
110000111
100001010
100001100
1111111111110111
111100010
100101001
101011011
1111101
1111110001001001
1111101001000101
1111101010000001
1111100111100111
1111100101111011
1111110100001111
110010010
1111111110110111
1111110101101010
1111110101100010
1111111001110110
10010110
1111111100001000
1111111100010000
1111111100000011
1111111101101000
1111110100110101
1111111100010010
1111110111111011
1010100011
110101011
110010001
1000011111
10111101
1110011
10100010
1111111111010000
1111110101101001
1111101011111110
1111100111011101
1111110100101011
1111110111100110
1111101111001001
1111110011110100
111011100
111011110
1000100001
1010010
110100000
10010000
1111111100010010
1111111101101111
10000101
1111101000011111
1111110001101101
1111111110101111
1111111111101011
1111111100100011
1001101000
110010100
10000
1111111111111010
1111110100111011
1111101111100011
1111100101100010
1111100011010010
1111101101010000
1111110101111101
1111111001000111
1111101101000000
1111110001110111
1111110110100010
1111111110010111
10011110
110000000
11010100
1111111001100101
1111110001110101
111101
100101
1111111110101100
1111101010011011
1111111111101000
1011001111
1111111101101000
100101110
100011011
1000011100
1111110111000001
1111111000110101
1111110110011001
1111110110001100
1111110000011011
1111101001101101
1111101110000000
1100001
1000110101
1111101111001111
1111110100110100
1000110100
1
1111110101111111
1111110111110111
1011010100
1111101101000000
1111111001110001
1111111101011101
1111111111111010
1111111110011001
1111111100101111
110010101
1110001111
10001101100
1111111011111100
1001100010
1111111000000000
1111110111111100
11011110
1001111110
110010111
1010011011
1001010011
1001111011
10001101110
10000110011
1111111110101000
1110110000
11100110000
10111000101
10000111111
101011000
11100011
11010010
1111111001111001
110000
11100000
1111111011001101
1111111101011101
1111001010
11011111100
1101101011
1001000011
10000010111
10000001000
1101001100
1001101101
1110001001
11010111000
100001111000
1010011101
1011011000
10001011
1100111
1111111111001011
11110101
1110100001
10000000001
1010011011
1111111100111000
1111111111100110
11000111
101001100
1111111111011000
101001
101001111
11011101
100111111
1111111001101111
1111110100111001
1111111101010100
1111111111100011
110
1001010011
10000111011
11000110001
10100110101
111100
10111101110
11001001100
1101001010
1111110011100101
1111110100010101
1111110000100111
1111111010000101
1111110111101010
1111111001011011
1111111000001101
10010000
1111111111010000
11111100
1111111110000110
