1111111100100001
100100111
1111111110101111
1111111110010011
11011000
11011000
1000110
1111111011010010
10000111
11111110
10101101
1111111101000110
10001110
1010000011
101000010
101011110
1111111110010011
1111111111100000
100111011
1111111111110001
1111111101111100
1111111011011010
100001001
1111111111000011
11101010
1101100
1101110
1111111011111101
110110
1111111111100000
1111111110011011
101000100
1111111100110101
1111111011011110
1111110110010011
1111110001010001
1111100111101101
1111101011100101
1111110001111100
1001110110
1011001100
1010011111
1011000010
1111110101101000
1111101101011111
1111101110111010
1111101000001111
1111101101000010
1111101101010001
1111110100111010
1111110100000000
1111111000111100
11100
101011011
1111111100110110
1100111
101011111
11011101
1111111110100100
1101011
1000010010
1111110110101010
1111111000010010
1111111001001010
1111110001110000
1111110111111110
1111110101000101
1111111010000101
1111110100100010
11011000
1010010
1111110111000100
1111110000010100
1111110110111111
10101010
1111111110100001
1111111110000001
1111110111110010
1111101001010011
1111100111110001
1111101100110110
1111110111001110
101000101
1111111101000010
100000101
1100001
1111111100110100
1111111000101001
1111111100111011
1111111100111011
1111111000100101
1111111111011010
1111111001110000
1111111111110010
1111101110100011
1111100010010010
1111100011111101
1111110010011010
1111110100101111
1111111111101011
1011000001
11101001
1111110000110001
1111101011001100
1000010
1111111000010110
1111110000101001
1111101101101001
1111111000001100
10000111000
1111111111001001
1011
1111111111110010
1010111
1111101110001010
10000010101
1111111010011001
1111101100000011
1111101110100000
110001010
100100111
1111010
1111111111010110
1001110
1111111100011000
1000001100
1001111100
1110111011
111100011
101101000
1111110101001111
1111110011111111
101110
1111111001001001
1111111001011010
1111110110011001
1111111100110101
1111101101011100
1111111100100001
100110110
1010101
100101001
1111110000100100
1100000100
1111111010011000
1111110011000000
1111111110011101
1111111000111111
1111111011110010
1111111101000101
1111111101010111
1000
1111111110000000
1100000111
1100110001
1010010010
10100000
1011001110
100001011
1111111010001000
1111110001110011
1111110010111001
1111110110001100
1111110001000111
1111101111011111
1111110111101011
1111111001100100
1111111001010000
100011011
11110
100101110
110000100
10000010
1111111100011000
1111111000000111
1111111101101111
1111111000110100
1111110010000100
10111100
10010101
111011001
1111111100100001
1111111010111010
1111111110111100
101100111
111100010
1100101100
1010010001
1101001110
101000001
10111
1111110111101001
1111100000000101
1111101011001011
1111110111010101
1111111011001101
1111111101000010
1111110111110011
1010110110
110110000
1000111100
1111111110011110
10010100
111101
1111110101111101
10100000
10101111
10101101
1111111111000111
1011000
1111110111001000
1111111110001010
10110010
10010011000
1111111111
1010001100
110110111
1101101111
10001111101
1010000
1111111011011000
1111111010011000
1111101011010110
1111111111101001
1101010101
1111110100010101
1001000101
10100001101
1111111000110110
1111101111111101
1001000011
10010110
1111111101000010
1111111010100011
1111111111100001
1111111110000100
1111111010011011
1111110101101101
11000101
11000011
10111110
1100110011
1111101011
1111111000
10001111
101111001
110011101
1111111111000001
1111111101001110
1111110111110110
1111110011001100
1111111000011010
100000110
1111101111011111
10010000100
11101100
11101110
1111111010001101
11111111
1111111101001010
1111110111010101
1011100
1111100
1111111001000001
1111111011111010
1111111101010111
100011
1011001
1111110111011011
1111111111111010
1011000101
10110100100
1100100110
1010110001
1111111011101111
1111111110000111
1111100
1111110101111010
1100100101
1111111110011101
1111111101011111
1111111001011010
10100101
1111111011011111
1111111010110011
1111111100101011
1001010
1111111110010110
1111111101001011
1111111011101000
1111111111010001
100010101
1111111011101111
1111111000010011
1111111110001110
1111110000110111
1111110001111010
1111111000100110
100001010
1101101111
11110101
1001100011
1011101111
1101000100
1111111111011001
1111111011101101
1111101111100000
1111111101011111
1000111
1000110010
111110001
1111110000101100
1111101110010010
1010100101
111000111
1000001
1111111111001110
111101
100100001
11000101
1111111011010111
1111110111011000
1111110111110011
1111110001100101
1111100110011010
1111101100101101
1111101100100101
10010101
10101010001
110110010
1110010111
1010011000
1010010010
1110101
1111110011110111
1111111100001101
100101101
1111110100100000
10011010
1111111011110010
1001010111
1110110111
1000100111
100000110
10010011
1111111101110100
11011100
1001110
101001011
1111111011110000
1111110101101100
1111110100000001
1111100111010101
1111100110110001
1111101110101010
10001010110
1101101100
10001000001
1100001111
10011101010
110101111
1111110011101110
1111111010010110
10100001000
1111111100100110
1010110111
1111111010010100
10000010
1100011110
1110001101
1101010101
111100110
1001011001
1001101
1110101100
101011001
1000111100
100101
1111111011110011
1111110111010011
1111101100010111
1111110010000110
1000011
10000101010
10100010101
1110111101
10001100001
10001100110
11001100
1111110101010000
1110010010
1101011011
1111111110100100
1111110001000111
1111111001001001
101011111
1111101110
110001100
110011000
110010000
100000011
100101001
1010010000
111111001
1100010111
10111101
1111111100010000
1111111011101001
1111101110101110
1111110010001000
1110101010
11101000111
10101100001
1110111001
100000000
11010010
101001011
10101011
10110011011
1010011110
1111111011101011
1111101111111111
1111100101010010
1111111101101110
1010010101
1010101101
101000110
1101111
110100001
1000011011
10000000101
1110001011
1111111101101010
10011000
100000
1111110100100110
1111110010010100
1111111010101001
10001111101
10101100111
1110100000
110101001
1101100011
11011110
10111110
1111110011111101
1111111011110011
100111100
1011010
1111110000111110
1111110010000101
1111110001010001
1001
10101111
1100110
101101100
100111
101001100
11101000
1111111010010101
1111110010100110
1111110100011001
1111111101100001
1111110100111000
1111110000101000
101100101
1100001000
1010010100
110011001
110010
11000100
1111110000001010
1111101111011111
1111101000000101
1111111111010011
10100000101
11111010
1111110110000111
1111111110101100
1111110110001101
1111111111000010
1111111110111101
10110011
1111111011110000
101001010
1001010110
1111111111100000
1111110011100110
1111110111110111
1110
1111110
1111110110101000
11100111
1111111100010011
1010101
10000
1111110010011010
1111110110101001
1111111001011101
1111101111100100
1111111101001101
1111111000001110
1100010011
10011101110
1111111011010011
1111111001110000
100110110
1111101000010011
1111111001100001
10001110
10010110
1111111101010110
110111100
110010011
1111111100100110
1111111001110111
1111110111001001
1111111001011000
1111111010000111
1111111001010000
1111111111111010
1111111111000011
100101001
1010
1111111011000010
10000001
110101101
10001011
1111111010100001
1111110010001000
1101000000
1101110000
10011101
10010000101
110001
1111110011110011
1111111111101000
10111000
111010011
10011001
101100100
1111111011110110
1111111011000000
110111
111
1111111101011101
110111100
1100111
1111111011000111
1111111111011001
1111111110101001
11101
1111111110101111
101011001
1100001110
1011011111
110110111
1111110000100010
11110011000
1111001111
100110011
10100010010
1001111011
111110101
111000011
1101101101
11111011
1111111100101011
100000100
1111111110001001
1111111011001111
1111111110100001
1111111100101111
1111111100000101
1111110111010100
1111111111111001
1111110101101001
1111111010110000
11010011
11110010
1111110111100000
11111010
1111111111100111
1111011101
1001010011
1111110110011111
11111110001
1111111010011111
1111111011000000
10001101001
10000111011
1011011010
10000111110
1101000100
1011001111
1011010
1111111110100100
11
100001111
1001010
10101000
1111111101101010
1111111111110011
1111111100100000
1111111110000111
1111111011011011
1111111100001111
1111111011001100
1111111010011000
1111111111000111
1111111000011110
10
10100110
1111110000101001
11000000011
10110111
1111111111010110
101001010
111100011
1101111100
111101010
1010101110
1100111111
10001100
1010111101
100001011
1111111111111111
11101110
100110
1111111011100101
1111111010100011
1111110111000111
1111111000011101
1101
1111111011101000
1111110011010110
1111
1111110111011011
1001000
1111111110110010
1010000011
1111111000000110
11000
111111001
1111111111010000
1111111111111111
1111101011010000
1111110110011001
1111101100100001
1111111011011011
1111111111101011
1101100
1111111110001101
1111111111001110
1010111
1111111100000011
110
1100101
1111111010010100
1111111100010111
1011110
1110010
1111101110111000
1111100101010110
1111101010010110
1111101111001010
1111110111010010
1111110011111100
1110100110
1111111101000010
1111110011001001
1111111010101001
1010101
100001110
1111111101111111
1111111001010010
11001011
10110110
1111111
1111111010111000
1011011
101110110
1111111101100100
1001001111
1110101001
1000110001
1111111101100100
1111111000111110
1111101110011110
1111110000100010
1111100101110010
1111100011011011
1111110001111111
1111110010010011
1111101011001110
1111101000110010
1111111110011110
1111110001110100
1111111110111011
100000101
1111111011000011
1111111101110001
100100110
1111111101010010
110011111
1111111111011011
101101100
1111111110011011
1011110011
1111000101
1101001111
10010010001
1111111111010101
1111110010101011
1111110110000101
1111110110100001
1111110011011011
1111101001110001
1111111001101110
111011101
11101110
11110111
1111111001000111
1111110010010011
1111110111001101
1111111100011010
11111101
10001011
111000
1111111010111010
11111011
1001000
111100001
1111111111100110
111000
1101001011
101111000
1111111110100011
1111111100001001
101000000
101010010
1000111100
1111111010011110
1111110111001110
1101110
1111111011010011
11111010
1001010100
10001010001
101110001
1111111101001100
1111110110111101
1010100010
1111111110110010
10110011
1111111011111100
111111
1111111101001100
101010110
111101
110011011
1001001
1100110110
1011100011
10000110100
1001101010
1111111001001110
10011001100
11000010101
1111111101011010
1111110111110101
1111111101101000
100000000
101011000
11111101
1111111111111000
1110111111
100100110
1111111000000111
1111110011100001
100110111
1111111110100111
1111111011111000
10010011
