101010001
1111111010110010
10101100
11100001
1111111111100000
10001110
1111111111101111
1001000
1001100
10010110
10100
100010010
1001101110
1100100001
1111111001010011
1111111110010011
1111111110001010
11011010
100110101
1111111011001010
1101001
1111111100100011
1000001
111111
1111111111110101
1000
111111
101011110
1111111100001001
1111111011001001
11010010
1111111101100010
10110000
110111000
1001010110
1111001000
10110001110
11101011010
10101001100
1111111111101001
1011111110
1011110011
1111110110111010
1111111001011101
1111111011011000
1111111110001001
11110011001
10110111101
10101000000
10001001011
1001101100
1101100100
1111111100111010
1111111100010000
1111111100101000
1111111101110101
1111111010100011
1111111100100001
1111111011101101
1111110111110101
1111111000001100
1100101000
10010000111
1101011010
10110111000
100001011
1111111111000111
1000110000
1001101100
1111110111100111
1111111111011111
1111110010001101
1111111010111000
10000100
1111111000100111
1111111011100100
1111111010111100
10100010
1011000101
10111
1111110111001010
1111110110011110
1111111011100111
11101010
1111111111100110
10001101
1111110001000001
1111111100101000
1110001
10010101111
10110101001
100110100110
10110101011
1111110111110110
1000100
10000010011
1111111101010011
1111110000101011
1111111110110000
110100110
1111111101100010
1110111
11101111
1000101010
1010100101
1111111000
11010011101
11100110010
1011111111
1111111101101010
1111110001100000
10010001
100100111
1111111111101100
1111111011100101
1011110011
11110111011
10001100100
1010110000
111110011
1011011100
1111110110110100
10010011
11010100
1111000
1111111101101111
1001101111
11000001
1011010011
101000011
1111111011000010
10001000100
1110000011
111010000
1110100100
11001111010
10001000010
10001100100
110000110
1100011101
1111111100111001
100101010
100001110
1111111011001110
10101010000
1011010111
101111000
1000000101
1011010110
1111111011100100
1111111011110000
100001011
10000111011
11011010
110100110
1011
10001111110
110110011
1111111010100110
110111111
1100111100
1111111100100001
100000
1000011001
11101010010
10111111011
10101000100
1001000100
1111111100011001
10000101
10011111100
101011000
111101101
111001101
1100000000
1101101100
110001011
1100011101
1111110111010001
1111111011000101
1111111111001011
1111111101111100
100011001
1010110011
1100110
1010100000
11101101
1001100100
1000001000
1101110
1111111011111110
111000001
10011100110
11011111100
100001001
1111110101101011
1111111111011100
100001100101
1110101011
10100111
10010010010
101000100
1111110101000100
1111111101000111
10010111
100011101
1111111111011001
1111111011101010
1111111111100010
11100
1111111111000011
11011111
1111111011101101
1111111000010011
1111111110001011
1111111100111000
1111110010101011
10001110
100011
101001110
1000101010
1110000000
11110011011
1111111101000010
1111110010011010
1111111111010000
1110001001
10001011011
10110001110
100000010
1111111001101001
1001011111
10100
1111111110000010
1111110110001101
1111111011101011
1111110110110100
1111110110110100
1111101110001011
1111101011100011
1111110101100111
1111111000101100
1111111100001010
1110101
1111111010111100
110001100
100101001
111000101
1011110000
100100111001
11100111111
11001011000
1111111000011011
110110100
1111111101111111
10000001
101001111
101000101
1111111101101101
1000
1001011001
1111111010001000
1111101010111101
1111101111101100
1111101110001111
1111110011111110
1111110001111110
1111101010110110
1111110000111000
1111111110011000
1111110110101010
1111000
1001011001
1100001001
1000011100
1011001001
10000111101
101010100100
100101001010
1100110110
1000010
1100111000
1111111111011101
110010010
1011010100
1111110100100111
1001101
1111111011100010
1111111110010110
1111110011011100
1111110001011000
1111110011110000
1111111101000110
1111111001111100
1111111000001101
1111110101010111
1111110001101110
1111101101011001
1010
111100011
1111000001
111110000
10010100011
10011010101
10110101000
1100001000
11000010111
1111110100001110
1000
1111110000111111
110011000
1111100010
10110000011
110010111
100101101
1111111001111000
11000100
1101101
1111111010101111
1001
1101111000
1010110110
1001111110
1111111010000000
1111110110010110
1111110001111010
1111111010100011
1010101
100010011
10001000101
10001001111
10110100011
1110011011
1101010010
11000000010
100111001
1001011
1110000011
10010100
10101011110
100010001
1100011000
1111111101100011
110001100
101001010
1111111110100000
101001101
1010111100
1110111000
10001011011
10011100011
10001101
1111111101110001
1111111110101101
1111111100010111
1111111101011100
110111110
1001100101
1000011
1010101100
1100101100
1000011110
10011110101
100110101
1111110100101011
1111111010101100
1111111001011010
10001111110
100011011
10101100110
111100000
101001000
100011000
1110
11100101
10100110011
10110000111
11000101101
1011010100
1111011110
11101000
1111111111110010
11000
1011001010
1000011011
100101100
1111111001111011
1111111000101101
1111110100010001
1111110101000100
1111110110110001
1111111101000101
1110000
1111111110000011
1111110111101100
111010011
1111110111111001
1111001101
10111010000
110101
11111010
100000111
101101001
10010100100
10010010010
10000111110
10100011100
101001011
110011101
111101000
1100100
1010100010
100100111
1111111111011001
1001
1111110111011111
1111100110001111
1111110111001001
1111011110101111
1111110001111110
1111110111001001
111000001
1101110100
11011110111
1111111011110011
110111100
11010011000
111001111
11111101
111011
1001000011
10111111101
1001001010
10010010111
10111101100
1010100011
101100011
1010111111
110000101
1100111110
1010000110
111110
11010011
1111101111111010
1111100111011111
111001
1111101101010011
1111101101111000
11010001
1101010111
1101010101
11101100000
1111111110110111
1111111111010010
1110011011
10100111
10101
110110011
1001001
1001110101
1100111011
10100111101
111001001
11011101
1000011001
1000011110
110011101
11101010
110100000
1010001
1111110111010010
1111111101110011
1100010111
1011011001
1111101101111100
1111100010101000
100010101
1100100101
10101011
1011110111
1111111000001010
1111111100000110
1100100011
1100000011
1111111110111100
1111111000000111
1111101111010010
101011101
100011100
1101101100
11000000
10101001
1011011100
1101001101
101100100
100001001
100101101
1110010101
11001
1111111100101011
1000101
1111110000110100
1111111011010100
1111100000110011
1111110010000111
1111111101101110
1010101011
10100111000
1111111111110110
1111111110110011
111110001
10010011
1111111111000010
1111110100101011
1111111001001010
1111111101110111
1100001000
10000000001
111011111
100010010
10110010
100100010
101111
1101100010
1111110011
1001000110
1111110110011010
1111110011111011
1111111101101101
1111110011101101
1011011
1111110010010111
1111111010111010
1111110111000101
1111111101100111
10100100010
100000010
110101010
1111111111000010
1111111010101001
1111111011000100
1111111101101111
1111111100111000
1111110110110111
1111111100001001
1111111010010100
1010
11
111010000
1011001101
101100110
1000011110
1111010
10101000
1111111000111001
1111110100101010
1111111010010101
1111101010101011
1111111010100101
1111110111111011
1111111100001110
1111110011100001
1111111111010000
1111111011000110
10011110
1111101100010100
1111110111010000
100100111
1111111011101001
1111111111111011
1111111101111011
1111110110011101
1111110000010100
1111111010101001
1111110110000110
1111111000110111
1111110101011010
1111111110000011
1010001101
1111111110100010
111000011
1111110111111110
100010110
1111111001110011
1111110111110000
1111100111010000
1111110101101011
10100001
1111111000101101
1010101010
111010101
1111111011000001
1111111001011010
1111101110001100
1111100
11000011
1111111111000110
1111111101111100
1111111011010001
1111111011110010
1111110101111000
1111111000110011
1111111100010011
1111110110101110
1111111011001111
101010001
1110100
1010010
11100000
1111111111011011
101100110
1111110111011100
1111101000000011
1111111001101011
1111101101110001
1111111100110001
1111111100101101
1111111110100011
1111111111000011
11001001
1111111000110101
1111110100010101
1111111011011010
11000
1111110111001001
1111111010000000
1111111011011110
10010001
1111111111101110
1111111010100101
1111111010011100
1111111001111001
100111
10010110
1111110011111100
101001
1111111111110111
1111111100101001
10100110
1111110001000100
1111110110111101
10011000
1000100
1111111010011011
1111111010110101
1111111100010001
11010000101
1011010100
11000110
1111111101110010
1000111
1000010100
1100110001
1111111011111100
1111111010100111
1000101000
1111111110101011
11000010
1111100
1111111100000010
1111111100111110
1111110001010011
1111111110000010
10101100
110101110
101000
1111111000101101
1111110100101010
1111110011101101
1111110101111001
100100
10010
1111111011001100
1
1011011000
11011110101
10111101101
1001101000
1001011011
1100111110
1110011011
1110010101
1100001011
10100010110
1100010101
111001000
111001110
111100100
10011101011
1111110011001110
1111111100010010
110101100
101001000
1000100
1111110101110101
1111110110011101
1111100010101011
1111110001100100
1111110010111010
1111111110111000
100001101
1111111101101010
10001100111
1111110101110001
1001001110
10001000111
1111100100
11111010110
10101010000
10101010001
100101110000
11101010001
11100010111
101110000
10001011
10101000001
1011001111
1100110000
1100000010
1111010
1100010
1111111111100110
1011010
111111101
1111110000011010
1111110010101101
1111111011001111
1111111011000000
1111111100000001
1111111110110011
1111111101000110
1111111010011011
1111101111001001
1111111010110100
1111111001100100
1111111100011101
11101101
100010101
1101100
11001100
1011011100
1011000100
10111111
1111111011100000
1111111110100010
1101010010
111010
1111101101111101
1111101101110011
1111111101111111
1111111011010010
1101010101
1011100
1110001111
1111111100001100
1100001
1111111011111101
10111000
1111100
1100111
1111111110110001
10000011000
100000111
1111111110011010
1111111111110111
1111111010001110
1111110100111101
1111111000000110
1111111101110001
1111110011111010
1111100110111110
1101100001
1110011010
1111110110100111
1111110100101011
1101111011
100000000
1001001000
111100000
110111101
1111111101110101
1111111010100101
100100101
1111111011000111
