1111111111110000
101010100
1111111110101011
110
100000001
101000100
1111111011001100
1111111110100010
110100
1111111111000001
101010101
11010110
1111111101110101
100011010
1111111110001110
10100111
111100
1111010
1111111110011010
10010000
1101001
1101000
11011010
1110101
10001
1111111110110010
1111111010100001
1111111111011011
1111
0
111101
10001
11100001
11001001
100111001
100001111
1011000
1000100
1111111100111100
10001001
1111011
1111111001011011
100100
101110011
10111000
1111111110001110
1010001
1111111100101110
1100100
1111111000101111
1111111100010111
1111111110010111
1111111100100101
1111111011101000
10010010
1111111111000010
100011110
110110
1111111111101010
1001100
11010001
1111111111011111
1111111011100010
1111111110011110
1110001111
101000101
111111101
10100101
111011101
1111111111100100
1111111111100110
1110010
11011000
110000101
101111110
10111101
100000100
1000111111
11010100
1010100100
1001101100
100101101
1111111110100011
11011101
1111111111111010
10000111
1111111011100010
1111111001010010
10101111
10001010
1011001011
1001000110
10011000111
1101000
1011111010
10011110
1111111111011101
101010110
1111111111001100
1111000010
1000111011
110010001
10100101001
10101001101
10000110010
101010100
110110
1111110110010101
1111110111110011
1111110100101110
101
10000100
1111111111110100
100011001
1111110001110001
1111110100000110
110
11011001
100001100000
10010010000
1111111100000111
1000010100
10000010001
11100001100
11000011110
11110110
1111111000
10001111100
10100110011
11000010000
11010010110
1110010110
1100100101
101110001
110111110
1111111110000101
1110001000
10001110000
110110011
1000110
1001110
11010010
1111110100111100
1100110001
1101110110
1111110111000000
101111111
100110101
1111110100010010
10100100
1110001111
10101101100
10001100111
1100011001
1011111101
1111111110000010
10010101000
11001110110
10000101110
1011111101
11000100100
11001111010
10010011111
1111111101011111
1111111100101011
10110011000
1010100101
1111111011100101
1111111111111000
11100101
1001001011
1111111110001111
10010001
10110000
1111111101110101
11100
11011
111110
1000110111
10000010001
1100001101
111101011
111010010
1101000101
110001010
110011111
1110
1001011111
11001110
110111111
1001100111
110011110
1111111010010111
10110000100
10110010110
1001001000
1111111011011101
100011111
1001010
1111110110101111
10001110110
1101001001
1000111010
1111111010100010
1000000100
10111111
1010011000
11110001
100001
100100001
101010011
111000010
1111111100110100
1111111101000100
1111111011100000
1111110011000001
1111111010001111
1000011000
1110000100
1111110001001110
1111110000100001
110111001
1001110001
110110101
10010
1111110111001000
1111111000011001
10001011010
1001100011
1010110011
1000010011
10001011
110001
11001010
100100110
1111111110101001
1111111111000110
1111111101100101
1101001
1111110111010001
11100000
1010101
101011101
1111111111111010
1111111010111100
1111111101010110
101110011
1111111001010110
1111110011101100
11000100110
11110010010
11011100110
1111111101011110
1111110010110111
1111110001
1100010
1101011111
1101011001
10101111
1111111011000011
1001011100
111001
1111111010101111
1111111101011000
1111111011011001
1111110110001011
1111101110001010
1111110001101011
11111
100110110
100011000
110001100
101001000
1000010101
1000111100
10011100111
1000001110
111011010011
11111111110
1011110101
1111111111001010
1111101100001011
10010100111
1111111111100100
100000
1001010000
101011111
101011101
1100100001
1111111111111101
1000011111
100011000
1111111000111101
1111101110100101
1111101010101100
1111101101110011
1100001
10010110
110000000
10010011
110101101
111011001
10010010101
11000010110
1100111101
11010110
10100011011
1010000001
1111110111001000
1111110010011101
1111111011100111
10011100
1101111101
1000101000
1111111100110011
1111111100000000
1111111010101000
1111111010110010
1111110011110100
1111111101100001
1110101
1001001
1111110100101000
1111110011111100
1111110100000000
1111111100111001
1100101
10110100
1111110111110101
1011111
1111111010110100
1111111110111001
10101101
1111110101101101
11011100
1111101111011100
1111101111111111
1111111011100101
1111111111101010
100100010
1111110111111010
1111110110111110
1111101111000100
1111110011101011
1111111000111101
110000111
1111111011100000
10001110
1001001100
1010110001
11001100
1111110001001010
1111101110010111
1111111000111000
1111110101101000
11100111
11011101
1010101
1111101000111111
1111111010100110
10111
1111101001110011
100001000
1111111010010100
1111111011111010
1111101111000001
1111101111111100
10001010
1111101010101101
1111110110110111
1111110011001010
1111111100100100
1111111001010001
110100010
10010010
1111111111111100
1011011100
1011011000
1111111101110110
1111111101101110
1111101110000111
1111111010001011
1111110100010010
1111110100111010
1111111000111110
1111110100101111
1111110001001100
1111110000000000
1111111011011111
1111110000010101
1111111110010111
101100111
1001100100
1111101000101100
1111100100100110
111101100
1111101001010011
1111101011011110
1111111011001101
1111111111100011
1111111100011100
1111110010001100
1111110111011001
11000110
1111111111010000
1001101111
11111001
1111111000011000
1111110100000101
1111110110011100
1111110001010001
1111101001111010
1111101110111100
1111101010111100
1111101101100111
1111110010010011
1111100101001000
1111111001001100
1000011100
1100100101
111110011
1111110000101010
1111101011000000
10111111
1111101011100011
1111111010111011
100011111
101001
11100101
111001111
1111111110001001
1111111000001010
101001000
1100000010
1111111110000001
1111111100110110
1111110011100010
1111110100100000
1111110011000010
1111110000001101
1111110000011001
1111111100111111
1111111000011110
1111101110100100
1111111011100000
1111111101000111
1111111001001001
1100001101
1111110011100010
1111110011000010
1000010110
1011010001
1111111000110101
1111110101100011
1111110111110101
1111110111111000
1111111011000111
1111111110110100
1111111111000111
1111111011100010
1000011101
100010000
1111111011111101
1111111100100010
1111111000101011
1111111000111111
1111111000111101
100110
1111111100101101
1111111110000101
1111110011101011
1111111100101100
1111111011000010
11001011
1010010101
1111010010
1101100
1111110101010010
1111110101000111
10000000000
1000000111
1111110011111001
1111111010101011
1111110111111100
1111111010000011
10011101
1111111100110001
100000011
110110011
0
1111110111100101
1111110101101011
1111111101010001
1111111100100011
1111111101011110
1111111010111100
1111110110100100
100100010
1111111011110101
1111111001010010
1111110010110010
1111110101101011
1111111000000010
11000101010
11110110
1111111001101001
1111111001111000
1111111000100111
1111111111111011
10100110
110100100
1111111100111100
1111111010110010
1111111000001110
1111111110011101
1111110111101110
1111110011101111
1111110010011010
1111110001010110
1111110101110100
101011000
1111111101011001
1011101
1001000011
1111111100010011
1100010
1111110110110100
10110
10011101111
1111111111001100
1111111001100010
110011
110100
1111101111010111
1010000000
1111110011000100
10001100
10000100
1010010001
1001110110
11001001
1111111000011110
1111110001010111
1111100111011000
1111101110001000
1111110000100011
1111110010111000
1111111100110000
11011000
110000000
1100001010
1111111111000111
1111111100101010
11111101
110111101
110001000
10111101
1110011
1111101
1111110101110101
1111111110010110
1101
10100100101
11010000111
10100010110
10011110000
10100101010
111100100
11001100
1111110111111011
1111110101100011
1111110001000110
1111110111110110
100001110
1111111011110110
1011111000
1110011
10011010
1111111111110001
10100100
10101000
110001010
10101101011
1100100100
1111110111100000
1000101010
10111101
11011100
1111110110111000
1011111010
11011111011
10011101000
10111110110
110010101
11000001
101111001
10001100
1000011101
1111111111100000
1001111110
11001100
1111111111110111
1000010000
1010000110
1111101001
1110001011
100001010
1100101
1010111001
10010001110
10110100010
11110000100
100100000
111010101
1101001000
11110011
1111111000000000
1111111010101001
10001110000
11111100111
1111111100
10010111
1110110110
10000011100
10010110000
1100010110
1111111111011011
10011100011
111101111
101010011
1110111101
1000110110
1001101011
10000101101
101110100
101000111
1010111110
1000000
10001101000
100001011110
11000000011
1111111011011101
1001001011
1111111000111111
1111111100101101
10100001
1100110110
100000100011
11001110000
10100101
100011100
1011000100
11001111101
10001011111
11001101011
10100100010
11001000010
11010010101
10010011011
1100001110
10001111101
1111111111
1011101100
1111111110010000
1101100110
10000011110
11100111101
101110001110
11100000100
10101111001
101100
100
1111111101000010
1111111011000101
1111111000000010
110101101
1111111101001001
1111110010111100
1000000010
1100010111
1111100000
11011100110
1100110110
10101010111
10110101001
10100110101
10000011110
1011110001
10010100111
1010001001
10110011011
1000011111
111111101
10001001101
1110100000
10011010010
10100011111
1111111011100010
1111110101001100
1111111111110110
1111111011010101
101010001
11011011
111011101
1111101100111110
1111110010111000
10110101001
10001100000
100110011
111100011
1000111
1111111110001101
10011000
1010110111
1010011111
1011011101
110011101
1011101101
1000100010
11110100101
10011010000
110000010
1111110100010000
1111111011010101
100000111
1111110001101101
1111111010010001
1111111011110010
100100101
1111111011110000
1111111011100000
11010100
111000011
1111111010000101
1111110111010111
1111
100011
1111111110001001
1111111110110010
110010100
111010001
1010000111
1111111100111000
1111101111101110
1111111011000000
1111110110010100
1111111010010000
100000100
100110001
10000100111
100000101
100010
10001011
1011101
1111111111100000
11000100
11110111
101010101
1111111101110100
1111111111011010
1000011
1111111011001111
1111111001000101
1111110111110110
1111110110111110
1111110001101110
1111110100000010
1111111110000100
1111110011101001
1111011011000000
1111110010100011
1111110010001000
1111101001101001
1111100100000111
1111101111111100
1111101000000000
1111101101011100
1111110101101101
1111111000110011
1111111000001001
10100110
1010101
1111111101100101
100010100
