1111111101111011
100000101
1111111101110110
100000101
1111111110010011
100011110
11110011
1111111100000101
100000110
101010
100101010
11110001
100111100
1010010111
1010011111
101001010
1111111111100101
1101100
11100111
1111001
1110000
1111111010101000
100000101
1111111101110011
11111110
1111111101100010
1111111100100001
100000100
1111111101000110
10011011
1111111110000110
11111010
1111111100010101
1111111010001101
1111111011011111
1111111101000100
1111110001111110
1111110110101001
1111110000000011
1111101010011000
1111101010101111
1111110011100111
1111101010101001
1111101100100010
1111111111000001
1111111110010111
1111110001101110
1111110110111001
1111111000010111
1111111100110101
1111110101010110
1111110100010101
1110110
100101111
1111111101110010
11011111
11111110
1111111101001111
1111111101001011
11101010
1001101
1111111001101010
1111110110111100
1111111011010101
1111111101101010
1111111011010100
1111110100101101
1111110011100001
1111110110011000
1111101011101100
1111100000101110
1111101100101101
1111100010100100
1111110000100110
1111110011101101
1111100111000100
1111101110000010
1111101101010010
1111101110010111
110110110
1011000110
1101110110
1111111111011111
1010100
10010001
1111111110010110
1111111111110001
1111111010011111
1111111001010001
1101000001
1100101101
1111111100011110
11001011111
11011100011
1101111110
10101010111
100110001
100110110
1111111010010101
1111111110001001
1111110010100111
1111111101000010
1111111100101010
1111101110110101
1111110101111010
1111000
1100001011
10111001111
1111000000
10100001010
11001001
1111111110000111
1111111100100010
100101010
10000110
111111101
111010001
11000001
100101100
1011001010
111000100
1011010
1010100
110000001
1101001
1111111101000111
1111110110111111
1111111100110100
1111110100001001
1111111000011010
100100010
101010101
1110111
1111111111101101
111110
110100110
1001101110
1111111100
1111111101001000
1111110101001011
10011010
11111001
1111110111001111
1111101111010111
100001111
110100011
1010011101
10111111
1101110111
10100110
1111110111111100
1111111011101011
101001110
1110111011
1010001100
1111111010100110
1111111001101010
1111111011100110
1011011101
10001000
10010101
1111110110001001
1111101111101001
1111111111001000
1010001011
10100100000
100110000
1111110101110110
1111111100001010
1110001
1001111001
110100100
111
1110100100
1111110100
11000011
111101
1110110011
10011000000
1000001110
1000100111
111000110
1001011001
10101001111
10010100001
1000010100
1100011011
1111001
10111010
100001
1111111001010001
1111111100101100
1111111010000011
1010001101
1000001110
1111110111110011
1101110
1101100100
10001101101
10001000011
1111111100000010
1111111101110000
1011111001
1111111010111001
1111111111000100
1101000101
1001101111
1101101
110011010
10110111111
1111110000
10010101101
1010001100
110110000
101000111
1111111010000011
100011011
1111111010110110
1111111101010101
1111100111010110
1111111011110010
1111111110110010
1111111100010101
10000
1111101111110010
111100100
1111110
1111111001110111
1111111000000010
101011010
11010001
11011010
10000100111
110010110
1110010111
10101101110
1110110111
1100111011
10000011010
1000001111
110110110
1111111111111001
1001111000
110110011
1111111111011111
1111111001011010
1111111010010010
1111101110001010
1111110001101011
1111111101
1100100101
1111001001
101000101
110111110
1111111100101111
1111000001
1001110
110111011
100000111
10101111
1010101111
1011101001
110111111
110100000
10001100011
1001000111
1001000001
1111110010011000
1111110011000101
100111100
10111010
1001100
101101101
110001001
1111111001101101
1111110101000010
1111110110110110
11000000001
101100110100
10101101001
110111110
11100001
1111110111010101
1010100000
101001111
1010001110
10001000011
1000001010
1100111000
100110100
101010000
1111111010111001
1111111100000010
1111111010110010
1111110010110000
1111101011111110
1111110111001011
1111111011100001
111100000
10101111
11001
1111110110111000
1111111001000000
1111111100110000
1010101110
1111010110
10111000110
1011011001
1110000100
1111111110110111
1111111101101001
1011000110
1111111101011010
1000000000
10001111000
1100010100
101100001
1111111001101010
1111110001110010
1111111001000011
1111110001111010
1111110010100110
1111100010101001
1111110100110110
11100101
110101001
100100011
1111111111101000
1111111010010110
1111110010110010
101100
11110101
1111111101011011
1111111111011001
1111111100011110
1111110011100101
1010100000
111000000
1111111100001000
1111111010000110
1111110010101001
1111111100010001
1111111110101100
1111111100000001
1111110100011101
1111101100010001
1111101010011010
1111100010001000
1111100110101101
1111101100100011
1111110110001100
1011011100
111010111
11100000
11110111
101111010
1111111001010011
1111110101000111
1111111101011001
1111111001100011
1111110101000111
11110111
1111110010011000
1111111100110100
1111110000001110
110111001
10011111100
1111101011010101
1111101111100111
1111101010100001
1111100110100111
1111101100111011
1111110001010101
1111100111110111
1111110010001100
1111101110111011
1111101111101010
1111111001000110
101111101
1001
1000001101
11111110
101011101
1111111001100101
1111110010001111
1111111111010011
101001100
1111110101000010
1111110010011101
1111110111101101
1111110101111001
1110011111
1111111111111100
1111111110001100
1010001
1111011111101100
1111101110010010
1111100110000101
1111110110100111
1111110110101011
1111110101000010
1111110101011001
1111111001100101
1111111101010110
1111111110111011
101010100
1111111100010001
1111111110001000
1111111110011100
1111111101111100
1111111111000000
1111111001111111
1111110110000001
11101101
1111111001010101
1111111110001101
1111110100011101
1111110111110011
10010100110
1100010100
1111111100010100
11001
1111110101001000
1111110001110100
1111110001001110
1111110011010111
1111111111001011
1111110000111010
1111110110001100
1111110110000110
1111111111101000
1000011111
1111111101001000
1111111110001000
110101011
1001101010
1111111111111001
11111
111001
1111111000100001
11000010
110011010
1100101000
1010010111
100011001
1111101011001001
101101
10101110010
1111111100100011
10111010
1111111011010101
11111
1111101011101111
1111111000111110
110010000
1111110111001111
1111111011111100
11100111
101110100
1101000
1111111101110111
11010111
101100110
111100010
111001010
111101101
111111100
1111111101101010
101100
1000010110
10001100101
1001111111
1111111101001000
1111101110001000
1111111011001011
10010110011
100000011
1111111111101110
1000001010
10000011001
1111010100
1111101010111001
1111110001111001
1111101111011010
11101000
11010111
1111110110100111
1111111101000011
1000000111
101010110
100000011
1000110110
1000100011
10000000
1111111100111000
1111110011111011
1111111001101110
1111111110010000
1111110100110000
1111110001010000
1111111011011011
1111111111001100
11100101
100000100
10111111
1111111110001110
10001101010
1011011010
1111110110110010
1101101
1111111010111101
100100001
101111000
1111111100010100
100010
100001001
1111111110101100
110000111
100
10000110
1101000000
11011011
1111111110101101
10000011
1111111001011001
1111110101111010
1111101110000010
1111110011011110
1111110110000110
1111110111110011
11001011
1111110000011000
1111111011011000
1111111010100001
110000101
1111111100101001
1111111101101110
1111111111001000
1000000001
1010001001
1000000100
111010010
1111111101110000
1001100
1111111110101011
1111111001000110
100000000
1101100
10001110
1111111010101000
1111111100111100
110010
1111110101110001
1111110010001001
1111101110100010
1111111011001001
1111110000000010
1111101101111101
111000100
1111110000110110
1111111111101110
1111111111001100
1111001000
11010110100
1111111101000010
1111110110101001
111111110
1110000011
1111101011
1000000111
11000101
1111111110000111
1111111011101010
1111111001000011
1111111100011111
11010111
1111111110110110
1111111001001101
1111110110111010
1111110011011011
1111110110101010
1111110111000011
1111110010100111
1111111011010101
1100100
1111111011111000
1001010
1111111001011011
1111111000000011
1111111101011011
10001001010
1000011111
101100010
1111111010110101
111010010
1100101110
101001000
111100
100100001
1111111110101011
1111111110111101
1111111111101111
1111111010011000
1111111100111000
1111111001110000
1111110011101011
1111110001101001
1111111010101000
1111111001101100
10101101
11111100
111100110
1111111010101110
1111111000000111
1111111001000100
1111111100110111
1111111010011001
1111111010011100
10011101011
1111110110011001
1111111000011101
100100101
1000001110
10011001011
1111111111001010
1111111110001101
11000101
1111111011000110
10000010
1111111111011011
1111111011001010
1111111001101011
1111111001010000
1111111100011000
1111111000010110
1111111010110001
1111111101111010
100110011
10011001000
111111000
111011100
1111110101110100
1111111100100001
1111111111100101
1111111101001000
1111111111101100
1010001110
1111111001101110
1111110110100110
110000100
1100100001
10010110011
11010010
11010110
1111111111000100
111100110
1111111100111000
1100011
1111111000100001
1111111110110110
1111111011001011
1111110111001110
1010101011
1111111101011000
1010000100
1111100001
1101111001
1001001000
1110100001
1111111101011110
1111110100010010
1111111011111100
1111111110011000
1111111101010100
1000010100
1111111111001100
1011110001
1101010001
1010111001
1111111100000011
1111111010101001
1111110010000010
1111111000010110
1001000
10111001
1000011111
1011010001
10011000000
111000101
100001101
1111111111110101
110100111
1111111101001011
1111111110100001
1111110010110100
1111110000100101
1001110101
1111110111100000
1111111000010010
100010111
100111000
1111111100000010
1111110110000101
10101011
1111101111
1110110100
111111
1111111001011111
10101
1000011111
100111001
1000010101
10000011110
111101100
111000011
10001000111
1010110000
1010101111
110001110
100110001
100100000
1111111101100011
1111110000111001
1111101011001001
1001110
1111110101101010
10011000
1111111011101111
1111111111110000
100111111
11110110
100010011
1111101101010110
1111101110100110
1111110011001000
1110100000
100011010110
11010100100
10111000000
10010111001
111011111
1011000010
10101000100
1011010
10001011100
1101010110
10100011101
1110001010
1110110111
1111111111000111
1111111011011001
1111110010000101
1111110110110111
1011100111
1011001
100100010
1011111
1111111110001010
11101110
11010010
110101001
1011011101
1101110011
10111000010
11000000010
1101000100
11101101011
10001100110
1001100110
11011011100
10110010100
111001001
1001110010
11010110001
10011101100
1111111011101110
1111110011111111
1111110111111101
1111111110001110
1010110
1111111011111011
1111111110000001
100001110
1111111111101110
