1111111110011011
1111111010110010
101000000
1101100
1111111011111000
1111111101000001
1111111110110001
1111111100010100
10000100
1111111010110111
1100
100101011
11100000
1111111100001000
1111111100001100
1111111010001110
1101100
10001001
11001
10100100
101011
11001
1111111101111011
1100111
101101
100001
10110000
110010
10111101
1110000
110100
1111111101111110
1111111001111010
1111110101100011
1111110000100100
1111110000111100
1111101101110010
1111101011011111
1111101111111101
1111101110101001
1111100010110001
1111111111100101
100110001
1111100010111010
1111100010001110
1111101101011011
1111110010000110
1111101101011001
1111101010111101
1111110101000001
1111110010001000
1111110001000011
10111100
0
1111111101000111
1111111011001110
10011001
1111111111011010
1111111110110110
1111110100010011
1111101001111011
1111110100100011
1111110001010101
1111101100101110
1111100111110111
1111110010101100
1111100100011010
1111100001111010
1111101000111100
1111110010111000
1111101111111001
1111100010111110
1111101110111110
1111111100011110
1111110010110101
1111101011011101
1111101010010110
1111110110001001
1111111000001011
1111101010000110
1111111001010011
10110000
1111111011110111
1111111011001110
101101
1111111011011001
1111111011010111
1111110100101111
1111110011110001
1111110111111111
1111100110101001
1111011111010111
1111011000111011
1111101010101000
1111110001101110
1111101100011100
1111100101110100
1111010110110000
1111101101101001
1111110000011001
1111111001011011
1111110100001011
1111110000100011
1111111001011011
1111111100000010
101011
11100100
1111110000111111
1000100000
1111111110110101
1111111100111001
1000100
1111111010110010
11000001
1111111010010101
1011111011
1111110111101001
110001100
1111101110011010
1111110111001000
1111101101110111
1111110110001101
1111111101001100
1111101110111000
1111110111111001
1111111001100110
1111100111110000
1111110001010110
1111111000110000
1111110010000001
1111101111100111
1111111000010001
1111111000011101
110100100
1110010101
1110111000
10100100100
1111111010100101
1111101100111000
1111110100011110
1111111110010101
1111111110111011
1111110101000110
1111111110110101
1111101111100000
101101011
1111110001111100
1111110100001000
1000111010
10111101000
1011000000
1101011001
1001010011
101101
1010
101001010
1100000
1111111001101110
1111110011100101
1111101001010011
1111101101010011
1111111000001001
1111111000001111
100001101
1110000110
1100110001
1111110010111101
1111111000011110
11100
1111111100010100
1010001011
1111111010010111
1111111010100010
1010000001
1111111111001011
1111110100001110
101011110
1110101110
10100100
111011
101010
1111111101011010
10000010
1111111101100100
1111111010110111
1111111001111010
1111101011110000
1111101111010110
1111111110100010
1101100000
10100001001
10001010010
1111111110110001
1111111111010100
1011010011
1111101110000100
100111111
1111111001110101
10110110001
1011011100
10010111
1111111011100010
1111111111001110
1111110110010011
1111111101110010
1001011010
11000101
10
1111111000011011
1111111101001111
1111110110110010
1111110110001011
1111110101010111
1111111110000101
1111110011001011
10010110
1111111111110101
1100010101
1111100010
11000000010
10000011110
1001010010
1100011110
1111101011001000
1111110101110001
1111111001111110
10001000111
1101111
101101111
1101101011
10011011
1111111000111111
111110010
1001111011
101000101
1111110111000010
1111110000111011
1111110110011111
1111111001100111
1111111010000111
1111111111011000
1111110101110011
1111111010111111
1111111111001111
1111111100101010
1010100
110100100
1001111100
10011010110
11010101011
100010101
1111110000110110
10010110
101110010
1111111000100000
1111110101001111
1111111100110000
1110110
11000111
1111111110001010
101010101
1011111
1111110101001111
1111111110111110
1110111
1111110111000101
1111111001010001
1111111111111010
1111111110000010
1111111101000011
1111111011010111
1111111110111100
101000010
1001011111
1000
1111111101010100
101111110
101100100
1111110111101101
1111101111111001
1100001010
1110110110
1111110001101100
1111111001101010
101101101
110100111
1111111110010111
1000100010
110011110
101010111
1111111100101001
101010
1011110010
1111110101101101
1111100111110110
1111110101000000
1111110101011101
1111111111110011
101001011
1111111111001010
1111111111011110
1111111100101001
1111111010101111
1111110000101110
1111111011011110
10010000010
1111110001000010
1111111100001010
10001111010
1111111100100011
1111110011001100
1111111101000111
1111110001001011
111000001
11111
100100011
1011011010
1010111011
1001110000
10010010111
1011100001
1111110011110110
1111100111100010
1111111001101101
100110011
10010100
11110000
100101011
1111111110110111
1111110000110000
1111110100100001
1111100101110101
1111101000101001
1000110001
1111110000111000
1111101101010011
1110101110
1010111001
1111111111000101
1111111000111000
1111110110011000
1111110100010111
100100000
1001011011
1111100010
1000110010
10110001000
10011001011
1101001011
11010
1111100101100010
11001110
101111111
1111111110010101
11000110
101010111
10010011
1111111011011100
1111110001000110
1111011100110001
1111100110100100
111011111
1111101111101111
1111110001001000
101001
1011001011
1111111101010110
1111110100011110
1111111001110111
1111111001011110
1111111110011100
1110010010
10011110000
1001000111
1111001001
1000000001
101100110
1111110110100111
1111111100000000
1010000100
1010101111
1101100101
1001011110
101001100
1011101100
10110111
1111110010111000
1111101101110010
1111101100010110
11101111
1111101101110100
1111110011100000
1111111010010001
110000010
1111111000001111
100100001
110111
1011010101
1000011011
10001110000
1110011110
1110011001
1010001111
100011111
1111111111000010
1111111100011110
1111111111111001
1000110100
1111110110
10111001110
1000101001
1101001000
110110010
1111111001100101
101111
1111111011001110
1111110110010010
1100001001
1111110110111010
1111111001000001
1111111101011110
111000011
10100011101
10000011000
10010111011
101000110
1000100110
1110110001
1011110010
10000000011
1010011110
1100001100
1111111101101100
1111111110110001
11110010
10001010001
10010010101
11001010110
1001000100
1010011010
10100
110011111
1101100101
1000010010
1111110110100011
111001010
11000001110
101010000
1001010111
11000100
1010010100
1010101100
1111111110110101
1111111111100111
1111000000
10001101001
10001111100
11100100
110110110
1000001111
110010010
1000110
101001001
11011110110
10110001110
10101101010
1001100110
10111101
111000101
110000011
1111111110011000
1111111111011111
110101
1011001101
1000000111
1111110100011100
1111111100000010
1111111100111011
1101101100
1111111011110100
1111111011001100
11110010
1000110101
10110110
1011110
1111111110100101
10110010
11000
1111111000000101
1100110
1000101110
11000001000
10000101101
10100111
1010111000
1111111001000000
1111111001101100
1111111111111110
10110011
1111111000101100
1111111100000100
100110
10000011
1111101110010000
1111110100110000
1101111
1110101110
1011011101
1111111110110101
1111111110010110
1111111000110011
1111111100010101
1111111101010111
1111111101001011
1111110110001101
1111111011110110
1111110100111100
1111111011111101
101010110
111110000
1100100011
1111111010110011
1111111010110001
1111110110101011
1111110101111000
1111111010000011
1111101001110101
1111101101100100
1111110100011000
1111110110110010
1111111000101101
1111111101101101
11110011
1111110101111111
1100110011
10100110100
1111111110001111
1111111001101000
1111110011101101
1111111001011001
1111111001001011
1111101110011000
1111101111010111
1111101011110011
1111100111010000
1111110100111101
10101010
11111100
1111111110110010
1111110111011001
1111110000001101
1111101111111101
1111101001000001
1111101111110110
1111100100100101
1111100100011110
1111110101100110
1111110001001011
1111111011110111
10101110
101010
111010000
1101110100
11001110
1111110011110100
1111101110100110
1111100011111101
1111100111101110
1111101011100001
1111110100101010
1111101011011111
1111101110110000
1111110001000100
1111110110100110
1111110110000100
1111111010111001
101100101
11000000
1111111001010110
1111111011101000
1111101110101001
1111110110011010
1111110010010001
1111101111010101
111010
1111110110001100
1011111111
1111111100010101
1111111011011101
11001100
11100001
1111111001111000
1111000
1111101010101101
1111011010011110
1111101101000010
1111111011000111
1111111111100001
1111111000011110
1111111101000101
1111111101110000
1111110101100111
1111110100100000
1111110101001101
1111111100101011
1111111110010110
1111110100011110
1111110110011110
1111110110101101
1111111110000101
1111111111000000
1111111111000010
10111111
1111110110101110
1111110110111000
1111111011101100
1111111101100100
10100100
1111110110111011
1111101110011011
1111110110111111
1111110000101001
1111101000110110
1111111000101101
1010111001
1111111100011101
1111111100111110
100100
1111111000010010
1111111000010010
1111110101001010
1111110101111110
1111110110110000
1111111000010001
1111111110000111
1111111110111001
1111111011100001
10001111
1111111011101111
1111110101111111
101100111
101011011
1111110110111111
1101111
1111111110011101
1001111
1111111000111111
1111101110000010
1111100111110111
1111101000001100
1111111101001000
10001101011
111110010
1111111011100010
1000111111
1111111111011001
1111111110111001
1111111110100000
1111111101110011
1111111011110000
1111111010000100
1111111001101100
1111111110011001
110111100
1110101
100110001
1111110101100100
1111111010001000
1111111011110000
10110000
1111111000111010
1111111011001000
1
1111111011111000
110010010
110010001
1111111111110001
101001010
1100010011
1100010001
11010010
1000000010
10010101
1111111101100010
1111110111111001
1010011
1111110111001111
1111111100110011
1111111111101110
1111111011000001
1111111101111111
110100100
1111010000
1010110110
1000001000
1000001111
1111101101001000
110000010
1011101
1111111101011111
110011
1111111011010100
111110000
1111110101000101
1111110000101011
1111110101101001
1110010
1111111011001110
1111111001010100
1111111111110000
1111111000001100
10010000
1111111100100011
1111111111010101
1000
101001001
1111111110100101
1111111010111111
110010010
1111110100100000
1111110101100010
1111111110111110
1111111000010011
1100111010
1111101110100000
1000010100
111101011
1111111100110001
100011100
1111111010111100
1111111100110001
1011010111
1111110101011000
1111111000110110
1111111001001101
110101001
1000001001
10000000111
110000011
1111110100111100
1111111011010111
1111110010000000
1111111100110001
1111111111001110
1111111101010101
1111111110001100
1111110011101000
1111100101011110
1111101001111000
1111111011100111
1111110111000111
1100100
101001011
1111000100
1111111010101100
1111111111101111
100001101
1111111101111111
10100010
10001011
1000101101
11001000010
1010100110
10110011
1111111111110100
1111111001011111
1111101100100110
1111111101101101
1111111101011100
1111111011011001
1111100111010000
10110001
1001101110
1000001111
1111111100111011
1000011101
1111111111010001
10011101
1111011110
1010001001
1111111100100001
1111111010111011
11000110
1111111110001011
