100111011
1111111110001001
10011000
1111111111001110
1111111110001010
1111111010101111
1111111110000000
1101010
100001010
110101
1111111101110110
1000101
1111111100100000
1111111011100010
101011001
101011011
11100101
1111111101100001
1111111111100001
1011001
1111111110000000
1111111010100110
100111100
111101
10001110
10000001
101010001
1111111100110000
1111111010110101
1111010
1101011
1111111110000101
1111111010111111
1111111100001111
1111111010010010
10110010
1111111001110001
1111111111001001
10001011
10111111
1101001
1111111101001010
1111111010101110
1111111100101110
1111111000101100
1101001
101110
1111111101100010
1111110110100110
1100100
110011
10010101
11100011
100011110
100001100
1111111101111111
1111111110111111
1111111101110001
11110000
1101001
11010010
1111111101111111
1111111100011100
1111111110101111
1111111011101001
1111111000010000
1111111100111000
110000
1111110011100001
1111110011011011
1111011110111110
1111101011100110
1111110010010101
1111110000100000
1000011101
1001110111
10101001
1111110100110110
1111111010010011
1111111101011101
10111110
101000
100110011
11111001
111100
1111111011111101
1111111110010101
1010010
10010010
100100101
1111111011101110
10101100
101100111
1111111110010101
1100111
1111111001100001
1111111100000111
1111101001001101
1111111001111100
1101001
1000010000
1111111000111101
1111110110101001
1111110011101000
1111111000000011
1111111001110110
1111110000000100
1111111011001011
10111001000
111100101
100110111
1111111111011010
1111111101101000
1111111011010011
1111111001011101
1000011111
1111100111001100
1111101
10011011
1110000100
11001100
10101010
101010101
100000110
100000110
1111111011000100
10001110
100011
1111111100110010
1111111111101001
110101000
1110011
1111111001101011
111101
11000010
101100101
1101010111
1110000011
10011010
10000011
11001
100
1111110001010001
10000100
1111111000100101
1111111101111001
100010000
11101101
10000011
1111111110110110
1111110111011011
1101011000
111111010
100110000
1111111110010001
1111111010101010
100110000
11011100
11100001
101111000
100010010
1111111011011001
1111111011110101
1011111
1001
111101100
1111110001100010
1111111100110110
1111111100110000
1111111101001110
1111111101010000
1111111000010110
1111111011100010
1000001011
1000111001
1001110101
1101000
1111111100111101
10110011
110010010
1111111100100100
10110010
1001110
101110110
1011010110
1000111010
111101000
101100110
1111111110100000
101110
1111111111110101
1111111110111001
1111001
10000101101
101010001
1111111111000010
1111111101011111
1111110000010110
1111111101101011
1111111100010000
11000
111001011
110000000
111
1111111011111111
1111110111110011
110101
1100011
111110100
11111
101011110
1000001000
1011101110
101010111
1101010
1111111011001111
1000101011
1111111100111001
1111111100101000
1111101101111001
1001001101
10001110011
1111110110000001
1111111111100110
101000100
1111111011100000
1111110100101000
1111101010001010
1111101010110001
101010111
110010000
1111111000101101
100000010
1111111111111110
110000101
1000110100
1111111110111110
1111111011011101
1111111010101100
1111111111111101
101010001
1111111011011011
1111111111110011
1111111101010110
1111110011111100
1101000
1001111
110111
1111110101100011
110001001
1111110001101000
1111111110000001
1111111011010110
1111110110111110
1111011100001110
1111100011001101
1111110010000000
1000101011
11110001
100010000
111011101
10001000
110101000
1110000001
10111101
1111111000110000
1111111111110110
110
1111111110000010
1111111101111010
1111110100011010
1111110000000100
1111111001100010
11111010
1110100100
1111111111011110
1010000010
1111111101101101
100111100
1111101111010110
1111111110001100
1111110101001011
1111101010010000
100001101
1111110001010000
1110001101
0
1100010001
1000010101
10101000
100110100
1010111010
111111010
1111111011111011
101001011
1000001
10001100
1111111001001010
10100011
1111111101000010
100000101
1111111011110111
10101001
1111111110011111
10010001010
11010001111
1101111000
1111101001001000
1111111110011011
1111101001101001
1111110011110001
11100001
1010010110
1001011001
1110100
1010101010
1110110011
11000000
11001101
1111111110101010
111010101
1111111111101111
1001100100
110101101
1101110111
1110111001
101111101
100001100
1111111110100001
1111111101111101
1111111101110111
1111111011011010
10000001010
1011011010
10010101110
1111110111010110
1111111001111000
1111100111010011
1111111001010111
1111101100010011
11011001
100011101
11100111
11111000
111111100
10100111
111101111
1000011100
1000011
1001100100
1001101100
111001101
111000010
100010101
110111011
11110010
1001100101
111010000
1001001010
1011001100
1111101100001111
1111110101101100
11111101001
1111111010000111
1111111010100101
1111110101011010
1111101011100100
1111101110111010
11111000
101010000
1111111111100011
1010011
110100010
101101
1000100101
1110000110
1110000011
10001100100
1111010000
111110101
1001011010
110001100
11010101
101111100
1001000001
1000011010
1110011001
1111111101001101
1001001
1111111000101000
1000011011
1111110101011111
10010100
110010110
1111111010001000
1111100110100111
1111110001100101
1111101101010101
1111110010111000
1111111111110111
1111111110110000
10000101
110110101
1011101101
10101010011
10010000111
110110111
110001110
101111110
1111111111010110
1111111111001110
1111111011111110
1111111101000110
1000010
10111000
1000001100
1010010100
1001101000
1111111011011001
1111111000001010
10011000
110001000
1010111001
1111110111001001
1111101101111011
1111010011101110
1111100000110100
1111011010010000
1111101010000010
1111110011011010
111010110
1110000001
10011111111
1000010101
11110100
111001
1111111111111110
11000011
1111111111001011
1111111100001111
1111111110010110
101101001
1110001100
1101011010
1100001011
110011011
1111000110
1111111011001001
1111111001001000
101010110
1000001
1111111011101000
1111110110011110
1111010110001110
1111010011101110
1111010110100101
1111010010010100
1111010111111111
1111100110001111
1111101010111001
1111101100100010
1111110001000001
1111111011001010
1111111011000000
11
1111111100101111
111011000
1111111111110110
100
11000011
1001001011
1010100001
1010111101
1111111010101000
1111111101111101
101001100
101001
1010110010
110000010
1110010100
1111110100011000
1111110001100110
1111101011010011
1111100010110001
1111011110011000
1111010110000010
1111000101111001
1111000011010011
1111001100111111
1111100010111010
1111101100100001
1111111011011001
1111111000001001
1111111101001101
1111111011010111
1111111110001010
111011
1110010
1111111101100001
10111001
101111011
1111110100000001
11000000
1101111
10000101
1111111111001111
11111001
10011001110
110000100
101000111
110100000
1111111100010001
1111111000011100
1111101111111011
1111100111110011
1111110000011101
1111101010010010
1111101000100001
1111110110001010
1111110001011011
1
1111111101111000
1111111001001001
1111111100000110
1111110111000100
10011000
1111111010110010
1111111100110111
100011011
1111110000110111
11001111
1111111011100101
1111111100100110
1111110010000010
1111110011110100
1111000100
1011101100
1100101111
1101000001
101100010
1000111000
100101101
1001101001
1010000010
11100111
1111111001010101
1111110010111101
1111101100101001
1111110100100001
1111110000000110
1111111100000101
1111111001010111
1111111011001110
1111111000001001
11001
10111
1001110110
1111111110100000
1111111001010111
1111110101001111
11100111
1111111010000001
1011111
10001111
100111001
1100101111
10000100001
1011100
110011010
1000110011
1100010111
1001001100
11111010
10010100
1111111011011010
1111110011111100
1111110100110010
1111110110000110
1111111010101010
1111111100101110
1111111100001101
1111111110100110
111111010
1111111010011101
1101111101
1111111011111011
1111111100010010
1111110000111100
1111110110000111
1111111010110000
1111110010100000
1111110000111010
111100010
10011111011
11110010
1010010010
1111011011
111101000
111110011
101000001
11000001
101010101
1111111011100111
1111110111000100
1111111110011010
1111101110100100
1111110010101011
1111110100011011
1111111110011011
100001001
1111111111100101
1111111010101000
1111100111101101
1111110101000111
1111111010111010
1111111100001100
1111110011111010
1111110100010111
1111111100111101
1111110101000011
1000111
1111110110101011
1111111100011111
11111
10010000010
1001111111
111010010
1111111101000000
1111111110101000
101011111
101011111
1011010
1111111010110011
1111111011000110
1111111011110001
1111110101011111
1111111000001010
1111110101100010
1111111010111011
1111110110001100
1111110000111110
1111101010110010
1111110010010111
1111111100110101
1111111110101100
1111111111100001
1111110001000001
10000100110
110010111
100101
1111111001001111
1111111110111111
101110111
11001101
101000100
110011100
10011110
10011010
11101011
1111111110110100
10011
101111
101000110
1111110100110000
1111111011010001
1111111110110011
1111110111111100
1111110101111001
1111110010000011
1111111000100100
1111111001011000
111001
10101101
10011
1111110101000101
10001001111
10101110010
10010100
1111110110000100
1000100111
10000101
1111110110010110
101111010
10010
1111111001010000
1011100
1111111001110110
1111110111001110
1111111100001100
1111111101100010
1111110111100001
1111110000000111
110011011
101101100
1111110101000111
1000101
1111111010100010
1111101110001100
1111111101001100
101011101
11110
1111111010111000
1000011010
1111101100011011
100110010
1010001011
1111111011000000
1001011001
1111111101000010
1111110001111111
1111111110010010
1111111000011100
1111111111010000
1111111101000001
1111111010001011
11110101
1111111111011000
1111111111100100
1111111011011101
1111101110010110
1111111010100000
1111101010001000
1111111000100011
1111111011111010
111001101
1001001101
11100011
100100100
1111111100010110
11100101
1111111100111111
1100111011
11100010110
11111101101
10001011011
1011111000
10011100
10011101011
11001100110
10001011011
1111111110111101
1111110111011101
1111011101
1101101101
11111110
10111100010
1101010100
1101011
1111110100001100
1111101110111000
1111110011001110
1000000010
100100011
1111111011011111
10
1111111010100101
1111111100010010
1110011
1111111110010001
1101101
1111110001000101
1111101001101110
1111100101000100
1111101010111000
1111100110011111
1111111100001110
1111110101100011
11010101
1111110101111110
1111101101010001
101011011
100010000
1111111111001000
1111011001001100
1111111111100110
1111110101000001
1111101101001111
1111111010000001
1111111111000101
10001010
1111111011000001
1111111011001011
11111010
1111111111010100
