100011101
100001011
10110011
1111111100010111
100010
1111111111110010
1111111010100011
1010110
11101110
101010101
1111100
1111111100011001
1111110100100100
1111110011100101
1111111101100101
1111111111011010
1111111100010111
100110101
10000110
10000110
11010011
1111111110011010
100101
1111111011100000
11110101
1111111101001011
10101
11100010
1111111100000001
1111111110111110
1111111110011100
10001000
1111111110100011
1111111110101100
1111110110100001
1111110110101000
1111110100011111
1111101111000000
1111101101010011
110111
1111111100001010
10001110
1111110011100011
1111101111010110
1111111111011101
101011010
1111100101011000
1111101101000011
1111100110110111
1111110010110000
1111111010111010
1111110010100011
1111111100010100
1111111111010110
1111111010110110
1111111110000000
1111111011111101
101001110
1111111010101001
11100011
10010000011
1111110101011011
1111110111100010
1111111001110001
1111110010111110
1111111100010011
1111110000011110
1111101111101001
1111110111010001
1111111001001111
1111101111010100
1111110001010011
1111111000110110
1101111111
1011101001
1111101001000100
1111010110010110
1111010001100001
1111101000100101
1111101010100100
1111111101001111
1110001
1111111111110101
1101110
1100000
100001010
1111101101100010
101001110
1111110101111010
1111110010111111
1111101001100100
1111011111011101
110011
1011111
1111111101011010
101010101
1100100100
101111101
1011010110
1111000010
1111111111111110
1000100110
1111111110001000
1111111001110111
1111110111100010
1111110010011011
1111110100011001
1111111001101111
1111111011010101
1100001
111010
1111111110100111
1111111010101110
101100100
1111110101110101
1011000
1111110001101111
1111100111010100
1111100001001001
1111101100110001
1111110000001000
1111101100010110
1111101101011110
1111111111111010
100110101
1111111110001110
11110010
111110111
1100010111
1010001000
10001001
1111111000110100
1111111011100010
11110011
1111111111111101
1111110100110110
11111100
1111010110
11010111100
1111100
10000010
1111111100101010
1111110000111111
1111111100101111
1111110101000101
1111111100101101
1111101111110111
1111110100110011
1100100
10010010
1111111000010110
100000101
100100001
11001010
10001001
11100010
101100000
11110001
1110111
1111111010111110
1111111000101000
1111110010000101
1111111101000011
1111110011011000
1111101100001101
1111110011110001
1001001010
100110001
11111111
1010110111
10101001011
11000101011
1001111110
1111001100
111011101
1101110
1011110100
1010100000
100110100
101000100
1100
100110111
1111111111101000
1111111110110100
110001111
1010010011
1111111111100111
101011010
10010100
111011110
100000011
1111111100100010
1101001
1111111010100100
1111111101101110
1111110110110110
1111111011100110
11110010111
11100011101
11110010110
1001101101
1111111111010001
10001100101
1110101001
1111000011
1111100001
1001100
1111111100110100
1111111111111100
111
1111110110001111
10101001
1111
1010001000
1000111001
1000011101
10011010
11100001
101010011
1000110000
1111001001
101010110
1111110010111101
1111110101011111
10001011000
10100010100
1001011111
10001101110
111
1001100101
111100100
1010110001
111100110
1000110100
101001
1111111101010001
10101101
1001
11101110
100101001
111110111
101011111
1101111010
101010010
1111011111
1010001010
111100110
1100010101
100000110
1111101111000001
10001
110010000
1110000000
10001011110
10101111
1010000010
1001100110
1001100001
1001010110
1111111101011110
1110111110
110101001
1111111011110101
1111111010110110
11101001
1111111111000011
1011001000
110101001
11110010
1101111110
1001111001
10010101100
1110101010
11111001
1101111000
1111110001
1111111000100011
1111111001011011
111100101
1111111000010111
1001110010
10000000110
1100010101
11110011100
10011100000
11
1111111001001100
1111111011011010
101000110
11111010
1111111101000110
1111110110100101
1111111010000101
1100011
110000101
111011
1000111110
101101000
100011110
111111101
1011110000
1111111101100110
1001010111
110110011
1111111010010111
1111110110000011
1111110110011111
1111111111110100
111111110
11001000110
11110000101
101011001011
1001010110
1111101111110000
1111110101011001
100101001
1111111111100101
1111111110110101
1111111100100011
1111111110100001
11101011
1001010000
11100010
1001110
1000111
1011000100
101100
1100001
10100100
1111111100110100
1111111100000000
1111111111101011
1000111101
1011011
1101011001
1101010
1010110101
10001110011
1111111111
100010100101
111101010
1111111000000001
1111101111111110
1111110011110010
1111111000011110
1111111101011111
100110100
110111110
1011010000
1000110100
1111111111011011
1111111111
111001110
1101010011
1001101101
101010010
110011110
1111111001100000
1111111111100111
10101101
111110111
111010000
111000010
1010011001
1111110111111100
1101110101
10101100110
10011011111
1111110111101101
1111101001010011
1111101110110000
1111101111101010
10000111
110111001
100000111
1011101001
110000110
1101100
1010001
11000101
100011100
1111111111010011
101010
1111111110111110
10001011
100111101
10000100
1111110010011000
1111111100001100
1000111100
101000111
1111110101110000
1111110111001010
1100111101
1111100010
1111110011100000
1111101110010100
1111101001101000
1111110111111001
1111110111011000
1111111100101100
10011011
1001111
1011110011
110000100
100101000
1111111101000111
1100001010
0
111100011
1111111
1001000000
1111111011001110
1110001
1111111001101100
101100110
1110101
10111110111
110110001
1111111100110000
1111110110110111
111010110
1111101101000110
1111110101111101
11
1111111100010000
1000011
1111111011001101
1111111001010010
1111111011110010
110100
11010100
1001
1111111000100011
101000000
1111001011
11001101
1000001011
101011111
100111100
110010001
1111111110110001
1001000010
110111110
1111101000
110101111
11011101010
1111111011010100
111110011
1101001100
1111110100100100
100000000
10000011010
1000000011
10100111
1111111100100111
11
1111111100100111
110101100
1111111010000010
101
110000101
100111110
1001110000
101001100
10010111110
1010000101
11010100
1000110100
1111111100011101
1111111111110001
1111111111001001
1011100
1111101010010000
10111100
111101100
11010
1101011000
1111111100111000
1111111011111000
1001110010
11000011
1010
11110011
1111110111111100
1111111011101110
1111111010111011
1111111110110010
1111111100011001
101111
100011110
101001101
1100110000
10001110000
10011011
10110
11010001
1111111000111011
110001110
110110101
1111111111011010
1111110100111000
11000001
1111110101
10100001001
1111111101101001
10001010111
1111110111101000
1111111001001000
10001111001
1010100011
1111111110011111
110011000
1111111000110010
1111111111010010
101101101
1111111110000101
10001100
101011101
100111010
1011101010
10111011
1111111000101000
1111111110110011
1111110111100101
1111111100110110
1000000101
1111111001101001
1111101100001011
1111110000000111
1110010000
1111110000111001
1111111110101011
1011111110
1010
1111111001011111
1111111000100001
100100001
1111111001001101
1111101110011100
0
1110101
1111111100001101
1111110110111001
1111111100110101
1010
101111
1111111101101100
1111111101011010
1101000
1111111010011100
1111111001010000
1111111101110100
10011010
1111111111011011
1111101100001101
1111101010101110
1111100111000010
1111111010100011
1111110110110011
1111111110101100
1001100
10110
10100110
1111110010100100
10101001
1111110110100000
1111111101110011
1111111011100001
1111111000100000
1111111111000010
1111111011010100
1111110100001001
1111111101000111
1111111010110010
1111111100000011
1111110110101101
1111111100100111
1111101101101000
1111111100100111
1111111111100100
1111111000101100
1111110101100011
1111110111001100
1111101100100110
1111101101010001
1111110001000100
1111110010011000
1111111000100010
11110
111101010
1111110101110101
1111110110001010
1111111001110001
100111010
1101011
100110011
1111111010110101
10011011
1111111111000100
1111111111010011
0
1111110110100011
1111111101110100
1111111001000100
1111111010101111
1111110011111111
1111111001110000
1111110101110100
1111110000000000
1111110011010110
1111110000011111
1111100100000100
1111100110100110
1001100111
10111011
1111110111000111
1111111100110111
1111000
1111110011010100
1111111011110001
1111111001111011
110111110
100000101
1111111001100011
1111111110010101
10101001
11010101
110000101
1111111011001001
100111
1111111011010110
1111110011101001
1111111100011011
1111101110010110
1111110111011010
1111110100101101
1111101101011100
1111111000010010
1111101101100001
1111110001111110
1111110011011000
1111111011001000
1100111
11111000
1000
1000111001
10010
1111110111111001
1111111011011011
1111111011011111
1000011010
11111000
101011001
1100111001
1110100111
1111111001100100
10100001
1111111111000100
1111111101010001
1111110110111011
1111111000111000
1111111101000010
1111110111001001
1111110010000110
1111100111100110
1111110001100010
1111101110000111
1111110011101110
1111101111101111
1111101000011110
100010010
11010100
1111111100101010
1011100001
100001110000
10100111011
10101110111
1010010100
101011
1111111010011010
1111110111100111
110111101
101011111
11010011
111111100
1010100111
100111111
1111111110111001
1111011
1111111000001100
1111111011010100
1111101110011100
1111100010101111
1111011100100100
1111101101101111
1111101001011100
1111101000100011
1111110101101011
1111111100100110
100111111
1111111100100010
1111111001101110
1101100101
1111010001
10010101000
1111111011101111
101001000
10000110010
1100000000
10001010000
1110110001
100010110
1111111010010100
1001111
1010011111
110100110
11010
1111111011011010
10010101
1111111101011010
1111100010011010
1111100110001111
1111110010111010
1111111100010010
1111110010000000
1111111111110011
10110100
101001101
1111111101010110
1111111010101111
1010011
1111111111001110
1111111110001011
100000110
10011000000
11001111101
10001100111
10100100110
1100011111
1010111110
11011100110
100000110011
10010100110
1111111110100111
1001010111
1100011100
100000110001
10111010000
1111110111101101
1111111110111101
1111111111010111
1111110111100110
1100100111
100110110
100000111
1111111110011010
100101101
1111111101010100
10101001
11101011
11011000111
1111010001
1111000110
1101011100
1110100011
100000011001
1000110110
1111001010
100000111111
101111000010
1100011010
110100000
11001101100
11001011010
11011000000
1111010000
1010100110
1111111011011101
101100100
101011000
11100101
1111111101111001
1111111100101100
