1111111011110110
11011000
1111111010101110
1111111100100100
1111111110001111
1111111010100110
100000110
1111111010111001
100000110
100010
100110110
1111111101000101
110111110
111000111
111100000
10001010
1111111110000101
1111111111110111
1111111010111011
11011001
11101011
1111111110101011
1111111011011010
1111111100010001
1111111101001111
101011111
1111010
1111111100101100
10011110
1111111100101111
100101110
11000100
11000101
100110101
1100110110
1101011010
10010100111
10110111000
11110111001
10100001001
11111010100
100001011101
11111110111
11010111101
10001010110
1111000000
11001011
10111100
111100
111000011
111001010
1011010001
1111111110110001
1111100
11001000
11111000
1011010
1111111111110101
1111111110101011
1111000
111100011
1100111110
1001010011
1111011001
1111111111100110
1111110110110100
1111111101110111
1010010110
1100011
10010000100
10111110101
10110010000
11110001110
10110011010
11101011111
10110101100
1111110010
111000001
1111011101
1011011110
1111111101011001
1111111111011110
1111111100111101
10001000
1111111101011000
11001101
1111110101000110
10101000
1001111011
11111000
1111111011110100
1111111001001001
1111110010000011
1111110010100100
1111110011011011
1111100101110101
1111110001010011
1101111111
1100001100
1011011011
1011100010
100011011
10101110110
10100100111
110000100
100110100
10001000
1111111111000100
1111101001
100001
101010110
1111111101010110
1111111101001111
11100000
1111111010100010
1111111100110011
1111111101101010
1100110
1111111110111100
1111110011111011
1111101001101110
1111110110010001
1111110001110101
1111111101111101
1111111100110111
1111111001111100
101001001
1101101101
10000010010
1011011000
1011010111
1011000111
1101111100
10001001111
1101010110
10001100000
1001010010
111101010
100111010
1001010
100111110
1111111011010110
111101000
1111110100101111
1111101101011010
1111101100111010
1111100101001111
1111101110010110
1111101111000001
1111111011100011
11011101
100111010
1111111110001100
1111111101011110
11000101
110000001
1000101111
1101101100
10100100100
10100000000
10000010001
11011100010
10000111100
10000010111
1111111011010100
1111111001010111
111001100
1111111011111101
10101100
10000011
1110010
1111100001010010
1111110110101101
1111110001001011
1111101101110001
1
1111111110101101
1111110111010011
101001111
110100100
1010101110
1010011111
1000011101
1100000100
1000101111
1001011101
1101111110
1011001000
101010101
1000010010
100111000
110111011
1101001
1111111111000001
1010010101
101010110
1111111011100110
1111111110101001
1111110110010001
1111100101011011
1111101110001001
1111110111101110
1111110110101101
1111110110101000
100010111
10011110
111101001
101110010
111001100
100001
1001101001
1001010011
1101011101
1101100
1000110111
110000101
11110100
101011001
1111111100101100
1111110010101101
1111101101110101
1111110010000000
1101101101
101011010
100111101
1111111111010111
1111110110100101
1111101000010100
1111101101101001
1111110110100011
1111111011011000
1111111010011001
1000110000
11011
1111111110111100
1011010100
101000001
111000101
1111111111101101
1111111101110000
1111110101001111
1111101110000100
1111101110000001
1111101011101000
1111110010110100
1111111001001011
1111110000000000
1111101100110111
1111101111101000
1111110011110001
11001011
1111111110110011
1011001
1111110101010101
1111100100110001
1111100101000001
100110001
1111111011110111
1010110110
1111111111001011
1100001010
10110001
10111000
1000000110
1111111101010000
1111110000000110
1111101100000001
1111100000000001
1111011010111000
1111010111111100
1111100001110100
1111011011011001
1111010110111010
1111100100000011
1111101001110001
1111100101000000
1111110100001010
1111101110101100
100101010
100110100
1111111100011000
1111111000100111
1111110011100010
1111101001101010
100100000
11001000
1001110010
10011100
1000110000
11010010
1010101
1000011
1111111100111011
1111101011010111
1111100011110011
1111100100100101
1111100100001001
1111100010011101
1111100101110011
1111011111000001
1111010110011000
1111010111100001
1111001111011111
1111010111111010
1111100111011010
1111101110110001
10010000011
1001001001
1111110111110011
1111110110011111
1111110110100001
1111111010100111
11111001
11000011
100010011
101000110
1010110
100001
1111111011000000
1111111110001001
1111111100100101
1111111001011000
1111110100101000
1111111010110000
1111111011010011
100000100
1111
1111110100110110
1111100010111010
1111100011110011
1111010101010101
1111011000001100
1111100010000101
1111110010110111
110100010
1111111100000110
1111110111011100
1111110111010111
1111101100111110
1011001111
110001
1111111101111101
1101000111
1111111111001001
1111111111011101
1111111101010001
1111110110111101
10100000
1111111111101101
1111111011011101
1111111001101001
1011101
100110100
101110000
111110101
10001110
1111111001100000
1111111001001101
1111100100110101
1111110010100110
1111110111101001
1111101001011100
101001001
1011000101
1111111000001001
1111101001100100
1111100110111100
10010010110
10110
1111111011010111
1101001110
1011001110
1111111011000010
1111111011110010
1111111110010011
1111000
1111111001101111
1111111101011111
1101000
111000
100000111
101101000
101111001
110000
101100000
1111111011101101
1111110100111111
1111111001001011
11000001
1111111100111101
1000000011
1010000000
1001001010
1111110100110101
1111101010100001
111100101
10111111
1111100101010010
1111111110011100
1111111100001010
1111111110010100
1111111000111111
1111111110010000
111110110
1111111000010000
11110001
100101101
10001100
10101000
1111111101110011
110110010
1111111101010000
100000001
110010001
1111111101011101
1000011
1110000110
1011010
1111111110101110
11100010
1000111110
10010101
1111110111000111
1111110111111110
1111101010101011
1111100111101100
1111110011000111
1111111011011111
1111111001100010
100010101
10100100
1111111011111110
101101100
1111111111100010
101000110
1110000
110000001
1111111111111001
1011010110
1111111101010001
1111111110111100
1100101
1111101010111010
1111111010100001
1110111100
11000010000
1111101101111000
11000010
10101000
1111111011110100
1111110011110100
100000110
1111101100011110
1111100100011101
1111101101111100
1111110010101111
1111111100100101
1111111100000001
1111111000110111
10000001
110110101
1000100001
1100110111
10010000
1111111111100001
111100
1111111101001101
110001010
1111111110110101
11110001
101001110
11011011
10101100010
11001000111
11001011
1111111110101000
1111111111011100
1101100
1111110010110110
10011100010
1111110111011110
1111110111010000
1111110101001011
1111111010110111
1111111100011011
1111110110111001
1111111111011110
1100110010
1010000111
1011011101
10010111
101111011
1111111011000101
1111110111101000
1111111110011110
11110111
1000010101
111010000
110010010
111001101
1011011010
1111111110011110
1111110100101000
1111110000000010
1111111101101110
1111111101010011
1111101110001110
100100111
1010000000
1111111111110010
1111111000001001
1111111010001010
1111111100000001
1111111001110111
100110011
1111111011101100
10001111
1111110101101100
1111111011100111
1111111110111000
1111111111011011
1111111011011001
1111111011110010
101011
11100010
1111111001100001
101100
11111011
10000110100
1000001100
1111111011000001
1111101110111001
11101110
1111111010110100
10100101
1100101
1101101010
1111110111101110
1111110111101011
1111110111110111
100001110
1111111101111100
1111111110110100
100010010
10000101
1111111000100010
1111111010011000
1111111010100011
100011
1111111110010101
111000
1111111100011111
1011010010
1010101111
110011001
110000010
111110011
1011001000
1111101010001111
1111110110001011
1111111111101101
1111111111110001
1001010111
10101000000
1100100110
1111111011001010
1111111111110001
1111111011011111
11000010
1110111101
111100000
10000011
1111110111111000
1010100
11111001
1000001010
1011111
1111111101011111
1001000
111100101
110101101
10010010110
1100011111
1111111000
1110110
10111000000
1111101100001010
1000100100
1111111110101110
1111111010010100
1111111110010011
10011010101
10001011010
1100011101
1111111100000000
1001100011
11001111
111001010
110111101
111011101
1010011011
1010001110
1011010000
111110110
1111111100100010
11110100
100111001
100111010
1010110011
1000101101
11101110
10001110001
1101010100
10110001001
10010111
1111111011101011
1111111100010111
1111111111100011
1111110110010111
1001110
111001100
101111000
1111111101011000
100
11000111
1011011110
111101100
1001110000
1101000
101101011
110101111
100100110
11110010
110000100
1111111111101101
101110
1111111100001110
1111111111011111
1111111110110001
111010001
101111
1111001111
1111000101
100
1111111011010101
1000011
1000011
110111001
1000100001
1010011010
100110011
1111111101111011
1000011101
1000010111
11111010
100110
100101
1111111111010100
1101000
101010100
10000001
11101001
1111111111100011
1010111
1110111
1011010
101001011
111000000
1111111110011110
1111011110
10111100
10011
11100100
1111111010101001
1111111111001100
11000010
10010100
101010100
1111001000
1111111110101011
110111010
110000111
1111111100010101
11001001
1010111000
1111100
1111111110011001
111100110
1011101
10101000
1101001110
1111111101110010
100111110
1001011
1111111110010101
1111111010010110
1111111011111111
1111110011000100
1111111000100110
11110
101000101
1111111110000011
1111100
110110111
1111100111101110
1111110011001001
111111101
1000010100
1111111100110001
1000100000
111100011
1111111111000111
10100000100
10101011110
101111010
1011111101
1110011101
10000111000
1111110011
10010110110
101111000
1000111000
1011111111
111100000
1000000010
1111110111111101
1111111001000100
100010011
1111111100100110
1111111101100011
1011011
1011111
100100110
1111111001011000
1111111010111000
1111110001001101
1111110100100111
1111101011000010
1111110111010001
1111111000100111
11000010
1110001101
10000100010
10011011000
1100000110
1111110100011100
1111111001011011
110110101
1000101001
10000011001
1001100111
1111011001
11110111
1111111011010011
100011101
10011110
101101
1111111100000011
1111111011011000
1111111100111100
11110011
1111111110101100
100010101
1111111101111000
1111111001001110
10010000
1111110110110001
1111111110111000
1111111111100001
1111110000011010
1111110000011011
1111110000101110
1111101011100011
1111100110000001
1111101100001110
1111110001001011
1111111011100000
1100111100
1110110011
10000001
101000000
101111
1111111011100001
1111111111101101
