10010000
1111111101100001
1111111010110111
1111111111101101
100000010
11100001
11100110
1111111010111110
100001100
1001
1100011
1111111110010110
1111111101010001
1111111111000010
1000100110
101001000
11001100
111100
1111111110100001
1111111110000011
100010011
1111111111100100
11111111
1111111110110110
1111111100000100
111111
1111111110101001
101010110
1111111101110011
1111111100111100
10001001
11101000
11000111
1111111101100111
1111111011110111
110
1111111111001110
101000111
10011000
1
1111111011101001
111000101
1111110011001010
1111110101011101
101100001
110
1111110110010010
1111111001011001
1111110011001000
1111110000010000
1111110101111000
1111111001111001
10100110
101000101
1111111011111110
1111111111010011
1111111111001010
1111111110011000
1111111010110111
11111111
1111111110100010
1111111110111100
101101100
101100010
10111000
1111111010011100
1111101011000100
1111101111011001
1111111110000000
1111111010100101
1111111001100001
1111110110010010
10100011
1110000011
1111111110101000
1111101101000100
1111101101011011
1111110100101010
1111100110011011
1111111100101001
100110111
101111001
10011011
1111111110010101
1111100
1111111111010001
1111110110110101
1111111001010100
110111
1111111001011110
1111101110111010
1111101111000010
11111011
1001010000
1100100
1000100101
10101101101
10000000101
1111110100100101
1111110110100011
110000111
1100100100
111110000
1111110000000000
1111101100110000
1111111101111110
1111111110001110
1111110110101001
1111101111000101
1111111011100110
1111111011111111
101011010
1111111110000100
11111110
1111101010010010
1111110000001010
1111110101110100
1111101111100000
1111101110011101
1111111010000000
1111110101000111
1111111010100100
110101010
1000110
1110010111
1111111100100111
1110100010
111101010
1011111110
10111111100
1101100001
1111111101101110
1111111010001010
1111110000110111
1111110110001111
1111111010010001
10010
1001110000
100010
1111110100010101
101010101
1100011
1111111010001111
1011100
1111110101000001
1111110100100100
11110011
10101000
1111111011111100
10011101
1111111110110011
1111111111101001
11110
1111110110011110
1011100
1111111101111100
11111010
1010110
11010011
11100011
1000101111
1111111100000110
1111111001000000
1111100011001000
1111110111110101
1111111001111110
111011101
1111111001111101
100010001
1111111000101001
11010000
10101010
1111111010101000
10110001
1111111001001100
1111111000100000
10011100
100111
1111110001101011
1111111001010111
1111110100011001
1111110110101011
1111110101010011
1110100
1100000111
100100110
10100100
1111111110111001
100101011
1111110101111110
1111110110001010
1111110111001111
1111111110100100
1111111010111100
1100101101
10001000
1110
1111101000111111
1111111011011111
1111110011011110
1111101011111000
1111111110011110
1111110101000010
1111110100110100
1011001111
10110011
110
1111111100100110
1111110110011010
1111110100010001
1111110011000011
1111111001101001
11000011
1111110101000111
1111111100101100
1111110010101000
1111110010101010
1111100
101010001
1111111110001011
100110110
1010000110
1110001
11001111
1111110101111000
1111101011001100
1111101111000011
1111101111000010
1111011011101001
1111110001010101
1111111101010110
1001100
1011000111
1010101000
11101110
1111111011110000
1111111011011110
11010001
1111110111001011
1111111001010110
1111111010000110
1111111100010111
1111111011000001
101101010
10110000
1111111111010100
10111100
1110011110
11011111100
11011100111
100110101
111001111
101011111
1111101011001010
1111101100110001
1111111100100110
1111011110000001
1111110011100100
1111111111000101
1010100010
10010011
100101111
10011111
1111111110101101
0
1111111111100100
1111110111011101
1111111110011001
1111111011001100
1001100101
1111111111010111
1011101111
1010110100
111010000
1001101110
101111001
11110010100
10101101010
10010101100
1111110001111110
1111111100000001
1111110001111000
1111100110100101
1111101001011010
1111111100010001
1111110110101101
111001110
1101000101
1010011
10111111
1111111110101100
1111111101101101
110101
1111110011110010
111101000
1000111100
1111111
100111111
1010011110
10101110010
111001010
1111000111
111110100
11010011111
10110110111
10010001011
11110001110
1111100111111111
10101110
1111110100011001
1111110111011011
1111110111010110
11111110
1000110100
10100001110
1010111001
10110100
101010
1111111100011111
110010100
1111110111101100
1111110110111011
1111111101011001
1111111000111000
110001010
11110110
101001000
1100110001
10111000
1111111011010111
10010000
11111011010
101010000010
100111111100
100100100101
1111100010010110
1100110
1111111001111000
10010000
101110001
1111111110100110
10000111
100001001
110100000
10111111
1100100011
11100
1011010000
1111110110100011
1111110111011101
1111110101100101
1111110101000111
1111111101111001
1111110000011100
1111110011010001
1111111100111110
1111111110111101
1111111101011101
1111111010001101
1111111110110010
110100101
10011100010
10110010001
1111101011110111
1111111111111111
1111111001000011
1111111011010110
11011
1111110010011111
1111111100100001
111101011
111100000
1010111010
1111011000
1000101100
1101110001
1010110100
100011101
1111111111011101
1111111100100010
1111110010011110
1111100110011101
1111101100000001
1111110000100011
1111101111111010
1111101111100001
1111110000111100
1111111100000100
1111111111011111
1111111101100100
11101100011
10111100001
1111111111101000
1111110110111011
1111110001100111
1111111010000110
1111111101111111
1111110110101110
110111101
1000001010
10001110000
101111101
1001101011
1110101101
1000111010
1111000011
10111
101010101
1111111111011100
1111111100111010
1111111000011110
1111101110000000
1111100100100101
1111101101010011
1111111101000000
1010111
1110000111
101011000
10111110100
1011111100
1111111101111100
1111110101111101
101111100
10001110001
1111111101110110
11010001
1111101
100000001
10111001
101001000
1000110100
1011110011
11000001001
10001111101
1010001110
10000
1111111111111000
1010100
1111111110110100
1111101100101010
1111100011110000
1111101110100101
1111110011111001
1111111101111110
1011101010
10010010001
110000001
1111111100111000
1111110110110010
1111110110000000
1111110010100010
1000100110
100000011
100011000
1111110101100001
1111111001111111
1111101111100110
1110010
11100001
1110001001
1111110110
111101011
111000111
110000001
1010011100
10100011
1111110111000111
1111101001111000
1111100111010011
1111111111001011
1111111111110011
1100010000
1111111110001101
10011100101
10000001001
1111111011001111
1111111101111110
1111110101011100
1111101111111011
1100010010
100101110
101101010
1111111110000000
1111101110000101
1111111100111111
110101001
1100110001
10000111000
1101000001
11010010
101001011
11110100
11011101
1111110101110000
1111110100000111
1111101001010100
1111110010101100
1111111001100101
1111111011110001
1111111001010000
1111111000010100
1111101111001100
1111110110110100
11100001100
1111110010111100
1111111100101110
1111101001011100
10010100110
1111111010
10000101011
10001010010
1101010
11000101
1011101001
10010110000
100101110
1010000101
10110
1111111110110010
1111110011101110
1111111010001011
1111101110010101
1111101111101000
1111110011110001
1111111000111011
1111110001100110
1111111000100111
111001111
10001111010
1111111001000010
1111111100010010
1111101
11010011
1111111010100010
1111101001110011
1100111010
110110000
11000101
1100111
101110001
1000001111
10000101010
1000001111
1001000000
1111111111011010
100011
1111110110001100
1111111100101101
1000
11101010
1111111010100011
1111111001111111
1111110100101111
10000001
11011110
10010001101
1110010110
11011011
11000000111
1111110111101001
11010110
1111101110010001
1111101000010100
1111111110011101
1110010
1111111110011001
1111111101000100
110001
1101011101
1001110010
1011100111
1011000010
1111110011001110
1111110001110110
1111101000100110
1000
110110101
101110111
0
101111111
1001101
1000101101
1101000110
111000000
1111111111010111
1001111111
10100110100
1100000
1111111100100111
1111111010101011
1111101100011010
1111110011000001
110000111
111001
1111111011111111
11100001
1111111110101110
1011000111
11011011
101010001
1111110100100010
1111110100001111
1111110101100101
101100
1111111111001011
110110
1111110101101100
100011010
101011010
1101111111
101101110
110100111
110000
111001011
111000110
1111111010111001
1111111010010011
1111111011100111
1111110010111110
1111111010001010
100001000
100100100
1111111101111000
101000
1111111100101000
11001110
1111111011101100
1111111010111101
1110111
1111111111101010
1111111101011100
10010001
10011111
1111111100010000
1111111111101110
100101111
1000000
1101010111
1111111110001000
1100001111
1010100111
100011010
11001010
1111111111011011
1111111011110011
100110000
111001001
10100011100
10000000
1111111000110010
1111110000101111
1111101010010011
1111110111011010
1111110100011100
1111111100000001
1111110011010010
1111111100000001
1011000100
1101011
10000000
1010001011
1111110111101011
10111011
1100000010
1
1111110010000011
1111111110111111
1000110000
10011111
1010010101
1111111110100000
1011011
1111111011100101
11000111
1001111
1111101001001011
1111111100111000
1111101101110011
1111101011100101
1111101011111001
1111110110011101
11011001
1010001
111100001
1001101101
101111000
1001100
11111000
1111111011101001
100010
100101000
10000010100
10110
1111111001011110
1111111011000010
1010111100
10000111111
1111110110000011
100110000
1111111100010101
11111000
1010111
1111111110100010
1111101110010110
1111100110010111
1111110010100011
1111110010000110
1111101111010000
1111110010010100
1111111001001010
1111111010101000
1000111111
1111111010000010
100101101
111000101
1010000
101011111
1111111011101011
1111110111110100
1111111111110000
111110111
1101111110
1010101
10000100001
11011011001
1111111101011011
1110010011
1111111011111001
1111111100011011
110001
1111111111010110
111010001
1110100100
1111110000011010
1111110100000011
1111110001110110
100001110
1111110111100110
1111110001010011
111010100
111111001
1100101
1111111010010110
111001
100010001
1101011111
100001111
11000110
1010111
1111111011101011
1111100111111010
1111111010010011
1111111001101111
1111111110111001
1011
1111111111110011
1000111
1111111101111001
1111111101001101
101011000
1111110100001010
1111101100011000
1111111001100011
1111111011000001
1111111010010111
11100011
1111110111100010
1001110100
10011000111
1111101110000101
1111110101111010
101000000
1111110101101010
1111101010101100
1111110101110011
1111110010001001
1111101010011001
1111011111101000
1111101101101100
1111101010010100
10001110
100101
1111111111000010
1011011
