1111111110101100
1111111101000100
101100
1111111101110001
1111111111111110
110101
101000110
101000000
1111111111110110
11001100
10001
100000011
100000
1000110101
100011101
1000000101
1111111100000101
111000
1111111111110111
1111111111111010
1111111011101010
100111
1111111101001010
1011010
10100001
11001001
10100
11111
11000000
111000
11111101
101011
1111111110011111
1111111010011100
1111111111011001
111000010
1000101110
1111111100111100
1111111001111010
1111110100011001
1111110000010100
1001110111
100111
1111110101010011
100010000
1100111
1111111000100101
1111111001101101
1111110101000101
1111110001111101
1111111111011001
1111111110111000
1111111011001001
1111111101011101
1111111010110001
10
1111111111011100
1111111110011101
1111111111100000
1111111101111100
1111111000110011
1111111100000100
1111110111011010
1111111111100010
1001000001
100100110
110011111
11001010
11001010101
11101000100
11011101001
10000011010
10010000010
101000100
1010111000
11011001
1111111110101011
101010101
1111111111011100
101010000
110011010
101001101
101010110
1000001
1111111111110100
100001000
10001100100
1001111
1111110101000001
11001111
1111111101110000
1111101111000111
101010111
10110001101
10000111101
1100111110
10100011111
10011000110
10110000000
1011110001
1000011111
1010000010
1001
1111111011001100
1111111010100100
1111110001110110
1111110001110011
1111100110000000
1111110110000010
11100100
10110000
100101101
1111111111001001
1111111101100110
11001001000
1001110
1111111110100100
111110110
1101110111
1110111011
1001010011
1010001110
1001001111
10101011
1011001011
101111011
10001010011
10000110010
1100111010
10110001
101101111
1111111011110001
1111111010010100
1111101010000110
1111101101101000
1111101100011001
1111101101000000
1011
1111111011110011
1111110010100111
100110010
1111111101011100
11000111101
1111111110111111
10000101010
1111110110
1111010100
10100010
101110110
1011001110
110001011
1111111111101110
101111011
1001001110
1110100011
1001001100
10001101110
1111111010101111
100100100
1111111011111111
1111110111011011
10101
1110000111
11010101
1111101100101011
10001100
1111110100101001
1111110000100001
1111111100100011
10110001
11001
101110111
1100010001
10111110010
1000100011
10111001
101000101
111001011
1101110011
1000000011
111111011
1001111110
1111010101
1011000111
10011110001
1100011110
10000101000
110001111
10111011
1100010
1010010001
1111111101110100
1111110011010011
1111101011000111
1111111111000100
1111111001110110
1111111101110101
1011011000
1111111111000000
11110010
11111011
110110
1111111111010011
1000100
1011
1111111101110110
1111111110111111
111010101
100110101
1100101111
10011110100
1100111100
10011110001
1011011011
10000100000
1011110101
11000001
1001101011
10111001101
10111111
1111101011101011
1111101000010101
11000111
1111110111010010
1111111111111101
10000011001
11010
10001101111
11010001
1111110011011100
1111110110100111
1111111101111110
1111111011000011
1111111010100010
1111111011110110
1111110101011011
1111110110000111
1111110110100110
10110101
10011100001
10111011001
10010100100
1100111100
10001000111
101011110
1001100
10111011000
1000111101
1111100000111101
1111101001111111
1111110100001010
1111111110100010
1001010
110101010
1111001111
10011101110
1111111000110111
1111110110011010
1111111010000001
1111110001010101
1111110111101011
1111110000001001
1111101100011110
1111100111001010
1111110000100011
1111110000011110
1111110111000110
10000111100
10000100110
1100001110
1011110000
111110000
1111111011
11001001
1001111111
110000001
1111101000001111
1111100110110011
1111101100110001
1111111110010001
11010111
1111111101101111
1001101001
1110000011
1111110001001110
1111110011101110
1111110001100000
1111100111111110
1111101101000000
1111100010001100
1111101100010001
1111110010010110
1111101101101110
1111100110101100
1111110001000111
1111111000000011
1001010001
110010100
10111011
101100100
1111100010
1111111001101101
100101110
1111111101010011
1111101000110001
1111011101010011
1111100101110100
101101101
1111111101111100
1111110100101001
1111110110101111
1111110110101100
1111101111110111
1111101100110000
1111101111001111
1111110101100010
1111101010101110
1111100010000000
1111101100010001
1111111001000100
1111101000011011
1111100101000011
1111100011110110
1111111011101101
1111110100001111
100111010
1101100001
10001110111
10101101100
110111011
1111111110001111
1111111000011110
1111110000110011
1111110010000111
1111101011111110
11111011
1001100
1111110111101111
1111111000010111
1111101011010110
1111100100111101
1111100100111101
1111110010011111
1111111110111011
1111110100001110
1111111000100000
1000111
1111110101001101
1111110001001001
1111101001111110
1111101011011111
1111111100101110
1111110011111011
1111111101000110
110010101
10110111011
1110101010
110001101
1111111001011110
1111101011110001
1111110011000110
1111100001110010
1111110111011000
1111111100110001
100101111
1111111010010111
1111110000000111
1111110010011111
1111101111101011
1111111010010011
1111111011001011
10111110
1111111111010001
1111111000110001
1111111111110011
1111111110000111
1111111101101100
1111111001101001
1001011
1111111100110111
1111111000010011
10010011
10110001
1011000111
110011111
11100000
1111111011011100
1111100011111010
1111100110000001
1111110010110001
1111111000000110
1000111101
100011
1111111111101111
1111101101111001
1000010
1111111000011010
10000010
11110100
10000110111
11000000
1111111100011111
110000111
1111111100101010
1111111101010000
1111111100010001
110010001
100001001
10101
110101
1111111100011011
1111111100100010
1111110001001101
110001100
1111111000011011
1111110010010010
1111101111100001
1111111100010001
10110000010
1000111110
100100
110000011
1111110101011001
1111111010010111
1111111111010100
1110111
1001110000
100111111
100000100
11000101
1111111110100110
1111111100100101
1111110010110001
1111111001001101
1111111101111111
1000100
1000001010
1100000
1111111101011101
1111110100101100
1111110001011011
1111111011110010
1111111010000010
1111111110101000
100110001
111111010
10111111001
10001111011
100011001
1001100100
1111111000110010
1111110110010001
1001100
10010100
11000111
1111111010000011
1111111111000001
1110011
1110011
100001010
1111111101110011
1111110111101100
1111111100101011
100
1100001110
110111011
1111111100110011
1111110101111010
1111110001101100
1010100
10001101
100
1111111110101001
10000111001
10001101011
10111010011
111010
1001000000
1111111110011010
10110000
111100100
10110100
110001111
1111110111111000
1111111110110000
110111000
1001111100
1111111010111100
1111111111000101
1111111000100001
1111111001101110
1111111101001001
1111111111111101
1111111110100001
1111110011010011
1111101110001111
1111110001010111
1111111100001001
1111111101110010
1111101100111010
1100001110
10101010001
10100100101
100011010011
1111101101
1100101
1111111101011011
1110
111100111
11011
1111111011011111
1111110110101101
1001101
1111111111100001
11101110
10010110
1111110110000100
1111111101110100
1111111011111110
1111111101110001
100101000
1111111001101100
1111111001111110
100110101
1111111000111001
1011
111101011
100010110
1100000001
10100011110
10010101010
10001000110
1111111001110100
1111110010001001
1111111010100001
1111111110001000
10011011
1111111101111011
1001101
1111111000000000
1111111110110001
1111111001110000
0
1101000
10001111
1110110011
1011010
1111111101111010
1
111110110
1111111011110111
100100
111010111
1111111001000010
1111111010111100
100000010
1111111110100110
10000001
10000101000
10100110001
1111111011101001
1111111100000111
101
10001000000
100001001
101001001
110111010
1001111
11101001
10110
110110010
100000010
1001000101
111010000
100000011
1111111011000100
1111111111010111
1111111100011010
1011
1100111
110100111
1111111101101010
1111110010010100
1111111101110110
1111111110010100
1111111110100000
1100000110
1111111101101110
1011110
11000010100
10001001111
1101110111
1000
1111111101110010
1111111111100000
11111
101101101
1001011
1010000110
110010000
100001011
101010110
10000110
1111111001001010
101001111
10101101
10000000
100111011
1111111001001010
1101010
1111111110110001
10001110101
10110100
1001101111
11111
110101
1111111110011010
101010100
11010010110
1100011101
1111111110010110
100111000
111000001
1111000
10000001001
1000100111
111100101
10110111
100010
1111111110001010
1111111111110111
1111110110000101
1001010
1111111001011100
100100110
1000010001
1111111111100100
1111111000100001
100001110
101100101
1010101110
1111111111111001
1111111001100001
1111111100110100
1111111011001000
1111111100000100
11011000100
1111111010011000
1111110011101111
1111111010100111
1001010101
1011110110
111000000
111111101
10001010011
1010111000
111101011
110111010
1111111111001100
1111110001001110
1111111101011101
1111111111001110
110111111
10100110
10001101
1111111011011001
10010011010
11110110011
1010111010
100001011
110011111
1111111111011011
10101110
1111111110110010
1010100100
1111111110000001
1111101001
1111111101111010
1111111000111001
1111111101000010
1111111001011001
100011100
111100000
1111111110000010
1001111100
1110010101
10110111
1111111100001011
1001101010
111011100
111101011
111000
11101010
1110100000
111100100
111101111
10010011110
1011010001
110000111
1111111101000101
10100000
1111111101100110
1111111100001101
1001011101
10001011101
1101011010
1111111101100010
1101001
100111110
10110011
10110100
110110111
10011011
1100001000
1111111110110001
1111111011011100
10101
1111111101011011
1111110110100100
1111111011011000
1010111100
10000100110
111111110
1111101101101111
1111101110001110
11110101
10100111
1111111100110001
100011100
1111111100100000
1111111101000111
1011101111
1111111100011010
1111110100000001
1111110100110001
1111011011
1111111111111001
1001101101
10001100011
1111111110100100
111011000
1111111010001101
1111111011111010
1111111110110001
1111111110001001
1111101101011000
1111110100011001
1010100
1111110101101101
1111111000100010
1111110001000110
100001011
11101
101001
1111111010111011
101001000
1111111100010100
1111111101001001
1111111011101111
11110100
1111110111001010
1111101000010110
1111110100001100
1111101011100100
1111101010110100
111101110
10000101111
1110011000
101010110
1111101011001110
1111101111000110
1111111001000001
1111111101001010
110111111
1110001011
1010010010
1111111010100000
1101111
10101
11100001
100100
1111111100000110
10001000
10001111
