1001101
1111111010110101
1111111101010001
10100001
1001110
1111111100011101
10101011
1111111111001000
1111111101100111
1111111101101111
1001101
1111111011101001
11011000
1111111011101110
11110011
1011101
1111111100111100
11101011
1111111111111111
1111111100100100
1111111011111100
101011001
1111111011001000
1111111011010011
1111010
11101111
1111111100000101
1111111100111000
1111111100000010
11010010
1111111101111001
10010011
1111111110000111
1101100
1111111110011010
100100010
101000
1111111011000001
1100000
10010
1111111100011111
11011100
1111111101101001
1111111010000101
1111111101010010
1011110
1111111011011101
10011011
100000
111100
1111111110111010
1111111100110001
101011
1111111100110101
1111111011111110
1111111110001100
1111111010111100
1111111101101000
1111111111010011
11011001
100101011
10100101
1000000011
101100000
1111110001100011
1111110011010010
1111110111011110
1111110111100101
1111101100001111
1111110011010001
10101110
1111110001000011
1111100100111100
1111101110000000
1111110100100100
1111111000010111
1111111000101100
1111111010010010
101000011
1111111100110000
1111111101110101
1111111101111000
1111111110111011
1111111011100101
1111111110011101
111011
1111111101101111
101011100
1111111110110111
1111111100101011
1111111100010101
1111111101010001
1111101110110010
1111101100001101
1000100
1111101101100011
1111011111010011
1111100111001001
1111111101000110
100000010
1111111111110100
10101111
1111110110100100
1111110101010010
1111111101110100
1111111110011100
111000000
10011100000
1010101101
11011111
1111110110101110
1111111101101111
1111111111101101
11010100
10101110
10000111001
1111110111110001
1111110110100101
1111110010010010
1111110011110000
1111111100000110
1111101011001010
1111101000101111
1111101101101000
1111100100011001
1111110100100010
1111110111111110
1111110111100100
10111
1110010111
1001110001
1000011001
1111111011001000
1111110111001100
1111010110
1111111111001010
1111111011010111
1111110100110000
1111110111111110
100100011
1111111100010110
1111111101000100
10110100
1000101110
1110110
1000110
1111111001110010
1111111010000110
1111110011011001
1111111000011111
100100010
1111111011100000
1111111010111011
1100100
11101111
1111111001000100
1111110110000011
1111111101101001
1111111101111101
110011001
100111011
10110101
11111
1111111111011001
1111111110001101
1111100100111110
1111100101100100
1111110100011110
10101110
10000110
1010000
10001010
1000110111
100101101
11111000
1111110111011101
1111110101011111
1111110000110000
1111111111111100
1111111101001111
1111111001011010
100011011
1111111101001111
1111111010001111
1111110110000111
1111110111110110
11010010
111110101
1111001110
10100101100
10101100000
1111110110
111100110
1111100111100010
1111101111000110
1111110111101001
1111111111110101
100100110
1111111100110111
110101110
101100000
100011101
1010101111
1000100
1111110010111000
1000000110
110011010
1001111010
101000000
1011111010
101000110
1100001
100
1010001011
1011011011
10000010100
100000001
11000011
1100010000
1100101000
10001101111
11011010
1111100111011101
1111111011111000
1111111110010000
1111111100100010
10000110101
1111111110110110
1111111110101110
1100
11100001
1111111111001111
100101000
1111111111100010
1111111111110101
11000011
1110011111
111010111
10000001010
1001110000
1101110010
110010
1001000101
1001101011
111011101
1111111101111110
1011011100
10000010010
10111000010
1101011110
1111101110010010
1111110101010010
1111111011101100
100111010
1111111100000001
1111111110101101
10001001
1111111011100110
1111110111101100
1111111100101001
1111111100011001
1111111011010111
1111111101101110
1111110011011001
1111111101100010
1100111110
100
1111010
1111110100101111
1111110010111000
1111110111010000
1111111011100111
11100011
1110001000
1011110000
11100000010
11111100001
100110001
1111110110010100
1111111100011100
100010100
11100101
11011101
1111110111000000
1111110101001101
1111111100100001
1111111101011100
1100
100011
1111111110010101
1111110101011100
1111110111101101
100001100
10011010
1010101001
101110110
100011100
1111111101011001
1111110011110001
1111110100111111
1111111111101010
100101100
11000000100
11010111000
1100110101
101101001
1111101110010101
1111111001001111
1111111011010100
100100011
10001101
1111101011010011
1111101010010110
1111111010001001
101011
1101100011
1111111011000111
10000011
110001010
10101110
11001100
1111111001100001
1010111
1111111000101010
1111110000001110
1111101011101011
1111100000000100
1111100111011010
11111011
1100111011
10001111011
1110010010
1000010000
10010000100
1111101110110010
1000010
101010
1111111010110010
1111111101011011
1111110000101010
11110000
1111111100100101
1001000100
1011100
1111111111101000
1111111011000001
1111111111000100
100011010
10110000
11000000
1111111101011100
1111110000101001
1111101000101010
1111100011101000
1111100110001010
1111100100111100
1111110000100001
11011010
1010001001
1011000000
10000101111
10000100001
1111110111010010
1111111101010110
10011
10001000
1001100110
1111111110000111
10000001101
1111111010101011
1000101011
10000010110
110111010
10011
1111111110111000
1111110101110101
1111111100000000
1111111100010110
1111111010010110
1111111000111101
1111110011101110
1111011011111001
1111101001011000
1111011010110011
1111101100110000
10001
11000
1100000010
1000111111
1100011111
1111110111101010
110010
101001001
1111111111010010
110100101
1111111101000110
1101000100
10010001111
1000101111
10110011101
110001001
10110
1111110100110111
1111110001101100
1111110111000011
1111111110001011
1111111011010011
1110010
1111100011001100
1111010000001000
1111100010101010
1111100111110111
1111111000110100
1111111110001100
1111111101110000
1101100100
1001011011
1100000111
1011011101
11110101
100000111
1111111110110000
1111111110111011
1111111000001101
1010011001
10000011111
1111111010011111
1000001001
1010001100
1111110101110100
1111110001011101
1111111001001111
1111110111010111
1111111010101001
10011101
1111111100000010
1111101011101000
1111010010001011
1111101011001100
1111101111110011
1111111010100000
1111111101011011
110100111
1101101011
1000100111
1111111110001101
110100010
10011101
1001111
1111111011001011
1100110
1111101110110110
1001011111
1011001011
0
10000011011
11001101
1111101100011010
1111110011110011
1111110110100010
1111101101010101
1111110011010101
1111110010010000
1111101001011011
1111101011000110
1111100011100111
1111101111110100
1111111110100100
111001001
110010111
101000000
1101111
1111111010011110
1111110111000111
1111111001100001
1111111110100000
1111111100110001
1111111111101111
1111111011000000
1111111000010111
10001000101
1110011
1100001
10001111100
101010010
1111111101110000
1111110100110110
1111110011100000
1111101011101100
1111110011010100
1111110001000110
1111101110101011
1111101101111100
1111110000111010
1111111101010101
1111111111000110
11101000
1111111101100001
1011001
111111011
1011000101
1111111000110110
1111111111111010
101011010
1111111110101101
1111111101011100
1111111010101011
1111100111001010
111000
1111111110111101
10110100
1010100110
1010100010
101100111
10110001
1111110101011101
1111100101011111
1111101001001101
1111110000101101
1111111000101001
1111111101010010
100011000
1111111110001110
1111111011011110
1111111111001011
1111111001100101
100000101
11001010
101101001
1011000
11100001
10001111
1111111111110000
1111111001101011
1101101
1111101100110101
1111111101111110
10000001
1001111110
110000101
10010010011
1001001111
100011011
1111111110101110
1111111000100111
1111110001010010
1111111000101010
101001
100010
1111111111100100
1111110100111110
1111110010101100
1111110101110101
1011000
1001001011
1111111110100011
10010100
1111111000101111
101110110
10000111
100101101
1111111011001101
1111111111011100
100010
101101101
110001101
1110
1011101011
10100001101
1001100101
10001010
1111010
1111111100111101
1111111010101010
1111111100000001
1111111110110101
1111111101110010
1111111111100010
1111110111011011
1111111000111101
1111110111010010
101001111
1111111100100111
1111111100100010
1111111100000011
1111111000010111
11101110
1111110101110010
1111111011100100
1000010
11000010
100011110
1011101010
1110111
111111110
1010110110
1100100001
1011001111
1100101100
1111111101110100
1111111000001000
1111111001001001
1111111100111110
1000100111
10001001
1111111110100001
1111111001010111
1111110101111110
1101001
1111110111111101
1111111100000100
1111111101101010
1111111100000110
1111111010011111
11010010
1111111100110001
1101101
11100000
1111111011001101
101110001
10110100
10100011001
1001111011
1001001001
1000111011
11000111
10101110
1111111100001001
1111111010001110
1011001010
111011001
100000011
1111111110011110
11111000
1111111100011001
10011100
100101110
1111111011000001
1000000110
1111110101111111
1111111111110101
1111111111010101
1011100
101000010
101010000
1111111010111001
1111111111011010
1111110110001010
1111111010101001
10011001011
11010000011
1001000001
100001011
10111111
100000111
110100111
100011000
110011100
110
11101100
1111111101111110
1111111111000010
1111110100100100
1111110110011100
1111111111101101
100001
11110010
1111111011011011
1111111100100101
11000
1000100
1111111100001000
1100100
100111110
101011
1111111111000011
10001110110
1100101101
1101100110
1111111100
1010111111
1000100101
111010011
1100110000
1111111001
10001100
110110000
1011100
1111110101100110
1111101110001110
1111110111011101
1111111001011110
101110111
100011101
1111111001000110
1111110010011111
1111111111101010
1111111111101001
1111111010101101
1111111110011001
1010100
0
110010
1111111011110100
111110100
1111111011110000
1111111010011111
1111110100011011
1111111010010010
1111110011010110
1111111010100101
1111111100101100
1111100111011000
1111100100110010
1111101111100101
1111101001011010
1111100011101001
1111011010100100
1111011011101011
1111100110111110
1111111010011110
1111111101000001
1111110011110010
1111110111111000
1111111110010101
10010010
11000101
11010011
111101
1111111110110110
1111111100110000
1011101
101100000
1111110011101100
1111110000001101
1111111100110000
111111010
11010101
110001
1010010100
1111111010010001
1111110111000010
1111110011110110
1111101110011001
1111110100100011
1111100101011101
1111100001101001
1111110011000001
1111111100110111
111110
1111111001111011
1111110110011111
1111111111100010
1000111
1111111111011011
11101010
1111111011101001
1111111100000111
100100
1111111101000111
1111111111100100
11110110
1111111101111101
1111111110100011
1111111010010001
1111111010010000
1111111110100000
1111111011101111
1111111111001010
1111110110101000
1111110111110110
1111111100010001
1111111001001111
1111111011111100
1100101
110101111
1011000100
1111111110010010
1111111010001000
1111111001010011
1111111101001110
1111111100001100
1111111110110111
1111111011001110
