1111111111011000
10110010
1111111011100101
1111010
1111111110100001
100000011
1111111110110111
10101111
11100110
10010101
111101
1111111011010010
1011111101
110000111
1111110110111010
1111111111001000
110011
100111
11000011
1111111111111000
11110101
100111111
1111111110111001
1111111101000110
10010100
10100110
1111111010101011
1100
11001111
1011111
11000111
1111111101011010
100110010
100111110
1101000100
1111000001
10010100000
11011000000
11010011111
1110011110
10000101100
111111110
1111110110001011
1000000001
1110101001
11100011011
10101100100
11001111111
10101110011
1111111010
10001010000
10011111110
1100110
1111111110011000
1111111110100010
11100010
1100011
11111011
100111010
10100010110
10011000100
1110101010
10001011000
10000111001
10001010000
1111111111000101
111011011
10000111001
1110101000
100101110
100110001
1111111010010101
1111110111000101
1111110111011100
1111111110110100
1111111
101101001
1101110111
1110110001
101000111
1111110110110011
1111111010100101
1111111010110100
1111111011011111
1111111011000011
1111111100111110
1111110011001110
10101010011
11101100000
1100000011
10011101000
1101110011
1000110101
10001111
10000111100
10110111100
1100000101
10001101000
10000111011
1111111111010011
110010000
111101000
110100011
1001100111
111010
1010100110
1001100000
11101000001
1111000011
1111111011101110
1111110111110110
1111111011110011
11111111
1111111110101110
1111111000001000
1111111110010010
10101001100
111010100
1111111001010101
1011100
1001101
1011100001
10010110101
101111111
11011111
100110110
1000110011
1111111010101111
101111
111000010
1111111101001111
10101100
11110011
111010
1111111101101110
1000010011
1111111110000011
10011111
10001100110
1110100101
1001100
1111111011000000
1001001
10111001
1110011
1111110101000010
11001001
1111101
1111111110100000
101000
110011111
10011
1110100
1111111000111111
10110001
1111110110111111
1111110111100101
100111101
1111111101110111
1011001000
1111111110111111
1111110111011010
1111110111100010
1001010
1001101000
1111111011011001
10101000110
1101110010
1111111010111110
1111111111000111
1111111101100011
1111100001111001
1111111110101101
101001111
1111111001100110
1111111101110000
110000101
1111111010011001
1111101010000100
1111111110011111
1111110111001101
1111111010100000
1111110110110111
1111111000100011
1111111100101011
1111111011100101
1111110110100010
1111110111111101
1111111001001011
1111111010100101
1111111101000001
1111111110000101
110001110
100111010
110110111
10101101
1111111011111010
1111111000010101
1111110000101010
1111101010000001
1111111101111011
11001001
1111110011011010
1111111011100101
1110000
1111111110111010
1001
1111111111110010
1111111001010101
1111110001110100
1111110100011101
11011
100001100
1111111010111101
1111111000111101
1111110101010110
1111101101110011
1111110110101101
1111111001110111
1111111111101100
1111111000000010
1111110111100101
10110101011
1100011000
10101101100
1111101100101011
1111101110100010
1111101101001110
1111111010111111
1111111100011010
1111110101000000
1111110111000001
1111111000100011
100111000
1000110
101101
1111111101110111
1111110101100011
1111110101100001
1111110100001001
111011
101100
1111110110101101
1111111001101001
1111111100001011
1111111001001001
1111110100111010
1111110001011001
100100111
1010010111
110010001
1111111111001000
1111110101111011
1111101110001101
1111111001011101
1111110010100100
1100010
1111100001100001
1111101111111001
1111111011111010
1111111110110000
1111111101011110
100010011
101011100
1111111011110100
1111110000101001
1111100111001110
1111110000011000
1111111100000111
1111111101000001
1111111011010111
111101000
1000100000
1111111110001010
1111110001011000
1111111101100010
10011000000
10101101010
1111110100001001
1111110100001101
1111111011011101
1111110011000011
1111101111110000
1111110100001011
1111110110011000
1111101100100011
1111111011100011
100010110
1011
1111010011
100001000
1111111101100000
1111111001000101
1111111000001000
1111110001111111
1111111010011111
1111111011100101
1111111110010000
1010111111
1101101100
10011000000
101000000
1111111011010001
110010000
10111001110
1111111100111101
1111111100101101
1111101100111011
1111111110101100
1101100011
1111101010100110
1111100100100001
1111101000111101
1111110100001111
11000010
1111111101010111
10110001
1010100100
1000100000
1111111100010000
1111111100011001
1111110100001010
1111110100011011
1111110111100001
1111111101011101
1111111001001000
1111111110001000
1101101001
100101100
1101000111
100011110
10101011101
10011110010
1111111010100001
1011111100
1111110010110110
1111111100100010
1111110100011111
1111101101011111
1111101001001111
1111100001101100
1111110111101100
1001110100
1000001101
110001000
1011101001
110100000
1100111110
1111110110100001
1111111001100001
1111111001001100
1111110110111010
1111110111000111
1111111011001110
1111111100001101
110011011
101000100
1011100010
10001110011
1110011101
10100001111
10111011
1111111010011011
1111101100100101
1100000
1111111100100111
1111100100101000
1111100110100100
1111110100001001
1001100
10001100000
1011010010
111011100
10001001011
1000100010
1000011100
11111110
1111110111000000
1111110110111010
1111111101111100
1111111001010111
1111111000100111
1111111111001010
1101110111
101010000
1111011011
1111110101
11001110111
1010010100
1101110
1111110101110011
1111111110101101
1110101101
1111111110111100
1111100101111010
1111100101111111
1111111100000001
1011001001
10001000010
1000110110
101110011
1011010110
1110001000
1001110010
1100000101
1111111111001111
1111111100001100
1111110110001001
1111111011001101
100010011
1101000
1111111010101010
1110100110
10001000010
11001110000
10000001001
10010011110
111001101
1111100101100101
1111110100010101
1010011
1111111111000110
1111011111
1111110101100011
1111111111100111
10001111010
10011001111
10010111001
1110110001
1100100010
1100010111
1101000001
1110110101
10001001
110111
1111110101110111
1111111000000010
1111111110000010
1010001110
10010000
111110101
1111101111
1000110110
1111101001
1000010001
1001011001
1111101000011101
1111100101010011
1111110001111110
1111111000111100
100111100
101011001
1111110001110100
1110000100
1001110101
1000011000
10010001110
110010111
100101011
1100101111
1010111111
110001000
10001100
1111111111100100
1111111001000011
1111111101001000
1111111100000101
110011001
1111111101000111
1001100101
10000010
1001111111
1000001000
1010111110
1111100010011110
1111101101010011
1101
1111111011010001
1010100000
1111111100111100
1111110010010000
111101110
1011010010
1100100101
10000110100
1110000001
1010000011
11100110
100111001
111110001
10101110
10101000
1111111011010011
1111111111011100
10010011
1111111100011011
1011
101001111
101100000
1010100111
1111111011001100
1111110101011000
1111011110010101
1111101110100110
1111110001000100
1111111001001011
100111100
1111111110011111
1111111001101111
1111111010111100
110000011
111000011
11101101
111000000
1101101
1111111111001001
1001101100
1110011000
11011111
1111111101111110
1111111011010001
1111111100111101
1111000
1111111011110110
1111111010011111
1111111101110101
1111111010000101
101010010
1111110110111001
1111110001011011
1111110000000110
1111101000111011
1111111101010100
1111101110011100
110010110
1101010010
1111111111010010
111001
1111111111010010
101001000
11011011
1111111001100111
100111011
1111111000011110
1001000
11111101
111101010
1111111111011100
1101001
11100
11000111
1111111100111100
0
11101000
10100101
1011100000
1111111001001100
1111110010010011
1111101011110110
1111110001100010
1100101
10000100111
1111011101
111000100
1111111111111000
1111111100010111
1111111011111101
101101110
1111111011110010
1010111100
1111111101101010
1111111110001100
101011111
10001001010
1011001100
1100100100
1100010
10101110
110100001
101100
1111111000010101
1111111011011110
1111111101010010
1000001010
1111111000011011
1111111010110111
1111110100001110
1111111111011101
1111111010100000
1111111111010111
10100001100
100000110
1111111010000011
1111111001001100
1111111010110101
101101
10111011
111000000
1111111100001101
1001001100
1011101010
10001111110
10001100000
1100101111
111010011
1001010011
1111111101000000
1111111011100111
100010100
1111111000100101
11101010
10100100
1111110110000100
110000110
11000011100
110001100
1111111100110100
1111111100111000
10000111000
1110100011
1111111110101010
1111111100100011
110110101
1001010010
1111111001100101
1111110
110101
1000110000
1011010110
1101110110
101000
10011001000
11111010
10001
1111110110111011
1111111110001110
1111111001111010
1111111001010000
10001100
1000010100
1111111110011111
1100111110
10010000110
111000101
1110111
1111111101010111
11010000110
11010000101
1101010100
1100101
1111111011110110
101011011
1111001111
1010001011
10101011
110011010
1111111001100000
1111111010010110
111010011
110101000
1111111110001000
1111110101101100
1111111010111010
10101001
1111110100111101
1111111010001110
1111110001011101
10100110
1111110100011001
101100101
1010011001
11011011
10001111
1111111111110000
1111111010101101
1111110100100000
1111110111011100
1111111001100011
1111111000110011
1011101101
10010101010
1011100110
1111111100101011
1010010001
1101011100
1001010011
1110001110
1001111010
100111100
1111111111011100
100110010
1111111000001001
1111110001110111
1111101011111111
1111111100110100
1111111001100000
1111111001001110
1111111010100101
1111101111100011
111110
1111111110001110
1111111011011000
1111111101110000
1111110111111010
1111111001101000
1111111000111000
1111111110001111
1111111100010101
1111110011011000
1111110100000110
1111111110001000
1111111010010011
1111111101011100
1111110101100010
1111101110000110
11111111
1111111001101101
110010001
111100000
1111111000010011
1111100111110111
1111101111111001
1111111010111100
10101010011
101100100
1111110110100100
1111111001011011
11001010
1111111111100101
1111111111101000
111010
1000111
1100100000
11101110
1111111111010001
1111101000110011
1111100000001101
1111110000101011
1111011101011000
1111101001010111
10000000
1111101111101101
1111100000010100
1111100100101100
1111100111101111
1111110111000111
1111111001000111
1111111010010010
1111110011000001
1111101011000100
1111100100110010
1111111001011010
1111111110111111
1111110101111111
1111111101110100
1100
1111111101111110
1111111100111000
100000111
1111111110001000
1111110010111111
1111100111011011
1111100111110010
1111101111100100
1111101100110101
1111101010001101
1111101000001011
1111111100000110
1111111100100111
1111100010001100
1111011000001011
1111011111101000
1111101011010110
1111101000001000
1111110111101011
1111110111110101
1111111000110110
1111101001011110
1111101010000000
1111110000011011
1111111111010001
1111111101010000
11010011
1111111111101100
