1111111111011100
1111111011111000
1010101
1111111110110010
101000011
1010001
11111100
10110010
101011110
11010001
1111111111011011
1111111100110011
1000100
100011001
1010101011
1111110
100111
1101010
1111111100100110
1111111111001001
1111111011010000
10110110
1111111101110001
11000
1111111101010011
1111111010111100
1111111100110011
1111111111111000
1111111101111000
1111111110010110
10110101
11111001
1111111101111101
1111111010011110
1001001
101011110
101110110
1000111101
1111111011110110
10110001
1101100011
11011000
1101001001
11010000101
1101000011
1001101
1100111100
110111101
11101000
1111111101001100
1111111010011000
1111111000001110
101010111
1000
101010110
1111111100110000
100101000
1100101
1111111101011011
110110
1111111000100000
101110
1001000
1000010011
1111111101111100
1111111101110101
110000110
10000101111
110111
1110100000
10111110100
11100000100
101000000110
1010100011
1111111110100001
1000001001
1100001011
100110010
1111111110110110
1111111001101110
10000101110
1010010000
1111111100000110
10110101
1111111011101000
1111111110000111
1100000100
1111110101010100
1111101111101011
101101111
11011010
1111111101010010
1000000
1011100111
1111110111011110
1111111111101111
1111111001101001
101001110
1111111111011101
1001011111
101010011
1111111111111000
1111111001000111
1111111010001001
1111101100011010
1111111010011111
11100100
1011010010
11010000
1111111001000101
1111101101011000
11101100
1111111101011101
1111111011011001
10001101011
1111101010011110
11000100
100011110
11110100
11000101
10001110010
10011011100
10001001000
1010100011
1111111011011000
110110111
1001100010
1010
111010001
101010110
1111111111011010
1101110
10000000110
10011010
1111111101110011
1111111001010001
1111110011111000
1111111001011011
1000001001
10110111
1111111011010000
110000
1101010010
1111101110110011
10010001010
1111111110100100
1111110111110010
1111111001111011
1111111011001000
1111110011110100
1111110101000000
100001110
1100010101
1001000101
111001100
111111111
1111111100101100
1111111011110100
1111111010010111
101001
10110100
1100110000
101000100
10101111
1100011111
1101011100
11000111
100010001
100100101
1111110101110000
1111110100101101
1000100111
1111111001110100
1111100101000101
1111101011110010
1111110101001110
1111110011010101
1111110100101001
1111110001010110
1111111100100010
1011001110
111011011
11100010
10001000
1100110
1011110
1001
1111111110000111
1111111111111001
11010001
1011000101
1011101000
1100101
10001010101
10110010
1111111111110000
1111111101110100
1111101001011101
1111101110001011
110000
1111101111000110
1111101000110111
1111101011101010
1111110001010010
1111111001100011
1111110010110000
1111110101011010
1111111001111111
1111111111011100
1001010011
1111111011010010
1011111010
11011011
1111111110000001
101101001
1111111110011101
1111111010011000
1101000
10001101
100011001
1010010001
101001011
11011100
11111111
1111110011101101
1111101000101011
1111111010111110
1111111011000111
1111110101110101
1111110101011010
10111101
101001001
101001
1111111011011100
1111111100110100
1111111110100110
1111111011101000
110011101
110101100
1111111011000101
1111111000111011
1111111011001100
1111111011100010
1111111111011101
1111110101010001
1111110100110010
1111110111101110
1111111100101010
111101
1111111110100101
1101110010
11101111
1111111111111001
1111101111010100
1100100011
100000001
1111110111101010
1000110100
10111011
1111101010
101101
1111111110010101
10111110
11010101
1111111111000111
1001010001
1111111111001111
1111110100101001
1111110010110101
1111110100010011
1111110100100110
1111110101011010
1111110101111100
1111110001100100
1111110110110100
1000001111
1111111001011111
1111110111111111
10011100
1111101110101010
1011111101
1111111011101110
110000000
1111110100010100
1000001000
1111010110
10100111110
1011000101
110000101
11100000
1010110100
1110111100
1010111001
100001011
11
1111110100101110
1111101111111010
1111110001110010
1111110110011110
1111110100010011
1111101010111101
1111101111110010
1111111001101000
10011101
1111101100100111
1111100110101000
1111110010110011
1111111101111111
1011011101
1111110000011001
1111110101011000
1111111101010101
10000111001
10101011000
10000101100
10110011001
10010101000
1011100010
1011111010
1110001001
1010010111
11001010
100100101
1111110100111100
1111110110000011
1110
100010
10000110
1111110110111111
1111111100011100
1111110110111011
1111110011110111
1111110010000011
1111110011101000
111101011
10101001101
1111111111100100
1001110111
1111111100011010
1001110101
110010010
10100001101
1111111110010010
11001010111
1010101001
1100010001
1111111101110111
100110110
1111111001110010
1111111101110100
1111111100000101
100110011
1110010111
1101001011
111101101
111111110
11100000
100110101
1000010100
1010011100
10011110111
1101
11101111
10000001101
111011100
100100111
1111110101110111
1100011011
11100111
1001011011
10111
110010010
1100111100
1111111110101001
1111111100001101
1111111110101101
1001100
11101110
1011011000
1101010010
10010111100
1111101100
10100101101
1101011010
1100010100
10000001011
11001111110
111111101
1111111101010000
111010010
1110011010
10001101101
1111110100000000
1111111000000000
1111110100001100
1010111010
1111101010110000
1111111110000111
1111111001100100
1111111001101011
1111111011101011
1111111001101011
1111111101001000
1111111011101110
100111100
1101000100
1010011000
1101111010
1001010110
1011011010
1001011011
110001010
1111111001110110
1001100001
1001010001
1111111101001100
1111101100111001
1011011100
1001111000
1110010111
1111110111101010
1111110110001111
1111111100111110
10001010
1111100100011100
1111100100100010
1111110001010101
1111110101100101
1111110110110110
1111110111101100
1111111110001101
1111111111100111
1001101110
10001101101
11001100010
11000101
1101000100
101001011
1111111101110100
1111111101001000
1111110111010001
1111101101011000
1111111101000100
1111110100100111
1111101110110100
1100101100
1111100110011010
1111111001001100
1110111011
1111110111100010
1000111101
1001000111
1111110111010011
1111101111011111
1111110011001111
1111110011010101
11001100
11000011
11011001
100010110
1010101101
1001011000
10010101010
1010101000
10010111011
1111111101100100
1111110110011010
1111110101011000
1111110001111111
1111110001000000
1111101101110111
1111110011100010
1111110110111000
10110100100
1111110010111100
1111111001100010
1111111111011000
1111111001110110
1111111110110000
1111111011001111
1111101010101100
1111110000100101
1111110000000110
1111110010001000
11110000
1111111110001010
10010001
1111111011010100
1000100101
11011110
10010001010
101111000
10000100
1111110100110100
1111110000101111
1111110101101011
1111111011101100
1111110011000110
1111110100100111
1111110101000100
1011011010
100011110
1111110110101000
1110000101
1111110111111110
1111111011010011
1111110000000010
1111111000111011
1111101000011010
1111101000001111
1111110010010010
1111111101100111
1111111001000010
1011110
11000010
1111111111011000
11101000
101100110
1000001000
100001111
1111110100011011
1111111000110110
1111110111101001
1111111001101101
1111111101001000
1111111111101101
1111110111101011
1111111011110100
1111111010111010
1000011111
1111111111011001
1000110101
111110011
1111110000000111
1111101111111100
1111101001010011
1111100000001101
1111100111011011
1111110100011100
1001111011
1111111110111011
10000110
111110100
1111111100010110
10000000
1000101000
1000111100
111111101
1111111000100110
1111111000011011
1111111100100101
100100
1101111
1111111011101110
111111001
1001100001
1111110011001011
110001111
1011000110
111110111
101011010
101011010
1111101001010101
1111100010110011
1111100111101111
1111101100010000
1111110100101100
101010001
1111111111011001
100001000
1111100001
11111010
1000111010
110110011
1100101001
1101100111
100000010
1111111010101011
1101011
111110110
1000001001
110011
1111111110110101
1111111100100100
11100111
10011100
1011110000
1111111010110110
11011
1111111010000101
1111110010010100
1111100000010100
1111100010100001
1111110001010000
1111111101001100
1111111111110100
1111111111000001
1101010010
1110001101
100101000
10010100
11100011
1100011101
1000000
1111110111101101
1111111110101000
10010111
1010101
1011
1111111010010001
1111111111010111
1111111110010001
1111110010101010
1111101111011111
1111110001110010
1111111100011110
1000110101
101011010
1111110011011000
1111101010010010
1111101011000111
1111111110000000
1010110
1111111100011000
1001001
100110010
100110101
1100001
1100001
101011011
11010001
1111110101010101
1111111011000011
1111111100100100
111100100
1111111001111101
10010101
1111111111001100
1111111101000001
1111111110100011
1111101110101111
1111110001000001
1111101111110100
100111111
10000000
10100111
1111110111110001
1111100010111111
1111011111011111
1111110101010111
1111110001111110
1111110010101110
1111111101011011
1111111
1111111000111110
1111111000111110
100011100
1111111110000111
1111111100111001
1111111111100011
1001101
1000111010
1011010011
101111100
101100011
11111010
1010011000
1000010111
1111111011001010
1111110000010010
1111110100000000
100110001
111100
11111000
1111110111101011
1111101000000000
1111110011001011
1111110010101010
1111101111101100
1111110100001011
1111111110010000
1111111001010000
1111111001100100
1111111010011110
1111111011000101
1111111011011001
1111110101101000
1111111001010100
100011111
1111110110101101
110010111
10000001100
1110101111
1111111101010110
101001101
1111111101011001
1111111100110000
10001110110
1101100000
1111111101110100
1001010
1111111011111010
10010011
1111110101000010
1111100110011010
1111100110111111
1111111001001011
1111110101111101
1111110100101011
1111110010000001
1111111001110101
1111110101111100
1111110110001110
1111111101100011
110110101
1111111111111001
1111111110000111
1010110100
1001110110
100110100
10100110
1111110100100001
1111100010100100
1111101011010001
1111101110000100
111110010
111110011
1011010
1111111111011000
111111
1111111101001101
111101001
1111110110111000
1111110011010100
1111110111010110
1100010111
1001010010
1111111000010100
1111110110011110
1111111110011110
101110011
1111111010011000
1100001001
1111111011010010
1111111100100111
1010000101
10101000
10000
1100100101
1011011110
10101110
10011110011
1010110011
1111111111010101
111011
100100011
100100010
1111111101010101
1111111011100011
1111111110110110
1011111010
10100100011
10110110101
10100010110
1100001111
111000
1111110010011100
110001011
1111111010110010
1111111000100111
10001010001
10101110001
10101110100
1111111011101111
1111111100111001
10000101001
1110010100
1100101001
10001011
1111111011010100
1111111100011000
11011110
1001110
1111111110110100
