1111010
101011100
1100010
1111111110011001
1111111111000010
101110
11111011
1111111011100101
1111111110100101
101001000
1111111100100000
1111111111110001
100100111
1010000011
1111111011010110
1111111101011111
1111111100010111
101001011
1111111100001100
1111111110101101
10101111
1111111010100011
1111111011001110
1111111101010100
101010
1111111111110110
1111111011001100
1111111101111001
1111111011011000
11000100
11111011
1111111111000011
100111
1111111110111000
1111110001100100
1111110010100011
1111110110110100
1111111001100011
1111101111111000
1111101111111110
1111110011110100
1111110001101110
1111101111100000
1111110010111010
1111110000111101
1111111111010011
1111111110001101
1111111110110010
1111111011110110
1110001
1111111101100010
1111111110000011
100100100
1111111110100111
1111111100110010
1111111101111101
1111111101011110
1100111
1111111011110100
1111111111010111
1111111111010011
1111111100110111
1111111001101001
1111110010000110
1111101011100111
1111110100100011
1111111100111010
1000101000
1001011011
1000111000
1100110000
10000011101
101101001
1111111111011000
1111110111011101
1111111011111101
10111000
11110001
1010001111
1001101001
1010101110
10100001
1111111101010010
10011010
11100110
111110
10100101
1111101001111111
1111100111001000
1111111010010000
11000100
1111111101011000
1111110011111011
1111101010001010
1111101111111101
11001011
1111111000010001
1111110110000000
1111101110111111
1111101110000000
1111101101111110
1111101010110100
1111101101101011
1111111011111010
1111110101101100
1111101011111011
1111111110110010
100100110
10001111100
10000100100
100110011
1011110
1111111011001110
1111111010100101
1011100010
1111110010010110
111001
100111100
11011011
1000110001
1001000
1111110101011111
1111110101110001
11010011
10011
1111110101100100
1111101100100010
1111110111111101
10001
10111111
110110
10010111101
1011110101
1010111
1111111101111111
1111111010111111
1111110110011110
1111110000010011
10001000
10110100
10000010
1000100
11000000010
1111111100001010
1001111001
11100101000
10111010010
111010110
1111111110100111
1111111111101101
11010000
1111111000100110
1111111010010110
1111101110111000
1111011110000001
1111101001110100
1111110010111000
1111111011100100
10110001010
10111100010
10010011100
1001010101
1011011000
10011010011
1111111111111011
1111110101000011
1111111111011100
100001111
1111111011110011
1101100011
1111101100010101
1110011000
10110000
10001100110
10110111001
1001001000
1000011111
1010101011
10001101
1111111000111001
1111111110011001
1111110111000101
1111100010001010
1111011101110110
1111110011111001
10101100
10000110001
10011100000
10101110011
1100001001
110000111
1111111010010110
1111101101101101
11001111
1011001100
1001001101
100100111
11011011000
1111101001010010
1010010010
110001
1111111011100100
1000010100
101110010
1111111000001011
1111111010000001
100100010
1010000
101111000
1111111001010110
1111101011000110
1111100001011100
1111111011010010
101111011
1001010111
11011101011
10100111110
10001010001
110010110
1111111001001010
1111101011000001
1111101011110101
111100010
1110100101
1111111011110111
1001110110
1111111001001000
1111110100010100
1111111010101001
1111110111101010
1111110101110010
1111111001110011
1111111000010001
1101101110
101011000
1010111111
1111110101
1111111010000110
1111011110111011
1111100100111111
111000001
10100011000
1111001000
10001100001
1010011100
1100111110
1001111
1111111110000010
1111101000111100
1111100101000010
10000101100
1111111010000110
1010101
11001010111
1111110101100011
1111111110101111
101001001
1111110010101101
1111110010000000
1111111011001110
1001000011
1010011000
1110101
1010010110
1101011110
1111101010011010
1111010100100010
1111101000111101
1010110111
1111101101
1011011011
1000110011
110100011
10100011
1101010
1111110100110001
1111110100000001
1111101011010001
1111111110100000
1111111001011111
100000
11000000110
1111111100011011
1111110101010010
1001010011
100101100
1111110001011101
1111110100010111
1010100100
11000110
1111111100110110
1111111100001000
1111110011111010
1111100000110010
1111001111101101
1111110011010101
1010110101
10111000101
1001000100
111110101
1111111000001010
1111111111010101
1111111101000011
1111101001101001
1111101100011101
1111111001010101
1111110010110100
1111111010001110
11110001
10000011110
1011110000
1111111100110100
1111111100010001
1111111101111101
1111111000101100
1111111000101001
1111111110010011
1111111100111001
1111111001100110
1111110011010100
1111101111110010
1111101000111110
1111101010100111
1111111110000011
10000000100
110110011
111010111
1111111101001111
1111111111001100
101110111
1111111010011011
1111101111111100
1111111110111101
1111111111001101
1111101111001110
1111111101110101
111011011
1010100110
1100101011
1111111001101011
1111111100001010
101011100
1001000011
11011101
1111110011110101
1111101001111001
1111110101001000
1111111011111100
1111111111010111
1111111
1111111011110101
11
1010111000
1000110110
1010110
1111110101101011
1111111011011110
1111111101001100
101010000
1111110010101000
1000001111
1111001101
1111111111010010
1111111100100100
1111111110001010
10010110101
1110001111
1111111110000001
1111111101000110
1000001101
1111111000001001
1111110110000011
1111111001101000
1111110001100110
1111111011101000
1111111110011110
1111111010111011
1111111101011001
1111
10011011
11100010
11011011
11010000
1111110101111111
1111110010011001
111010
1000011100
1111111000000111
101001111
1001000100
101000010
1111111110100001
1111111111110111
10110001010
10010010011
1111111111000101
101100010
10000100010
1111110011001000
1111110110101011
1111110011101100
101001001
10101111
100100001
1000010110
1000010110
100110
11110010
11001011
1000010101
11101010
110110001
1111111000011011
10111011
11011011
100000
1111111001101101
100010000
101010100
1111111101001001
1111111011110101
1111010101
11000001100
11010110
1011010001
100101
1111101000101101
1111110010110101
1111111111101110
1111111011111011
100010011
101100
10010
10101001
101010011
1110101
1111111011010110
100100101
100101110
111101101
110010011
11111001
1111111100001010
1111111011011110
1111110011011110
1111110001000110
11000000100
1111111110111000
10110100
10100110001
10101110000
1111111111010000
1111111111010011
1111110110011110
1111111011100101
1111111101001011
110110111
101001010
1010010
1111111100101111
110100010
111111100
1111111111010010
11010001
1111111111111110
101010000
1100111
1100111111
1111111011110000
110000101
1111101101010101
1111110111111100
1111111010111111
1111111111110101
10000000000
1111111100101100
100111111
1010011100
10101100000
1111101011010110
1111111
1111111011000100
1111111011111100
110110100
11001010
110010100
1010010001
10000101101
1101010010
1111111001111001
1111111011111111
100000000
1010100
10010100
1101110111
1100111110
1111111000001110
101000000
1111110011001001
100000
1010101
10000001101
11001001011
1111111110011000
1111111101000110
1011000111
10100110011
1111111110110110
1111111111101111
1111111011011011
1111110110101101
100001011
110011011
1111111111001011
1111111000100010
11010000
1111111101000111
1111111101111101
1111111101010011
1111111100100001
100011
111000101
10101110
1111111111001001
1111111001001010
1111111111011001
1111101110001111
11011010
1111111111011000
1000110111
1001
100000111
1011100100
1110000010
10010110011
10001111010
100110010
1111111100000110
11010100
1111111011110101
1111111111110101
11000010
1111111011001011
1111111111001001
1111110101111010
1111111000100101
1111111111111110
101001100
11101000
100111001
1000110
1111111101001000
110010111
10100000
100100000
10100101
1011010000
1110110111
111001100
110111000
1111111011111001
101100111
1111111100111011
1001100011
1100011101
1111110110010111
10010010
1000100110
100100001
10010100
1111111100110100
1111111001110100
100000111
1111111000000101
1111111100110001
1111111100000000
1111111110110110
1111111101110001
1111111011111101
1000100000
1101010101
111100110
1101110000
1010101101
100100011
11010000
1111010000
1001101000
1000001010
1110101011
1111110011011011
10010000100
111010011
111101001
11100000
1101100100
110010101
1111110110001110
101000000
1111001
1111111100110010
1111111110111110
1111111010110000
10110000
1111111011101000
10000000
1111111101011011
1011001100
10110011100
10001110100
1011000011
110101110
1011001001
1000001
1000100000
10110100
1111011100
11110001
1111111011110010
1111110001010001
1111111001011110
1100110001
1011010100
111101
1011110110
1111111100100010
1111110111110111
1111111110001010
1111111100111010
111110010
1111111110110100
1011101111
11010110
1111111110011000
1111111100001010
1111111111011010
1111111111110101
10000010000
110000100
100010111
11101001
10101000
1100101011
101000000
1111111101110101
101010000
100110100
1111101001101001
1111101011001101
1111111101000110
101001010
10001110100
11011100
1111111101000101
100010111
1000100
1100110001
1010011001
1011101
11111001
1001000
1111111001110100
1111111110011110
1111101110101010
1111110111110001
101101101
1111110000101000
1111110100011110
1111111100101000
100011
111000110
1111111011010100
1111111011101110
1111111010100011
100101110
11010011
110000101
110011011
1111111110100111
1111110111100100
1111111100010101
1000010
1010100
10101101
110000000
101000000
110011000
1111111100101111
1111111011110101
1111111011011001
1111110111100010
1111101110100010
1111110101000001
1111111100111100
1111101001001000
1111101110100010
1111110101101011
11001000
1010100110
1111111100101001
1111111010110010
1111111100001110
1111110000000111
10000100110
1000100100
110001001
1111110110000100
1110100
10100101
1111110001010010
1111111010101101
1111111010101110
1111111100001110
10110101
10010010
1111111110010101
10110100
1111110101001010
11101011
1111101110101010
1111100111010111
1111100100101100
1111100001101010
10110000
1111111011110100
1111111011100100
100110001
1111111011000100
10110010
1111111101100111
100000010
1111111100111011
1111101101011000
1111110110011101
1111101010100111
1111110000111111
1111111110000011
1111110101110100
1111111001110011
1100010
1111111110010111
1111111010010000
11010
1111111101011110
1111110101110010
1111101110101100
1111110100010101
1111101101101011
1111100101001011
1111100110011110
1111111011111001
101110000
1111111111110111
1111111110011001
11110
11100111
11100111
1111111011101001
101011101
1101000
1111111111011011
100111000
1111111110010101
1
10000010
10011101011
1010111100
110010001
1010110
10000110000
1111111101100010
1010000110
110101011
1000000111
101111
1111110100110010
1111101100001111
1111111001101100
1111110111011011
1111111111101001
1111111101001011
1111111011010000
100100001
10011001
