1111111101110110
1111111111000000
1100101
1111111100100100
11111000
1111111110100100
11100100
111100
10011000
101010010
11001010
101011011
1000101
1111111011000000
1111111010110000
111
1111111100001000
1010100
1111111010111011
1111111100000110
100110
11110
1111111011111001
1111111111010001
10001001
1111011
10111111
1111111110100010
1111111111111011
1111111110100011
11000000
10100011
1111111011111010
1111110110100101
1111101111010000
1111101110010101
1111111110111010
1111111110011101
1111111000010001
1000010
101001010
101010111
110100000
1111101011011001
1111110100100101
1111110100011110
1111110011001111
1111101101000101
1111101111101100
1111111110110011
11000
1111111001001000
11010100
1111111011111001
101010
1111111100001001
100100010
101001011
1111111011100110
1111101001100111
1111110110000101
1111110010101100
1111101100101111
1111110100000001
1111110010001010
1111111100111110
1111111100100100
1111101111001100
1111111100000110
110100100
1100011101
101000010
1111111110101110
1111101111111001
1111110001110011
1111111000100001
1001001
10000011111
1111111110001000
1111110100000111
1111111001001000
1010101
1101
1111111101101011
1111111100101110
1111111011110001
10010000
1111101011001110
1111100010001010
1111111001000010
1111101000101000
1111110111111010
1111110001011111
1111111010000101
1011000001
11000010001
1000000011
1111110101011101
1011000011
10001101000
1111000100
1111111111110111
1111111010110010
1111110001101101
1111111000110001
1111111010011001
1111111101100001
1111111011011110
1001110
1111111110001101
1111111001000110
1111111011100111
1001
11010001
10011111
1111111100011011
1111110011110101
1111110000000111
1111110001111111
111110000
1111111101100000
1111111111110110
10010011
1001100011
101000110
10000100001
10001001011
10101110111
10010100110
10110011010
1001001010
101000000
1011010
1111111110010100
1100010111
1111110101101110
1111110111001010
1111110111111000
1111110010110110
1111111110010101
11111100
1111111100011011
1111111111010101
1111111001100011
1111101010011000
1111110100001000
1111111111010010
1111111001010010
1111111011110001
1111110111110101
1111110100111101
1111110010000011
1111110001000010
1111111011101010
1111111011110010
10000101
11001001
1100000010
10111100100
101110101
1111111011101011
1111111101010110
1000001111
1111010001
1010111010
1110011
1111101001111001
1111111000001111
10111110
11000111
1010010101
111010010
1111110100100110
1111111110110001
1111111111010100
110011
1111110111001100
1111110100000010
1111101010011100
1111101101001111
1111111011101111
1111111110111101
1111110101111011
1111110010101111
1111111001110001
1011100011
1001000001
1111111101101001
11001111
110011000
1000111101
1010011111
1111110110001100
1111110111000101
1111101001001001
1111110001100000
11010000
10000100010
1111111110010101
1101011010
1000011
111111011
110000101
10010111
1111110111011101
1111110110110001
1111101111000100
1111110111000001
1111111100000101
1111111010100001
1111111010100101
1111111100001100
1001101
1010010001
1110010011
1001111110
111111100
110010000
10010101001
1111001101
110010000
1111101000001100
1111101011010111
1111111110000101
1111111110111000
1110000100
100111001
10011010101
1000110111
111101010
1100101
1111111000011111
1111110010110000
1111101100110010
1111100110101111
1111110100010010
1111111011100111
1111110101000000
1111110010111011
1111111011101000
10001100
1011001000
100111011
101101001
10110111
11010101
111100000
1011000101
1111110010001110
1111100001100001
1111100001100000
1111111011100011
1111111011101100
110011100
1101100111
1001010011
110100001
1011100011
1111101101101101
1111110010110111
1111110010111101
1111110110101111
1111110101010010
1111110010000010
1111110001010111
1111110100110111
1111101110100000
1111101100000100
1111111000110011
1000100101
1000101101
1001101
1101011100
1111111111111000
111110010
1111110011111101
1111101101011111
1111011010010010
1111100010111101
1111110101000011
100011100
110011101
1010101100
1001001000
1111111110011011
1111111111101110
1111110011111010
1111110100011111
1111110100011100
1111111100001011
1111111011011000
1111110110110001
1111111001110101
10100
1111101110101100
1111100010101110
1111111000100101
1100011110
1111110001
11110000
1111111100010010
1111111011010010
100101100
1111110011000111
1111011100101011
1111101011111000
1111110011001001
1111111011000000
1111111100110010
1111111110110011
1111111010000011
1000001011
1111110100111001
1111111100000100
1111111101011100
1111111111111010
100100001
10011111
100011101
1110100
101111111
10000001
1111110101000101
1111101011111100
101011
1010110010
1001010001
1111111011110010
1111110110101010
1111110110001010
10001
1111111100110010
1111011111111010
1111110000110100
11010011
11011110
1101000
1101011
1111111101101110
10000011
1111111001010110
1111111001000010
1010110100
100100010
101011111
1011001000
1011100011
1101011011
110010101
1010001
1111101001111100
1111100110010000
1111110111101110
10100001
1111111100111110
111010
1111110010001000
1111110100000000
1111111011110000
1111110011010101
1111111011110111
1001110101
11101010
1111111111111001
1101111
1001001011
1111111100100100
1111111100110101
1111111100000110
1111110101100101
1000000101
1001000100
1010001110
11
11111
1111111101000100
1111111000010010
1111110111011110
1111101100001111
1111110000110010
1111101101111111
1011011001
1111111101110010
1111111100011101
1111101001010110
1111111001101001
10000001
1111110100011000
1111111101111000
1000000011
110110
11011111
1000100
1000110101
1111101111001110
1111110110100110
110000
1110101010
110100100
1100100011
1110011110
111010010
1111111100100101
1100100
1111111111110011
1111110111001110
1111111000100101
1111110100101001
1000101
1001100101
1111110010010111
1111111011100001
1111110111110010
1111111000110011
1111111100010110
1111110101000100
1111110111001100
11110110
1010101111
1111111110100010
1111111100010000
10001000011
11000000100
1000000101
11010010
1011010000
1000101
1111000010
1101111110
1010100100
1011000000
100001
100001101
101100
1111110000000100
1111110110000011
100101111
101110010
1111111001000100
1000011011
1111111011001011
1111110011001101
111010001
1111110111101011
1111110110000100
1111011111111111
1100001110
101100110
1111111111001001
1010110000
10101100011
10100110
1111110110010011
1111011100
10001100
111110101
1010111110
110001001
1111111100111110
1001000
1111111011001000
1111111001101110
1111111100111110
111011001
1010011011
100111000
1001100110
1010110100
1001111000
111100101
101101101
111000
1111111100100101
1111110010000110
110101101
10011111110
100011000
1111110001
11011001100
1111101111111101
1111111011000110
100001000
1111111110101111
11000000
1000010110
1111111110101010
10101
11101011
1111111101111100
1111111010001111
10000011
11011100
1000110110
100001101
110011001
1001100
1011011
1110011111
1011111010
10101100
1101011101
10011001
11100001
10001010011
1111110010100001
100000011
100101111101
1000000111
1111110011101111
1111111011000000
1110011
100011100
101100110
111010010
1111110110011111
1111111100100010
1111110101100100
1111110100011011
100101110
1110110110
1111100001
1111111100101001
1010100010
11100110
10011111
1001010101
1001001011
1100111
10100110
1111111010100001
110111001
101001011
11011110
1111111110001000
1111111001111110
1100
1111111001101110
1010111001
1010011111
1010110011
100110010
1111001011
11011010
1111111011101001
1111110111101010
1111111001000010
1001111000
100110111
1110010
1000110
1010011001
1111111111111110
1111111100011100
100001110
1111110111110111
1111111010110000
1111111101010010
1111111101010010
1001001110
1010101
1111111111110110
1001011010
1111111100010110
111110101
1110011
110110
111111111
10011000011
1100011110
110000111
101010101
11110
1111111100101011
1111110101111011
1111111100010011
1111111101000100
101010101
1111111111001011
10000010011
1011101101
1001000101
1001010001
1111110111101110
1111110101100110
1011100101
1111111101011000
1111100000
1111111110110101
1110011
1010110111
101101011
1000010001
1111111011101100
1111110111001000
1000
1001000
1010001111
11011101
1111111110101111
1111111010001100
1111111010110111
1111111101000101
1111110100010011
101111101
1111111001101100
111001110
11000110
1111010
100110000
110111100
1010101111
101011100
100111010
1111110101010110
1000110001
110010110
111110
110000110
1000110
1010110000
1111110111001000
1111111001011001
110101011
10001110
110011
10101
1111111100101110
101101100
100001110
1111111001101001
1111110111101101
1101110
1111110110000111
1111110110111011
10011011
1111111011010010
111110
11001101000
11101111100
101110010
1001000010
1111111000000110
1111111000001000
1111111101101100
101000010
110000
1101010011
11010101101
1111110010001100
1111111011010011
110101000
10001111011
1111111101000010
1111111001000101
10100000
100000010
1111110100101000
1111110111011110
1111110011110010
1111100
1111111110101010
1111111101010010
1101010111
111101111
1011100011
11101011001
1001101010
1111111100100100
100000011
1111110110010000
1111110011111011
10111
1111111011111011
1111111100011001
100101100
11010111
1111111011100100
1111111010100010
11111110
1111111111000011
100111110
1111111111011110
1111111111101101
1111111000111011
1111101110111111
1111111001001111
1111101011100001
1111111000001110
1111111000101111
1111110100011111
0
1111111011101001
1110010011
1001000000
1111110101010110
1111110111110101
1111110110000000
1010101100
100011101
1111111110000110
1111111111111000
1111111011000110
11101000
11100000
1111101010010000
1111101111100100
1111100100011110
1111100011101100
1111101000011100
1111010111110010
1111101001101000
1111111000101011
1111101100010100
1111110110011101
1111101101010110
1111111001011111
10000001
100000000
1001100010
1111111110001100
1111111010100110
1111101100010011
1111101000101100
1111101101011000
1111101101101100
101111010
1011101111
10011111
101010011
1111101
100100110
10000111
1111111010010011
1111111010010010
1111111101111101
1111110100100100
1111110001110100
1111101011101010
1111100000000100
1111100101111110
1111101111010010
1111110110100000
1111110010010110
1111110011011100
1111110001100000
1111110001101001
1111101111111100
1111101100000110
1111100100101000
1111100110011111
1111100110110010
1111111011001110
100111000
10110000
110111
1111111111110010
100010011
1111111111100001
1111111110001011
1111111111011110
11010011
101001000
1111110111101110
1111111111111111
1111111111001010
1111111101000000
1111111011011000
1111111101010110
1111111001011100
10001001
1111110111010001
1111111010011011
1111110011010111
1111110101100001
100111
1111111101110010
1111111011110010
1111101011101000
1111110010011111
1111110011111101
1111111011000001
101000110
1111111111111111
1111111011111011
