1111111011001001
10101010
10111
1111111010100111
11011100
10101000
1111111110110110
1111111011110101
1111111011111001
10000001
10111000
1111111110110011
1111110111011001
1111111001110101
110000111
100101
10100011
10000100
1111111010110100
1111111111001110
1110111
1111111101000111
1111111101111101
1111111110000001
100000100
1111111110110010
1111111110001111
1111111011011011
100010011
10101000
100110100
1111111011000100
10011
1111111001000110
1111111000010001
1111110110100001
1111111000010001
1111110000000101
1111110100011101
1111101110001000
1111101111001010
1111101101111100
1111111111110010
1111101010101010
1111111000110100
1111110000101010
1111110011101001
1111111001011111
1111101101000111
1111110101100111
1111111000010101
1111110001100101
1111111110000110
1111111011100010
1111111111011100
100001110
1111111110110000
10110000
111110
1111110101011111
1111110111000000
1111110
11110000
1111110010100011
1111111110110001
11100001111
10010001011
11000100
11010110
110010010
1010100
1111110101111111
1111110110110101
1111110111010000
1111110111011110
111100
10111011
100100010
1111111011000011
1111111100100001
1100011010
1011010100
1111111111100011
1011101
1010110
1111111111001110
1110010
1111111111011100
1111111011110001
1111111000010010
1111111110001111
1111111011011010
1111111001100011
1111111111101010
1111111001100011
1111111110100110
1111111010110000
1111101100011010
1111110111000001
1111110000110011
1111110101110010
1111110100111111
1111110111001111
1100000101
110111110
110001110
1010010101
1111111001101100
110001101
11100011
1111111111101100
101000000
101011000
100101101
111100
1111110010011000
1111110111001111
1111111101101110
1001110001
111101000
11101101
1110011
100011110
111010011
1101111110
1111111100110110
1111111101111010
1111110010010000
1111101111111011
100001000
1111110100111011
1111111111000010
1111111010011001
1111110000100001
1111101111111100
1111101111110010
1111110100011111
1111111111110110
1111101111100001
1111111111101110
11111000
1111111010110001
1111111010001100
10011010
1111110110101100
1111110100111101
1111111101011011
1111110001010001
1111110101010110
1111111101001010
0
11101110
11110111
1001100101
100111011
101110001
1111111001101010
1111111011111111
1101010100
1111111100110000
1111111010011010
1111111011100011
1111111100000010
1111110110111010
1111101111111110
1111111111111010
1011001100
1111111001000101
1111111101000010
110011001
10000010001
1111111001011001
101111100
1111110010111001
1111101111110100
1111110111111100
1111110100101010
1111101111101000
1111110100111101
1111111111101011
100100011
1001010100
1000011010
11110110
1111111001101101
1111111001101110
1111111100011100
1111110101111000
1111110100100011
100000101
1111111100111101
1111111100011000
1111101110110011
1111110101011011
1001100111
111100101
1111111110010101
1010100010
1011000001
1111110000010110
1111111110110100
1111101011011101
1111110111100100
1111111110001001
1111111101100111
1111110111011111
1111110010010000
1111111100011101
1111111000110000
100100110
111100101
1111111100001011
1111111101100100
1111111011000111
1111111110110001
1111111010011110
1111111011010000
1111111110001101
10111010
1111110001111000
1111101011000011
1111101001001100
1111111101111001
1001111101
111111
1111111100011110
1010010101
1111111001100111
1111100110011000
1111101010010010
1111111001001110
1111110100001001
1111110100101000
1111111001000001
1111111000011011
1111111110011111
100001
101000110
1101001001
11101101
1111111100000011
1111111101110010
101001
100
11111
1111111101101110
1111111000000011
1111110000101100
1111101010010011
11001111
1111110100001001
100110
1111110110010001
1111110100010000
110001001
11001110011
1111110100111010
1111110100110111
1111110100000100
1111110100011100
1111101101101010
1111101111010001
1111111001010000
1111111000010000
101100
11000010
1101111111
101101110
1111111100110101
1111110110101110
101001001
1111111110000101
1111111110000101
1010110
1111110110110101
1111110000101010
1111110100101001
10010
1111111000001111
10100001
1111110110101100
1111111101101000
1010011100
10100100001
1011111111
100011000
10100110
1111110110010100
1111110100101100
1111111011000000
1111110100001110
1001110
10110100
1010101110
110000110
1111111100011011
1111111111001111
110101001
1111111101100100
1111111110101001
1111111101000110
111010011
1111111101101001
1111111001000111
1111111111000010
1011110
100100100
1111111111001000
1111110101101100
100000011
1111110111010001
101110011
1111110100011001
1111110100100100
11001001
11011101
1111111011010111
1111110100101010
1111110010011010
1111111011001010
111000000
1011001111
1111111000001100
1111101001011010
1111111000010011
1111111100011010
1111111101011101
1000111101
1111110110101010
11001101
1001000011
1111110110101110
1111100110111111
1111111010111110
1111100111110100
110111111
1111111100101101
110101011
1111111101010111
1111111000100100
1111111000001110
1111111011000101
1111110011100110
1111111001101000
1111111100000100
1111111001000001
1111111010011110
1000001
1100100110
1000000100
1111111000011011
1111100101111011
1111110100100000
1111110110011000
1111111110101010
1111111110100001
1111110100000101
1111111001101011
1111111110100110
1111101101010110
1111011110100000
1010100101
1111111000001110
1000101110
11100
101100101
1111111101001101
1111111000011001
1111101100011001
1111111001011010
1111111000101110
1111110111100001
1111111000000010
1111111000000100
110001110
1011010001
10011100010
111110101
1111110001110100
1111101111011100
1111111010010010
1000000
1111110110111010
1111110110010000
1111100101101100
1111101100010101
1111110110100001
10101000
1100001100
110111011
1011100110
1100010010
1111111101101010
1111111010110101
1111110011000100
1100011011
1111110001001101
1111111010110100
1111111111100011
101111101
1111111101001010
11010110
10010101
11100101
1010110000
10111110
1111110111001011
1111110110010010
1111111110101000
1111111100011101
1111110110011011
1111110101001110
1111101001010000
1111110000110011
1111111100010000
1001101011
11100000010
10100100110
101001100001
10100000000
1111111110110100
10101010
1100100110
110101001
1111111010111110
111000
1111110000000011
1111110111011100
1111111001101111
111101001
1000001000
1000101111
110001101
1000110111
1111111110101110
1111111111010111
11110011
101111110
11111111
1111110011100001
1111110010011011
1111111011010010
111000000
10010001011
100010111001
100010010111
11010000100
10011110010
1111111111110100
1111111011011100
101111100
1111111010110000
1111111011001011
1000111101
1111111111001101
11101000
1010100
1100101
10100101
10000110001
1101010101
111101110
101111010
111001101
1111010000
10110111010
10111000
11110001
10001001
10001000000
1110110000
10110100111
10101111100
101010111011
11110000010
11001111110
1111111110001110
1111111011110001
1010000100
1111111100000011
10010101
10010100011
1011101100
10100000
1111010100
100110101
10100100
11011000
11010101
101111001
111011001
1011011111
10010001110
101101111
1110111011
11010110
100101100
1110000011
1111000001
11011101
1010011
11111111101
110010001
11110110
1111101101110000
1111111110011111
1111110111101100
11000100
1001010101
1111110010
101000000
1111111011010110
110000101
110011
1111111011000011
1111111010110011
1111111110100000
100111100
1101001001
1100100111
10000111011
10011001
1000110000
1111110111
1100110111
10100011110
1100101100
111001000
1100011110
1110011110
1111111110011011
10100001010
100010011
1111111000111111
1111111100000011
10101001
1001000110
1011110010
10000110
1111111100100110
11000100
1111111101101100
1111111001100101
1000110011
100000111
100100110
10000011100
10100100010
1010111100
101101001
1011011111
1001100110
1100100100
10100000110
1110100001
10001000011
1100110101
10011101100
10110010101
1010000011
1111111101100000
1111111011101000
11010101
110011001
10001110001
1110000
1111111110111001
10011101
110110100
11011001
1111111100101111
100110001
111000111
11110110
11001110
110011
1111111011111011
10111010
1110110010
1001000101
1011100001
1010101001
1000100110
101101011
1011000101
100101101
10101000100
1011010
10001110
10000011111
100001100
1011110000
1110100101
1001111000
1111111100001001
10010111
101101000
11
1111001
1111111000011110
1111111100111000
1111111110010101
1111110111000101
1111111001000111
1111111010101000
1111110100101010
1111111000001111
1111111100111110
1111111110000011
1100101100
10010100011
1100010010
10001010111
11110000011
1100011011
1111111010011011
1111111011011110
1111111101010100
1001100
1011011100
10101001
1000001101
1110101
101
1111111011000100
1111111011110111
100110111
1111111101010000
1111111101001111
1111110011111001
1111110010000110
1111110100110101
1111110101111101
1111110101000010
1111110100100111
1111111110111001
1100
111110010
1000001000
1101110
10110010
11101100
1111111101110001
1111111011100100
11010110
1111111110000000
1011111110
10111011010
1111111100001111
1111111000010111
1111111000110000
10011
111110
1111111110000100
1111111100011101
100110011
110
1111110110011100
1111111100100110
1111110001101011
1111110101110100
1111110011101101
1111110001011000
1111101010001001
1111101010000110
1111111011110001
1111111010011100
1111110010110000
10111011
101101111
1111111101111011
11111000
1010001
101000
101000110
1111110010111100
1111111010100000
1111100110100100
1111111010111100
1111111000111100
1111111010101111
111010011
11000010
1111111101001010
1111101101000011
1111110000001110
1111110110000011
1111110101010011
1111111001010111
1111111001101001
11000011
1111110001001100
1111101011000101
1111110011101001
1111100111010111
1111101100110001
1111111110100110
110111101
1011001110
1111111111110101
10110111
100101010
1111111111000101
1111110010010100
1101
1111111011011000
1111110011011100
1111110000101010
1111101100100110
1111100101000000
1111101111010001
1111110001111110
1111011111101101
1111101100010101
1111100000001100
1111011001111011
1111101000110111
1111011100111101
1111011010110111
1111011001100010
1111100110110000
1111101010101111
1111101010111010
1111110000101100
1111111111011011
101110101
100001101
11001110
100100000
111001
1111111100100000
110100001
10000010001
100001110
1100011
1111110011000000
1111011001101010
1111010101111010
1111001100100111
1111100100111001
1111101100000001
1111110101001010
1111110000000000
1111101101000110
1111111011101101
1111101101101110
1111100010110100
1111110111110110
1111111001001010
1111110011010001
1111111011000011
1111110111000110
1111111110010001
1111111011011101
100011111
1111111111111100
1100
1111
100010110
100011000
1111111011000000
1111111011011111
1001000
1111111111101010
1111111000111011
1111111110000001
1111101101000010
1111101110100010
1111111110010100
1111111000111001
1111110110001010
1111111011000101
1111111110011010
1111111011010101
100001010
1111111100001011
100010110
1111110110110010
1111111010001000
1111111001100110
100001111
1111111101011100
1111111100111011
1111111100101100
