1111111111011101
1111111010110011
11011101
1111111101000110
1111111110111101
100000011
1111111011100010
1111111011110100
10110001
1010100
10101001
1000010
1111111111011010
1111111011001001
10000110
1111111101110000
1111111011000111
1111111011001010
1111111011100101
100000
1111111011001010
1111111111111101
1111111011111100
100011000
10100
1111111011010110
1111111010100101
100001111
100000100
1111111011110000
1011111
10100111
11110001
1111111110011111
110011
1111111101100011
1111111100000111
1111111110101111
10011
101111100
100001
1111111101010101
100100
100100010
100001000
10010110
1111111100100101
1111111111111010
1111111101110100
11010110
100011001
10001000
1111111101111110
11000
1101111
1111111110100011
1000100
1111111100101101
1111111011000010
1111111011010111
11101101
100010110
101010010
1111111010011110
10011111
1111111110010101
101100
1111111010001011
1111110011100000
1111101111101000
1111111110100110
1011010101
1111111011110101
11101110
1000111010
1111111111001000
1011011101
1111000
101010
1011010
11001111
1111111110011100
1111111101010001
1111111101111001
100001010
100000101
1111111110101101
101000000
100011110
10010111010
10010100
1111110110111011
1111111010011100
10011011
1111111111100001
1011100
100010110
1111111110000101
10001001
1111111111000000
1111111111111111
1111111000010110
1111111111100000
1100011
111010100
1111111110100011
1111110010110111
1111111001011000
1111111001001111
1111111111101101
1010010
111
1111111010110111
101111101
1111111001
11110000000
10111001000
10001000000
110011011
1111111100101101
1011001110
1111111110101100
111110010
1000000010
1100000001
1100110011
101
100010110
11110110
1111111010010000
11010001
1000111
1111110110100001
1111111111110110
1111110110001000
1111111001001101
1111111110010111
111110010
1001101000
1111111011111110
1111111101011111
1111111011000000
1000110000
10101101101
11110110000
10111001111
10101100100
1101000101
10010011
1111110101111100
1111111111100111
1111111101111000
111000
1010100101
1111111111110011
11011001
1010
1111110010001101
1111111010110100
111010
1111111111010110
1111101000011111
1111111101000010
10001000
1001101111
11000010011
10010000110
1111111111101110
1011111
101101010
111110100
1110101000
1110100001
1111111110101111
111
1111111111001011
10010001
10101111
110000001
1001101101
100010
1110111110
100010110
11101101
101111011
101000100
11111100
1111111100010111
101101101
11001101
1110100
1010100100
1000001011
110110101
111101110
110010010
1111111100011010
11001111011
11001001
1010010010
1011111011
1011111011
101110100
1011101000
100111
1111111111110010
10001000
1110000
1001110111
1011010001
1101000010
1111111111001110
111111
1110010
1111111110110010
1111111001101001
1111111110111010
11001110
1111110101111001
1111110111111001
1001010110
101101111
1101101111
1101110101
1111111110011100
1011001011
1101101001
10011100011
1101100100
1111110111101000
1111110101111100
1010
1111111010010010
11001101
10011110
101101
101100001
1101001011
1110111000
110110100
1111111101101010
10
10010110
1111111101101001
1111110111101110
1111111110100011
1100011000
1111110010011011
1111110001110101
1111110010110100
1001111011
1110110101
1000111110
11001000
10110000010
10110111110
10000111101
1111110111111011
1111111110011101
1101001100
100111010
1111111010011011
1111111001000011
1111110111110011
100001101
111000111
1011111100
101000100
1111111110111111
1111111100100010
1111111111001100
1111111010101100
1111111111001001
1111110110011001
1010110010
1111111100110111
1111111101010011
11100001
1111111010100010
1000011001
101100010
110010100
1010100001
101101011010
101100011
1111111000111000
1111111110011010
1111111010011101
1111111000110010
1111101110001110
1111111000010010
1111111111100111
11000111
1011001110
1101010
1111110111110110
1111111001000001
1111111001100111
1111110101110101
1111111011100010
1110101
10000
1111111110110000
11100000
1111111001011110
1010011111
1111101001
1011011010
1011111000
1001100111
111011111
1001101100
10101111
1111110001111000
1111110100001111
1111110101100101
1111100101100000
1111100101111110
1111110110100101
1111111100100111
1010010001
1101001011
1000011000
1111110000011111
1111101111011000
1111111111110001
1111111000100100
1111111100111010
1110011
100101100
100001110
1111111100101001
1111110110010011
1111111111101100
11000011101
1011010111
1001110010
1111111101011001
1011000111
1111111000001000
1111110010101010
1111111001011111
1111110111010110
1111111100010010
1111101010100011
10010110
111000110
1001010110
1001010010
101010000
1011010110
1111111011001010
1101011
10110000
1111111011101011
1111110001011110
1111101100010000
1111110100010001
1111111101011101
1111111110010001
1111111001010010
1010010010
1011100100
111010001
1101011110
1111110100010101
1010100010
1111110000011001
1111110101001001
100001000
1001011111
1111111111100000
1111111110111111
1000100011
1001001110
11010
100101101
1000000100
110110100
1111111011011100
1111111100111001
1111111100010011
1000000
1111110011011101
1111110000110101
1111111110000000
1111111110010100
1111110101010101
1111110110100010
1111111010100101
1001110110
1111110010011011
1111111000011011
111011100
10110010
1111110010100010
1111111001101011
1010010111
10100100
1
1001010110
1000101111
1111111111111101
1111111010010110
10001110
100001110
101111000
1000100000
100001000
1111110111100010
1111111101100101
1111111111000010
11000111
111001011
1111111001101010
101100001
10010111111
1111110101100100
1111110000010000
1111110100010110
1111111001110111
1000001001
10110000100
1011011001
1111111101110111
100101000
1111111101101100
1111111010111110
1111111011000001
11010011
1111111011011111
110101110
100010110
1001010111
100010010
100001100
1111111101011111
1111111010111001
1111111101111011
1111111101100001
101111011
1100000001
1000101100
1100100001
11011110100
1111101101110110
10000010100
10001000
1001100
10100100000
10100010011
111000011
1111101100010010
1111101101011000
1111110010011010
1111110100011010
1111110010011111
111001001
1011110001
10011011001
10101001000
1100110111
100001010
1111111110110101
1111110110010011
1111111101101010
1111111101001100
1111111100100010
1111111110011101
11111000
1001111
1111100101
11101000110
1111111101100100
100101101
110010011
1111111100000101
10010000111
10110010000
11110100
1111111001000001
1111100111111010
1111011110000001
1111101010110001
1111100000001100
1111011010110011
1111100111110100
1111101110011011
1111111001100101
1001111
1111111101011010
1111111111001111
1111111001001001
1111111101100101
1111111010011111
1111111101110011
1111111100011011
1111111000101100
1001010
1000001111
1111110011010101
1111110000110010
1111111100110110
101001011
1010000000
100000010
100100101010
100101000
1111111001010111
1111101100000000
1111011100001100
1111011110010101
1111011101110100
1111000000001010
1111001110000011
1111000011111100
1111010010001010
1111100111000010
1111111111111000
1111111110011011
110111011
100100101
1111111110000010
100011010
110000100
10000010111
1000101
1111110101101100
1111100000001110
1111110100111001
1111110100011111
1101101110
1111111111010011
1100011011
1111111100100110
1010101010
1111110000100101
1111100100000001
1111100000001101
1111100111100101
1111100110111100
1111011110111111
1111010110100100
1111001100111001
1111001100111011
1111100100011001
1111111010111110
100111111
10000000010
10001110
10000110
1111111101100010
100111111
1001010111
1111110011101001
1111101
1111110101111001
10101
1111111100111010
111000011
1111111100011001
10101111011
1111111101110101
10010111001
1111111000001110
1111101001110000
1111110000000000
1111111001101010
1111111010100001
110110010
1111110111110101
1111110100110100
1111101100111101
1111110010001110
111101
1100000101
10011100
1101110010
1010011110
101000000
1001110
1111111011111100
1111110101010110
1111111110101000
10000010
1000110011
1111111100101110
10111011
111010010
10100101011
10000111111
11011110000
1101111010
1111111011001101
101001010
1000011000
100110
1111111010101111
10100100
1100101111
1011011001
111011110
1111111111011010
1010001100
101011110
0
100110110
1000011101
111001000
1111111111000000
1111111000101010
1111111000110110
1111111110001101
111111011
1111111101010111
100010
10101100
111000101
1111111111000110
11000010100
11111111100
11111010001
10000000101
101000100
1100100011
101011101
1010101010
10010100111
1010101110
1101100
1111111001111011
1111111111100111
1111111110000111
10111100
1000001110
111101110
1110110111
1111111100000111
10010101
1111101111110101
111101010
110100101
1111111011010011
1111111011001101
1110
10100000
11101000010
11100010000
11001110101
10101101010
10001101111
10010110011
1000011001
1010000110
1011100000
1100100001
111110010
101000101
1110110
100111000
1111111110001000
10010101
101100111
1111111111010110
1111111110010100
1111110000101100
1111101001101000
1111100111110111
1010110101
1111110101110011
111111001
1111111011010110
1001
11110110
1111110001
11011010100
100000110000
10011110010
11111010001
10100100111
1101000001
111101100
1111001010
110001011
10111
11100
110110111
1111111111011010
1111111100011101
1000000001
1111111110111101
1111101010011111
1111100101111001
1111110101010101
1111110110111111
1111110110000111
111100100
1111111100001001
1001000111
11010010
1111111100100011
1111111100011110
1110110001
1111111110100011
11100101011
10111111111
11000010100
100010101011
11111000111
11011010100
10100100110
1010010110
10001111110
1110100011
1000011
1111110101011010
11111
1111110111100001
1111111000010001
110111000
1111111010011001
11011001
1100110110
1111110110011011
111000100
11110100
1111111111111101
10110
100001101
10011100
100011000
1101000
1000010011
1001100011
1111011111
1111111111011100
1111110010100110
1010011
1111011011
10011010111
101100101
10111111010
1101011100
1001111100
10100010010
1001000101
110010110
10100001
110011111
11011110001
1010101011
1001010110
110
100111100
10010
10101100
1111111111001101
10000100
1111111101000101
1111111011011011
1011001
1000
10011010101
10010101100
10111010101
1110000110
1100111010
100010000
110101100
1010001110
11110000111
11101110001
10110111010
1111110101011100
1111111011000100
1111110111000110
1111111001001111
1111111110001011
101001101
10111
1111111101010110
110010
1111111101101111
1111111111000011
