100011
1111111100110101
11111
1111111011010010
1111111011100110
1111111011110001
1111111111000010
10100000
1111111011100101
1111111011100011
110010
1111111110000001
1111111010001110
10110001
101001000
11011000
1111111100101100
1111111111110011
1110011
11100
100111101
10010110
11
1111101
1111111101010011
100011101
1111111100100110
11100001
1111111101011010
1111111110100101
11001
10111000
1111111111110001
110011111
1100111101
1110010001
1100110000
11111010110
11101111111
10010010001
10000111111
100001000011
1110000110
1101010010
10100111010
10110101101
1111111111101111
1111110110000111
11011011
1000001011
1000011110
1100011111
1111111111111100
111101
1111111100111111
1100100
10101101
1111111100110110
1100101
1000011001
10011110011
1111111111011000
1111111100110000
1010010110
1111111101111011
1111110110111011
100011
1001011
1111111000010001
1111100101101101
1111101001001111
1111110011010110
1111110000110101
1111110111010111
101001000
1111111001110000
1111111101100111
11101100
1100101111
1111111100011000
1111101101010100
1111111100011010
1111111101111111
1111111010110100
1111111100111101
1000000
1111111011011001
101011000
1111111000100111
1111111010000001
1111111000001101
11000001
1111111101110100
1111110110100111
1111101011110101
1111110101011101
1111110110101001
1111111111010110
1111111010111011
1111110001000010
1111100101100000
1111101101001010
1111101110001001
1111101001100111
1111111000001100
1111111110001100
1100010
10101000100
1001001111
1111111010010111
1111110110000010
1111111101001111
1111111110010011
101001010
1111111011111011
1011001101
1001110000
1111111110011100
1111110111011011
111000
1111111011111010
1111111111010011
1110010
1010110100
10010100
1111101111110110
1111101111110000
1111111010100101
1111111011110010
1111110011010110
1111110110011011
1111110110111010
1111111111111100
10111100
1011001
1111110101100111
111011110
10100101101
10101001101
1001000111
1111111100101101
1010010
1111110100101100
1111111001110110
1111101011001000
1111110100100100
1111111011110001
101100011
1111111100100010
1000111
101101110
1110110111
100001011
101010110
110100101
1111111110001001
1111111011011011
1111111110111001
1111111111110010
1111111100101001
1111111011001000
1111110111111000
1111101100111110
1111110000000000
1111111001000111
1011010101
10101110011
1111000
101010111
1111111111101011
10010111111
100111011
1111111110011010
11000110
111001
1001
1000000
101000100
1111111111111101
10001001001
100010100
10001111111
1000110001
1111111110000010
110001
100000011
1111111111110100
1111110101001111
1111111000110001
1111111110101111
1111111110111011
1111110011001101
1111111010101001
111011
1111110100111101
1111110110110001
1101100
11011001100
1111100110
1100111101
11100001
1111111001011000
10000000
1111111110100010
1011111
11000100
111100100
1010
11010000
110111111
1111111100001110
1000101111
1111111111010100
1111111111111000
1001101
1000001
1111111000100001
1111111111111000
1111111000100100
1111110010101011
110011100
1111111011011110
1111101111010011
1111111000000011
10100011001
101011101
1110100011
11010100001
1010010001
1001111010
1010111100
100000000
111110001
11011111
10111100
111101
11101001
100001010
1000000101
110101111
10001000001
100101110
1010101111
1111111110011000
1111111101001001
1111111111110100
1111111010111111
1111101010110000
1111111001011111
1111111100100101
101011011
10000101110
110111001
1111100110
10111000
10011101001
10100110110
101000011
10001000000
101100011
10100100
1100011101
111010001
1111111011011110
1111111011101110
1111111111001000
111
1001100111
10011101000
10010011100
1100000111
1111010
1011100111
101010010
1111111100101011
1111111001111001
1111110101010111
1101
1111110110001001
1111101110011100
110101110
1011001001
110001001
10111101110
1110110100
11111101
1101001101
100011101
111100000
1000011111
1111111000001110
1111111000101011
1111110100000001
1111111100011101
1011001000
111100011
10000111110
10111101100
11000111000
1010101
111010001
1111111100111011
1110010011
1001100000
1111110001010100
1111110011011011
1111110011111001
1111110100010111
11011010
10000001
10011111100
10110100001
1111110111101000
1111110110000101
100111001
1001110001
1000101010
1111111011110101
1111111010110100
1111111111100101
1111111110010001
1001110100
110010111
100011011
111110011
11010101100
10010011101
1100100110
10000110111
1010111001
100111101
1111111111110010
101010001
1111101100001011
1101100000
1111111000011111
1101011110
100010100
1010110011
11010011001
1101011100
1001001
11010101
111100000
111001111
10001111
1111111111100101
1100110
1111111110100111
1111111100100100
10100101
111000000
1100111
1101101000
1100101100
1100010011
1001110001
1110011110
1001010011
10000100000
1001000110
1111100101011100
1111110101101010
1111101011100001
1111111010000110
1010110011
10111001
10100101110
10011101010
1111111010011011
101111
111001010
1000010011
1110011001
1000101000
10110
1010001
1111111100111100
11011
11101000
1111111110110001
1000110110
1100101
10010110
1111111110000100
1000100011
1110010001
11000
1111110111101010
1111000
1111101111110101
10001001
1111111101111010
101000100
1111111101111001
1101011101
101001
101011
11001000
100110001
1100000010
1001011010
10001111
100001
111111000
11001000
1110000
1111111101101011
1111111011010101
110000011
1011001110
1001000
110101100
1110000
101011100
1100111111
1100110101
101110011
1111101110111101
1111111010010011
1111111110101011
101011001
1111110000111011
10001010
101101110
10101110101
1010101
11001111
11000001
1111111101000011
1111111111000000
11001110
111100010
11110011
10101
1111110010100100
1111110110011111
10011111
101101110
1001111011
110101101
101110000
1111111111111111
1110110011
10111111111
1111111101100000
1111110010100011
1111110010000010
11110
1111100000
1000
1111111000100001
101000001
1001000000
1111111101001111
1111111101100101
101101111
100101110
101011000
101010101
1011000111
1111111111110011
1111110100011111
1111110000000101
1111110100100101
1111111110010101
1111111010010001
1111111011100101
1010000
1111111000101001
1111111110101001
1000110001
101100010
1111101011010110
1111101001101011
1111110100001101
1111111101101000
101010000
1111111110110010
1111111000100110
1111111111101011
10111011
1111111001010000
11111110
101101
1010010010
101101100
1111000011
1011001111
1111111110100000
1111101100011010
1111100110111101
1111111010011010
111100011
1111111111000100
10010100
1111111110000010
1111111100111111
101000111
11010100
10011
1111110001000010
1111111110101000
111101010
10100101101
1111111110000011
10110100110
1111111111100010
1111110101100110
1111111001000011
1111111111010111
11000010
11000000
11011110
111100101
1110010011
100110
1111111100001001
1111101110101000
1111110011111001
1111111111110000
101010101
1110011
1000110011
1111111100000101
1111111101101000
1110110
1111110000010011
1111110000101110
1111101111101011
1111111110010101
1111101011110000
1111111110111010
10010010000
1011101001
110100011
1111111010010100
1111110101001110
1111110101001111
1111111000010000
111001
1111111010000011
1000111001
101101
1111111110101111
1111110101111111
1111110010000010
1111110001011101
1111111111101111
111011000
1111011110
1100010011
1010111100
1111111010110010
1111111111011001
1111101100101001
1111101110000101
1111100111110111
1001101
1111110010010101
1010000
1110111011
110101100
101011000
1111110110111111
1111111000011010
1111110011011110
1111110011000001
1111110110101011
1101100
1111111111110111
1111111111010010
1111111001011000
1111110111000000
1111111110010111
1101100
1000000
1001010111
1111111100011110
10010
10100101
1111111100100101
1111111101110000
1111101000111111
1111110011100101
1111111010001100
1111111010111011
1111111100111110
1111111100100100
1011000011
1010011100
1111111100001011
1111111110100110
1111101110001001
1111110110101011
1111110101100100
1111110010001111
1111111001110110
1100010
1111110111101101
1111111101100011
1111111001001100
100100111
1100100001
101000010
1111111010101110
1111101110110110
1111110111111100
1111111111111000
1111101101110111
1111111100000110
1111100111101001
1111101100001000
1111110100100000
11010000
1111111111101010
1111110110011101
1111111101010011
1010101100
10111011110
101011
1111111101110001
1111111100110101
1111111111000010
1111111001110001
100001
11000011
100100010
101010111
101010101
110111011
10001011110
1000010011
100001
1111111111111111
1111111000000010
101100001
1111101101100101
1011110101
1111101111001100
1111100101111011
1111110010010111
101101110
110001010
11111100
110001
10000111000
11010010000
100111101
110100000
1111110111110100
10000001
1111111100000110
1111111100011110
101110100
1010101000
100111100
1111001111
1110011001
1100001110
1101010110
111101101
1010111
1111111101100000
1111111100100010
1111111011011000
111000100
1111111001010111
1111101111111010
1111111101100100
1111110101100001
1111111110101111
10000001
1111111111010010
10001010011
11010111010
11001100001
11100101000
1111111111010111
1111111101111000
1111110110100110
1111110011110110
1101110
111
1001111101
1011010101
10010010
10100000011
11010101
1111111111001001
1111111110011000
1011011
1100010011
1111111000011010
1111111110011100
1100
1111111010111001
1111101101001101
1111110000100011
1111111110100000
1111111011011111
1111111101001001
1111001011
1111110100101011
110000111
10101010111
1111111101000110
1111110001111101
1110
1111111010100001
1100000
1111111010010111
1111101110101101
1111111011010000
1111111111001101
1011011100
1111110111
1101111
1111111000111111
1010011000
110011011
1111110101101100
1111111111101111
1111111001111001
1111111101010111
10100
1111111100101010
1111111110010111
1011011
11001101
101011110
1010101111
110101000
10011010111
1000010000
10000101100
1111101101
100100111
1000
10001011110
1001010000
10101011111
11100110111
10100101000
11101010100
11101111011
11010011000
1010010001
11000100101
10010001001
10000000111
1001011110
1011000100
11101100
1111111011100110
1000110
1111111010100100
1111111011011011
100111000
11011100
1111101
110010110
10010010010
1111101111
1010001011
1011011011
110111000
10111011000
1100000101
111001111
11010010110
10101111010
11011011110
110111111
10101101001
10011111100
11000010100
101101001
11001
1111111011111010
100010100
10110100
1111111110101000
11110101
