1001000
1111111101111100
1111111011011100
1100100
101001011
1111111111001110
1111111011010010
1111111010111000
1111111100001011
1111111100110111
111
1111111111111010
101101100
1010011101
1100001011
11101100
1111111101011001
1111111010101111
1111111100111100
1111111011110110
1111111010111100
100101001
10001011
100100111
1111111101111011
11111110
0
1010011
1100000
10010110
1111111111011101
11100010
0
100
1111111101
1100011011
110100110
11011011
1001001011
1111111011110001
1111111100001010
1111110010100011
1111101001111110
1111110011000101
1000010000
1001101110
11100101000
11001100101
11000010110
1100100101
10001001000
11000000111
1010100
11001110
1001011
1111111011000011
11010010
1111111100010000
1111111111001000
1001100010
111010111
1101010000
10111100001
1010001000
100010001100
101100000011
100111100110
100001100111
10100111111
1100100010
10000001011
1110110001
1011000000
11010011001
10100110011
10100011011
1111011100
1010110100
1011000101
1110110001
1111100001
100000001
1111111011100010
1111111100010110
1111111011100111
101011110
1111110001100000
110101101
1110111111
10110111110
100111001010
10100100101
10001110001
1111010111
1101101111
11101001011
1101000101
111101101
1110111111
11101110
10001110111
1101100101
1111111110110100
1100001100
10011
100000001
1110011
11100010
11011100
100101001
111110000
1111111100110001
100110110
100001010
1111110110101110
1111110101110101
10100100011
10011100001
11001000111
1110100
100110100
1111111011011000
10101010
100000010
11101100
1111111111010100
1111111101000101
100100000
10001010
10101
100100011
101100010
101111111
1111110101010101
1111101011111001
1111111011100100
1111111110101100
110110000
1111111110011011
1010010101
1110001
100101000
1100001011
1111011
10001100111
1000001001
1010011000
1111111110010000
1111111111010111
110000010
100100010
1111111101110010
100110110
1111111000111100
10001000
1111111110101100
1011111101
1111111111111110
1111110111101111
1111111001011100
111111
1111111011000001
1111111101101101
1111111100001011
1111110101110001
11001010
111011011
111011111
1111111111110110
111111010
1000101000
1111111100110110
1101011
110
111001001
1111111100111111
10100101
1001111100
1111111011100101
1111111001011110
1111111000100010
1111111001110010
1111111001011100
1111111111110000
1111111111001100
1111110010111101
1111101100110100
1111110110011101
1111110110011001
1111110011100100
11111011
1111110110010010
1111111101010100
100011101
1111111111101001
110101011
1111111011100011
1110011100
1111111111111010
1111101111101001
11111111
111000111
111100101
11000100
1001000110
1010110010
100100000
100110
10011111
1111111111010100
1100101
1111111011111011
1111110010011110
1111111000111001
1111110000011110
1111110100110101
1111110000111110
1111110011110100
1111110010110111
1111100010010100
11110110
100100111
11111100
11111
100111
1111110011
1111111100110011
1111101011111011
100010001
10101100
1111111100001101
100100101
1111111010101010
1101001
1111110111110110
1111111111010111
1111111000111010
1111111010001000
1111111111111110
1111110011100011
1111110001111010
1111110110111000
1111110011101011
1111110111111100
110001000
1111110001100001
1111110100110001
1111101101011001
1111110010110011
1111110100010011
1111101100011000
1111111111011000
110001111
101001100
1111111101110000
1100110110
1111111111001011
11111110
1111101011100001
1111110011100010
1111110101011000
1111110001001011
1111110001110100
1111110100001100
1111111100111011
1111110000101010
1111111001011010
1111110111110111
1111111110110011
1111110001011110
1111110010010010
1111111010111011
1111111100101101
1111111010011110
1111101011110111
1111110000011000
1111101100111000
1111101110011101
1111110011111011
1011101110
1111111111111111
1111111111000011
1001100000
1111110110011011
1111110010010000
1111111110111010
1111100110000100
1111110000011000
1111110111011000
1111110011001101
1111101111111011
1111111000101011
1111110110101010
1111110001101010
1111111011100101
1111111011000010
1111111111100000
11111100
1111110101110111
1111111010001000
1111111100011101
1111111011000010
1111110111001100
1111110001111100
1111110011011101
1111101101110000
1111110111011101
101110100
1111111111010110
1100011
1111111110110011
1111111111100010
1111110001100000
1111111101001010
1111101000110101
1111110000100010
1111111101111000
1111110011000000
1111101011110001
1111111011000100
1111110101011010
1111111001110100
1111111101111101
1111111000110100
110101
1111111100010001
1111111010011010
10000010
1111111100101110
1111000
100111001
1111111100110110
1111101011000001
1111101110110101
1111100010100101
1111111010010110
1101011
1111110110100110
11011110
11111110
1111110001010111
1111110011001010
1111110011001111
1111110111110110
1111111110010100
1111111010101110
110100
1001110001
1010011111
10001110100
1111001100
10101001
111101101
1011011
100001111
1000101100
1001000011
1100110001
1110000011
1111110100011100
1011011
100110010
1111111011110000
1111011001
1111111010010111
1111110110110000
1001110010
10111001101
1111111001010010
1111111101010101
1111111101111001
1111111000011000
1111111100110110
1111111100110011
1101001011
10000001101
10000001011
10101111011
100011100
1011001101
1011000100
100101110
11010011
1100000001
1001101011
1001001010
11010010
10001010101
10000001100
1111111111101011
1011110
10000100100
11000000
1111111011000110
1111110110011000
1111001100
10000011000
1101111101
1101100110
110100
1000110101
10000110010
1001001011
1101000000
1001110110
1101110011
1111010011
1101001010
10010010111
100011000
1101100110
10000011010
1000110011
1010000110
1001010100
1110001011
111001011
1111111111010001
1111111101011001
1011001001
1000001001
1111111110101101
1111110101110111
11001110100
1101001100
10110111
1111001100
1011000000
110100110
110001010
1111111110011111
1001000000
1101101
101100101
1011001001
1110101110
111110100
1101100010
1101110101
10100101000
1100100010
1011001111
101100101
1111111100111000
1100010100
11001100
1111101110111111
11000000111
1111111100100010
110011111
1111110011010000
1001100111
1000111100
10011100
10001001111
10011000110
1010100
1001010
1111111110000001
10010110
1111110110011001
101101100
1110001100
10001100011
10100000
10010101100
1011111100
10001010011
100000000
10010100000
1010010100
11110011
111001001
1100000110
11111010
1111111101001101
100100111
110
101000
100101001
110111000
1111111110100000
110010000
1111111110110001
1110110011
1111100
100101100
1111111110010010
1111111101010111
1111111001011110
1111111100111110
11
1111111110111011
111110001
1011101010
11011110
1110111
1011001000
1000
1111111101110000
10010110
10011110100
1111111101000000
1111111000111100
10
11111000
1111101110010111
1010010111
1111111100110100
1111111111001001
1111111010010011
101000010
1011001110
100100111
1010010
1111111110011110
1111111111101110
11111001
1111111100001000
1111111010001111
10011000
111010110
1001101101
111101101
1111110010000010
1111111110111100
100101011
110000001
1101111011
11000111111
1001000111
10001101000
1111111101001011
1101111011
110100101
10101011
1111111110111000
1111111000010000
1111110000001001
11110
1111111011101001
11010110
110000001
1101110001
1111111110001111
1111111001001111
1111111010011011
1101111
11001100
110000111
10001001
1111111010100101
1111110101001101
101
1111111110000100
1111111011011100
1111110111000110
1111111110110111
110111001
100111
1111111110011101
1111110111111101
101101111
100100011
1111110100010001
1111111001011001
1111100111101011
1111111110100101
1111111101001001
1111111001010010
10101111
100100100
1111111101000011
1111111011101000
1111110110100001
1111111110010110
1111111000110011
1111110111000000
1111111011101110
1111101101010001
1111101111111011
1111110110010001
1111101111011101
1111101000100111
1111110011000011
1111111000011101
1000101100
1111111000100010
1111111011100101
111011101
1111111110000011
110011111
1111110100111011
1111110010100101
1111110100111110
11100010
10000
1111111000101111
10000011
1111111001101010
101001
1111110101111001
1111110110111100
1111111000010100
110000101
1010111
1111110111011111
10011
1111110001010011
1111101111110111
1111100111100101
1111110011101110
1111100001101011
100111000
1111111100110010
1111111111111001
10111111
11011010
11101
11011100
1111110011100010
1111110101001011
1111101100110011
1111111100011011
10101000
1111111101110001
1001111
1111111100010110
1111110111000000
1111110111101101
1111101101100000
1111111000000001
1111111001101100
1111110010101110
1111100110011110
1111110100011010
1111101110000011
1111101001000000
1111110001111000
1111101111101000
1111100111100100
1111111011100110
1111111000011011
11010001
1111111011100110
100111011
11101010
1111111001010001
1111111010000001
1111110101100000
1111110101010010
110001011
1100
100110110
11000111
1111111100100010
1111111111110101
1111111000001100
1111111010010000
1111110100000001
1111110011010001
1111101100010100
1111101000001111
1111101100010010
1111101100000111
1111110100001000
1111110011011111
1111101000010101
1111100011100000
1111110110011110
1111111001101001
10001011
1111111101010100
1011010
1000001011
1111111001010101
1111101101110100
1111100011101111
1111110000100101
1111101111100000
1111111000110100
100010100
10100001
11010011
1011101
1111110111110000
10000
1111110010110110
110010101
1111110100101100
1111100010001111
1111101011001100
1111110101011111
1011110
1111111111110010
1111101101110011
1111101010101101
1000111
1111111011001011
1111111010111100
1111111010111110
101011001
11000000
11101001
1111110101001000
1111101110010101
1111110000001001
1111110011010110
1111101100000111
1111110011011110
1001100
11110000
1010011010
10111011
1111111110100010
11100010
10111001
1111111011001001
1111110001010000
1111101110110011
1111110101110110
1111110100001000
1111111110100010
1100100
1111111111100110
1111110101100000
110011
10010001
1111111011101110
1111111101000110
1111111101101100
1111111000111001
1111101100011010
1111110011101101
1111101101001010
1111011100010110
1111011010010111
1111100110000000
1111110100011110
1111110011110001
1111110110111010
1111111110100100
1111110111100100
1111111100111000
11011100
1111111010000110
1111100010000011
1111110000101000
1111110110111010
1111110110011100
1111101101001101
1111101111101111
1111110101010011
1111010
11101011
1110010
10100101
10100000
11110111
100100101
111000
1101011
1111110100010010
1111110010011110
1111110000110111
1111110001111010
100101111
1111110100010110
1111110010000110
1111101000101100
1111100100100101
1111110000100110
1100001010
1001100100
101001010
1011110
10110100
1111111000000001
110000
1111111010000001
1111111111111000
1111111110110000
10111100
100010010
