1111111100011110
1111111100001010
1110101
10110
1111111101001001
1111111100101101
1101100
1111111011000100
1111111110011001
11000001
1111111011111111
110011
1111111010011010
1111111100100001
1111111011101111
10100101
1111111100110100
1000010
100011000
1111111011100010
1010011
1111111110000011
10101111
1111111111100111
1111111011011100
1111111011000101
1111111100011000
100111101
100111001
1111111101001000
10010111
10000110
1000101
1111111011011100
100010011
10001110
1111111010010011
1111101110100000
1111101110011010
111001000
110111011
1000111001
1111110100010111
1111111111100011
1111111110111101
1111110111100101
1111101001111101
1111110001111100
1111111011000011
1111111110010110
1111111100001100
1111111011010001
1111111110110100
101000010
10101111
111
100000100
100100011
1111111101110110
1100000000
1111110
1111110101011011
1111110000010100
1111110010001101
1011111
1111111000001011
1111110100011111
1111100000110110
1111110001101011
1111101000001000
1111100111110000
1111101000011110
1111100010010101
1111101010111001
1111101011011100
1111101000101100
1111011001000110
1111100101110010
1111101100101011
1001111000
1001001011
101101000
1111111011100000
1111111110110000
1111111111101011
1111111010110111
1111111000011010
1101100111
1111110101000000
1111111010111100
1111111011010100
1111111001101000
1111111000011100
1111101011111101
1111110100111000
100100010
10100100
1111110110010010
1111110111001000
1001010010
1111111110011110
1111111111000010
1111110010011010
1111110110111000
1111111011111010
1111101100000110
1111101010100001
1111101011100100
1111111010010101
100010101
10000011
1111111110101110
1111111111000100
10111
1111111110111010
10000001010
1111111010111111
1111110110101100
1111110101101101
1111101110010100
1111101111110100
1111110011001101
1111111000100001
1111111101011101
1111101110000101
1111101001010100
1111101100010111
1111111101111000
1111110011001101
1010011
1111111101111010
1111111010110001
1111110110000100
1111111101000001
1111111101001101
1111111010000000
1110010100
10101000100
10000101101
101101100
1111111110111110
1110100
11000000
10001111011
101110001
1111111110111011
1111111101101100
1111110100110011
1111101100101010
1111110011101010
1111110100001010
1111101001110110
1111101000010000
1111101101010011
1111111000101010
1111110111010111
1111111000001011
111101
1111111101010001
1111111100101011
1111111000001011
1111111101110101
11000111
110111001
1101101011
1001011011
1101001101
1111111101001101
1111111111111001
1111111111111100
11000110
10101101000
1101111001
1001100100
1111111110100011
1111110111000100
1111110110010001
1011001
1111111101010011
1111110101111010
1111101111100010
1111110100111001
1111110010111111
1111111001110110
1111111010101011
1111111001011100
1111111001011001
1111111011111110
1111111001100001
111010010
1111111110100111
10010111
1111111110101011
1111110110011110
1000100000
10011111
10001101
10110000101
1110011101
10011110001
11010000000
1111110111101110
1111111110110001
10000110001
111011010
1011101100
1001101010
111110111
110111110
1111111101011011
1111111110010011
1111110110011111
1111111001001010
1111111001110011
1111110110011101
1111111011101010
1111111100001110
1111110010110010
1111110011011011
1111110011011101
1111110101111110
1111101001000101
1111111011000101
1111111111011010
11111000
10001100011
1011100001
1001010011
10111110101
1010110
1111111101010010
1111001000
101011101
1011100011
1011110001
1000001000
1001000011
1100000101
1011001001
11100010
100101000
1111111100101100
1111111110101110
1100101
1111111101010011
110111
1001
1111110011100011
1111101111100001
1111101010001010
1111111111101111
100110110
111011101
10000111010
1100001101
1100101001
11011101110
1111111110
1010100101
1111111100
1011001011
1110110000
1110111101
111011010
11000000011
11100000001
11111101001
1110011111
1001010000
101001100
1111100
1000000000
1000010
110000010
1101001101
10110010
1111111100000101
10010110
1111111010111011
111110110
110011000
10101000111
1100101011
10101110111
10111111100
10011000001
1101010101
1111100100
101111110
10000110110
1001001110
10000111110
10000010010
11110011111
1101011011
100100010
110010100
110
10101011
11000011
1111111110010100
1101110
111101
1000010110
110000011
1111111110110111
110001011
111011011
110110010
11110110110
10011011101
11010000011
1101010011
1011101
1011100101
10000
100100111
110001000
1110111101
1100110101
100000010
1111111011111011
1111110101100010
1111101111110010
1111101111011110
1111111011100101
10100
1111111010101111
1111111101111111
1111110011111110
1111110101110110
1001100
1111111101111111
1111111111010011
10000111100
1111111111000010
1111111101110111
11101101111
1100001
1111111100000001
10101101
1111111111101000
11101111
1111111100100100
1111111001000011
1111111001010001
1111111010100100
1111110111111001
1111101101010001
1111110001101000
110111
1111111110011110
1110101
101110
1
1011101
1111111100001001
1111111001100110
100111001
1111110110010100
1111110100001011
1010111110
11000110000
1111000100
1111111010111110
10000010100
1111111111111100
1111101110010101
1111100101100111
1111110000111010
1111111101101001
1111110100010000
1111110001000010
1111101111110011
1111110010010011
1111110111111000
1111110010110000
1111111001010101
1101110
1111110010100010
1111111011100110
100010110
1100101010
10001011
1111111011101111
10111100
1001100000
111100
1010110010
1000111011
10001001011
1101110110
110100110
111100100
10101100001
1111110110111101
1111100001010100
1111101100011110
1111101000100010
1111110111011100
1111111100111001
1111110110110001
1111111111100011
1111111000111111
10010100
1111111111101011
1111111
1111111101110100
1111111100011101
11010001
1010111
11100001
1111111101000111
1100111011
1110001010
10100110001
1111000100
110010100
10101001
1001111010
111101000
10111000
101100111
1111111101110000
1111101111010100
101000000
1111111010111011
100000110
1111111010100111
1110010
101001
101011010
100010110
1010100111
1001101110
101110010
1111110100000101
1111110111111011
1110010
11011100
11100110
1101011110
10100011110
10100011110
11011101111
1111111001011000
1111111000001001
10100111111
10010000100
100100101
11111110001
10111111
1111101111001101
1011011
1111111010100011
110110011
110010000
1110000111
11101101
11100011
100001100
110010100
10110101
1111111001011101
1111110000100101
1111110101000101
1111111010101010
1011001111
100001011
1000001010
10100011101
1000101110
1001110011
1111111010100110
1100100001
1110110111
1111111011100111
1000111101
1111111100000000
10011001011
1111111100111110
1111111001100000
1111111101000010
101110100
1111111111010011
1111111101100111
100010101
1111111110001001
100100001
1001110001
1111111001010110
1111110001100011
1111101011011101
1111111111111111
1111111111010010
1011010111
1011000001
101110100
101010111
1000010010
1100111011
11111110
1111010
1111010000
11011111
101010
11101101
101100111
1111101111100100
10101111
1010010001
101100111
11100
1111111111110111
10101100
1111111000101001
1111111110010000
1111111101100010
1111110101011011
1111111100100111
11011110
101110101
1101111111
1100111000
1011001101
1110011110
10101000001
101111101
1001101000
1000001000
1100110111
1001010110
1111111110100110
1111111101010000
1111111011101011
1111110010101011
1111111101100011
100001101
1111111001010110
1111111010110010
1111111101011011
1111111100111111
1111110111100000
1111110111011001
1111111011001111
1111110000010100
1111111001111101
1111111011001000
1111111111111101
101100010
1101101100
1111000101
1100110001
10010011111
10000100011
1111111101100100
1111110000000101
1111111001011011
10001011011
1111111110010001
10101
1111111100000100
1111111100001101
1111111111010001
1111111011000000
1111111000111000
1111111100000000
1111111111110111
1001000
1111111101110000
100111
1111111010110011
1111111000101011
1111111001010110
1001110
100010
1111111111000101
101101111
111111100
101110110
111110001
100100111
10110
10000110
1111111010011011
1111101110110010
10000011000
1111111101011000
1111111111010010
1111111111001011
1110101000
100000001001
1101001
1111110110001101
1111110011110111
1111111011010111
1111111001101000
1111110101111101
101110
1011101
1111111101001111
11001101
110100111
11011000
101000100
1001101
1011110101
100010111
1111111101100000
1111110100011011
1111111000100011
1111110001101011
1111111010101101
1111111111110101
10101101110
1011000
11010110
10101001
1101101110
10001010001
1001100101
1001011110
1100111111
1111110111101011
10110110
1111111100000000
1111111001111000
1111111111011001
1111111100101110
101101000
1111111010010000
10101000
100000111
111011001
111011000
111101
1111111001010011
1111101010110011
1111110010111101
1111100011011001
1111110010110111
1111111011111000
1111110111001101
111000010
1111111110100000
1111111111001010
10111010011
10101011010
1111000101
10001010010
11001011111
1000101101
1111111101001011
1111111110101111
1000011010
1001110011
101011010
101010100
1111011
101100011
1001
11100001
1111111011011000
1111111001010100
1111110010011001
1111100000011000
1111101011000110
1111100010000001
1111111101011010
1111110101011110
101101
101
1111111110010011
10010010
1011000111
10101100111
100011011011
10010000011
10001100000
101111111
1111111011101001
1000000110
1111100
100111111
1111111111010010
1111111110000011
100111
1100000
1111111011100011
101010110
1111110111010101
1111110101111010
1111110000010010
1111110110100001
1111110100110000
1111110001100110
1001001000
1111110101000011
101000010
100111010
1111111111101101
1111111100001101
1111111101111100
1111110100111010
1110111111
1111111110000011
10101010
1011100011
10111101010
10001101000
1100011101
1011111000
10011111011
10110101
10111000
110011110
1010100101
10000100
1111111011001001
1111010110
100011010
1111110011111001
1101000
1111111110001010
1100101101
1111110100111010
1111111101011000
1111111100000011
10101101
1111111110111000
1111111110101110
1111111000111011
1111101001100110
1111101100000111
1111110000101110
110110
1111111111001001
1111111001011111
100111111
110111010
1111111001011000
1001011101
1111111101101000
111100011
1111110111111011
1111111000101000
1111111010001001
110011100
1000010
1111101010100011
1010100110
1111111111110000
1111111000110101
10100000
1111111110011110
100111111
100001100
101001000
11010000
1111111111100000
1101010010
11011111000
1110101010
1110010011
10010011000
10011100001
10010110010
101011110
100101101
10100110000
11010000
1111111000000101
1111101111000011
1111111110101001
111
1111110000010110
1111101101000110
1111111011000011
100100101
10000111010
11111111
1111111101000100
10101
100100000
