1111111110000110
1111111111110101
101010100
1111111111010000
1111111100000010
110111
1111111011011111
0
1111111111111000
10010010
1111111111011100
1111111100100010
1111111111010010
101011
1111111101010000
1111111111011001
1111111110100001
1101101
11101101
10000000
1111
1
1000111
1111111101000010
100101011
1001
100100001
1111111101010000
1111111011101110
11110000
10110000
1111111111010110
1111111111110111
1111111011111011
1111111100010100
1111111110100111
100010000
11101110
1000101001
1111111010000101
101001
111111111
1011101101
1011100010
1111110001001001
1111111100110010
1101110110
10101100101
10100111010
10001100010
110010100
1001010111
1111111110001011
1111111111010100
11010000
100101010
100010001
1111111101010011
110111
11000101
100110
100101111
100110000
1111111101011000
1111111001110101
1111110000101101
1111110111110101
11010001
110000101
111011001
1111110100110000
11001101
1001101
1011010111
110110001
11100101100
11011101010
11011111110
10101100100
111001010
1111110110010110
1111111000010110
101000010
1111111100110010
10001001
10011110
11100
1110100000
1101100110
1111110110000100
1111110100110011
110100001
1111110001110110
1111111000101101
1111101101101001
1111110000010011
1111110111110100
1111111011101010
101010
1111111010101101
111101
100001010
1101011010
110010110
1111111101011100
1111011010
1110010001
1100001010
111000100
1111111010101010
1101110000
11111100
1111111111100010
1111111100000111
1111110010110000
1011101101
1111111000101101
111011
1111101010100110
1111110111101000
1111011111000001
1111110111001110
1111101001011100
1111101110011101
1111101011001010
1001011
1111111010100010
1111111010110100
1111111011011001
1111111000000101
1111111010101110
1100100
1111111110011101
111101000
1100101
11001010110
110001110
1111111010110111
1010100111
110100111
1111111101011000
10011010
101100110
111110111
1111111111101011
111001011
100011011
1111110001000010
1111101000000100
1111100111100001
1111110111100100
1111111011111001
1111111100001100
100111110
1111111110111110
1111111111000100
1111111011000101
110110110
10
1111111101110010
1111111011010011
1111110110011101
1111101111110010
10011111
10001011111
1111110001100111
101110111
111110010
1111111100100000
1111110010001010
1111111001010010
1100000
110001000
10001110011
1111111011001001
1111100110110101
1111101000000100
1111101010101000
1111111000000000
100001010
1111111110011011
1111111110010110
1111111101010110
11101100
11001
10101001
110010100
11010010
1000011001
1111111010110000
1111111101010111
110101011
1001000011
1111111001000110
10010111001
1000111100
1111111100100100
1111101011100010
1111110110000000
101
100001100
11110111
1111110001011000
1111110001100111
1111101100010011
1111111110011101
1111111110100101
100110010
100010101
11001100
1000110111
1110110
10111000
1000001111
10100101
1111111010111110
101111
1111111001010011
101010
101100100
1111111010010000
11110100
10100101101
10000010110
1011011000
1111101111111110
1111111110001001
10110001
1001110111
1111110100110010
1111110101000010
1111110100011111
1111110011001010
1111110100010101
1111111000010000
1100011
10111111
110101001
1100100101
1111111111101010
1111111010110110
1111111101010001
1111111101100011
1111110111110001
1111110111101011
1001011011
1111111000001001
1111111000000101
11100101010
11000111101
1111111111110101
10110101
10011
1111101001100011
1111110010000111
1111101101100110
11000
1111101000111111
1111110100011111
1111110111000110
1111110010100010
1111110100000001
1111110011001010
1111111110110011
1111111110101111
1011011101
11001101
1010100
1111110111100001
1111110111011111
1111111101010111
1111111110011101
1111111011100100
1000010111
1111111111000110
1000101001
11001101000
10011010110
1111110101010010
1111110000111111
100010110
1111110010010001
1111101111100001
1111101010110101
10011001
1111110011001101
1111101011000111
1111110010000100
1111110011001011
1111100111100100
1111110001111010
10111111
1000110000
1111010000
10010011001
110101000
1111111001111101
1111111011010001
110010000
1111111110000001
1111111011111111
1111111100000000
110101100
1110110
1111111010
10001110111
100011101
1111110100011100
111010111
111011
111110111
1111111000010111
10011001010
1111111100100000
1111101101010000
1111110001110111
1111110001000001
1111100101100110
1111111010100111
1111111100001100
10001101100
10001001001
1011111100
101101010
11000000
110111100
100111111
1010100
1111110001100011
1111110011100011
1111110000011100
1111111011111000
1111111101111010
1001110011
11010101111
100000101
1111111110111110
1111111111110001
1111111011100100
10100000
100011100
1111101101101110
1111101001101010
1111101010100010
1111111000110001
1111110101101101
10101110
10101010101
10010001100
1110110010
1101111011
101010011
101010011
11111011
1001100011
1111111110001001
1111111101000110
1111110101100110
1111111100110111
1111111000010110
1111101011100011
1111110111000100
11101100
1111110101000101
110101001
1111111101100010
1111110110000100
110110011
1111110110010010
1111100000011101
1111100000010110
1111110100111000
1111111110011101
1001011010
1101011010
101110011
1001101010
1001011110
1111101101
10001100000
1100100
101011101
1111110111100000
1010011
1111111001011000
1111110101110100
1111111000001100
1111101101110010
1111100111001110
1111110010100000
1111111111010011
1111111111000101
1011001011
1000001000
1101110110
10000001001
10010011
1111110011111000
1111100100111101
1111101011110110
100100010
1001101011
1000110110
101010100
1111111101101100
110111011
1100111010
111010111
1010010000
1111111100111100
1111110100001011
1111101111111010
1111111011110000
10110111
1111110101101100
1111111101001001
1111101101000100
1111111011011101
1111101000111010
10001111
100000001
101111000
1110101
1000111100
1000011100
11100010
1111110010111110
1111110101110010
1000000
101111
1111111111101111
1111111101001001
101010010
11100110
111100101
1001001100
100101111
111110110
100111101
1111110001100101
1111110011001100
110101
1111111110000000
1011011000
1111110101000010
1111110011110011
1111011010010101
1111111000010100
1111111000010001
1111110001101010
1111101111010010
1111110011101010
1010010111
101101101
1111110001100110
1111110000000010
1111110111101101
1111101101111011
1111110100110011
1000101
1000000
11110111
1000000011
111101100
1100110000
1111111110100110
1111111010110010
1111110011000110
1111110110000010
1111100111100110
1111110100100011
1111110100010001
1111101111010000
1111101011001100
1111101000000110
1111101101010110
1111111101000111
1111110111000101
1111100011101101
1111110010101001
10011011
101100101
1111111011100011
10100000
1111111001000001
1111110101100110
1001000
1111111011101111
1111110101000000
1111111000110010
101010110
1111110001
1011111000
110101100
10111101
1111110111010010
1111111011100010
1111110001101000
1111111100101100
1101011100
1111111100111111
1111101101101010
1111111001110101
1111110011001111
1111111000110100
100011
1111011011111100
1111011111110110
110011
1111110101010000
110101000
11100111
101100101
110000101
1111110101111000
1111111011101101
1111111111011011
1111111101011110
111000100
110110010
1001110001
1001001010
1111111000100110
1111101110100100
1111110010010110
1111101110111110
1111101011101000
1111110001101011
1111110111000000
1111111110101010
1001000111
10001001
1011111001
10000011
1111100101001100
1111100110001001
1111110110010111
1111111111111101
1111111111011110
111101000
11111100
1111111000110011
1111111010100111
1111111100000011
10100
100101001
110010100
1100100010
1001011011
100110001
1111111101111110
1111110000100110
1111101100100101
1111101100011101
1111100111101101
1111111001101111
100000010
1001100010
1111111101000100
111010100
1111111111010111
1110101011
1111101110001010
1111101011101011
1111110101000100
111000001
101
1111111110010011
10011110
1111111010110110
10100110
1101101
1111111110000000
1111111101000101
1000100110
110000100
11100101
11000000
1111111100100111
1111111100010101
1111100011011011
1111101011011101
1111110001100111
101010001
10000000
1111111100110010
1000101011
110001101
101111111
1111111001110001
1111101110100010
1111111001001011
1111110000100111
1111111101101101
110010110
11101111
1111111101011001
110110110
1111111111100101
10010111
1111111110101111
10001010
100000101
1111111111101110
1111111100000101
1111111101101000
1111111010010100
1111101110011000
1111101101011110
1111100100001000
1111011101010111
1111111110001100
1111000100
1111110111101111
1111111110010001
1111111111111011
1001101101
100000101
1111101100111110
101000100
1111111001101101
1111110101111111
1101100100
110100011
1111111101101101
1100111
1010111100
101001010
1110101011
11011010
1111111011010111
1111111101011000
11111101
1111110111110011
1111110111011110
1111110110110010
1111010100011010
1111010111110101
1111101000101111
1110110101
1111111111
1111111110111011
111011001
1111111101011111
1101
1111111101100111
1111100111100110
1111110110000111
1111111001110101
1111110101011111
100010
10100101
111101101
11110
111000111
1000110110
1100000001
1111111100100010
1111111011111110
1111111011100111
1111111110010010
100110111
1111111100110110
1111110000011101
1111100110010001
1111101110110000
1111111001001001
10011110
1111111011001110
1111110101001011
101001
100011100
1111001
1111111011011110
1111101100011001
1111100111011011
1111100011100100
101100011
1111110011000011
1010010
11111111
1111111100110001
10001
1111111010001110
1111111111101011
1111111110111111
1111111010101111
1111111101011000
1111111101110111
1111111111101000
1111111010101101
1111101010111100
1111111100110011
1111111000110001
1111111101010110
10000010111
10110011110
1111111100100101
111011101
1111111010110011
10
111111
1111111011001001
1111111101111011
1111110110000010
1111111000111111
1111101111101100
1111110101000000
1111110010011010
11101000
1111110110001011
1111111101101011
1111111110011001
1111111011111111
101100
1111111000111111
1111110010110110
1111111101100011
1111110011001010
1111110101111010
1111111011011110
1111111111100111
111101110
1101101101
100100001
100
1111111110001011
110
100101001
10101
1111111100101000
1010101011
11010001111
10001101101
10010011100
10111001101
11011111000
1010010110
1111111001001011
11000010
1101101001
11011101
1010101001
10111101100
10011110011
10011101000
1111111110111011
1111110111110101
1111111100111110
10000100011
1111111101010000
1111110111110100
110001100
10000111110
1111111110110111
1111111100010111
1111111100101010
10111011
1111111100100001
1111111011110101
1111111100010101
1111111010000001
10011
1100001111
1011010000
11011111
1111110010011110
101001110
1010111
1111110001111000
1110111001
1011000010
1111100100
1100110100
10001011000
1011010111
10010100
11000101
100111111
101011100
10111
11010111
1111111010111101
1111111011110100
