10101110
1111111011100000
1111111100111111
1111111100010001
100110110
1111111101101110
1111111100010111
10001111
1111110
1111111110001011
1111111010110010
10011101
1111110010011000
1111110111001011
1001011101
1000001
1111111111011000
110010
10100011
1011001
1111111111110111
1011111
1111111010100010
1111111111010110
11100011
1111111011000010
11110001
1111111110101011
1111111110111110
11110100
100001
1111111111000011
11111110
111001
1111111010100101
1111110100101011
1111111010001011
1111110110011011
1111101011101001
1111111001000111
1111111111101011
10001010
100101100
11010111
1111111101111110
1111101010100101
1111110011100111
1111110011000110
1111101111101011
1111110000010110
1111110100011011
1111101100010011
1000
10100101
1111111110100110
1111111110010101
1111111101001101
100101011
1111111010111010
1111110110111010
1111110111010111
100101010
1111111100010110
1111110100100111
1111110111001010
1111101000001111
1111011111011110
1111101101110111
1111101101001001
1111101011000001
1111101010100011
11110111
11000111
10110011
1111110010011101
1111100000010010
1111101011110011
1111100011011011
1111100011000000
1111100010101000
1111111000001101
1111110011111101
1111111101100000
1101101
101011001
100100011
1111111100100100
1111111001000110
1111111010101101
1111110010000000
1111110001101100
1111110000000100
1111100011011000
1111011011110101
1111011011101010
1111101000010000
1111101100001110
1111010011001001
1111010010100001
1111100001101101
1111101111011011
1111110100001110
1111110100000010
1111101001010101
1111101000001010
1111101001010101
1111110000111100
1111110110010010
110111
1111111101100011
1111111111101001
100000111
1111111010100001
1111111101100110
1111110100001110
1111111100110001
1111101101111101
1111110000011011
1111110001001111
1111100110100001
1111100110111011
1111010110011110
1111010101010110
1111010111111001
1111001001010000
1111010001110010
1111001110011011
1111011010000011
1111100011000001
1111101110110001
1010000
1111110111011011
1111101100101111
1111111011010101
1001100010
1100100100
10100110011
1111110110111010
1111110011101010
1101110
1111111111010000
1111111101110111
1111110111110101
1111101011100111
1111101001000010
1111101101010010
1111101000000011
1111110010001111
1111101100111001
1111011101111011
1111101101110101
1111110111001101
1111111000001100
1111110000000100
1111110000100111
1111110111111000
1111101011111010
1111101111010110
100111010
10000001
11000
110001
1111111001000011
1111111111000001
10010011001
1110011010
10111110001
101101010
100100101
1111111110100010
10100001001
11000100
1111101010111011
1111011101010000
1111100000101110
1111110000100000
1111111000000110
110001011
100001111
110000101
110001
1111111111100111
1000111100
110100000
1010001111
10000000000
1111101011
11000000
1001101010
100010
1111101010010010
1111100100001100
1111110000110100
11000101010
1111101111011110
1111111111010100
1111111011110001
111
1111010100
10101101
1111111010000010
1111100010011101
1111110110001110
1111101111100111
1111111001101101
1111111101110010
10000111
11010110
1011110111
1000111110
10001110100
1100101111
1100100100
1000010111
1111111111001101
1111111100000110
110011
1111110111110001
1111100011110100
1111011100011111
1111111110111101
1000110000
1111100100000011
11011011
1111110010110010
1000100
1111111010010110
10110001
1111111110100010
1111101011011010
1111111110010010
1111111000101100
100101110
1111111101010010
1111111101010001
100011010
11100011
10111010
100000001
10110011
1001011010
10001001
10111010
1111111100011100
1111111100010011
110100
1111100111110101
1111100111011110
10000101
1111100001010101
1111110010111001
10000101000
101000
1011010111
1111111011101110
101111010
1111110001001110
1111110000100101
101110
1111111110111101
1111111110111000
100111000
1000011010
1000101111
110001011
101100101
1011100
1111111011101101
1001000
1111111110100110
101110000
110100110
1111111101111011
1111110110111101
1111110111110100
1111110000100001
10000010
1111110001110001
1001110100
11001001
111010001
10100011
1111111000111100
1111111001101011
1111101110010110
1111110010001110
1111111101000110
1011101
1001101
100000101
10011100
11110
100010011
1111110010111100
1111110110011101
1111110111010100
1111111011000101
1111111001011000
101000100
110110001
111011010
111011100
1111111011110011
1111111011000101
1111111011100111
10010101
1010111010
1111111001111101
1100111001
1111100111111001
1111110000111100
1111110100111011
1111101111100100
11001
1111111101101011
1000
1011101111
100010111
1111111000001110
1111111010010111
1111111100001110
1111111010100001
11010010
110100111
110010001
1100000101
111010101
100010110
1011111010
1010110001
1100111011
1111111111011111
111011010
1111111101001101
1111111101100111
100101101
1011001000
1111111000110100
1111110001101001
1111110111101101
1001010101
1111111000011111
10100000
1111111100111000
1110001
1100100
1111111010000101
1111110110110111
1111101010000001
1111111001110111
1011000111
1000101001
101000011
100111010
1111111111011110
101111100
11110100
1111111100001001
1111111010111001
1010100
1111101110110000
110010
11011111111
10001010001
1111111000101011
1111111010111011
1111110010000111
1111111000010011
1000000011
1111111010000100
1111111111000110
1000101010
10101011
1111111010100100
1111111011110101
1111111000110000
1111110101110001
111111001
1101110010
101011011
1111000010
111111001
1111111111100010
100010111
11000
100010100
11100001
1111110001110100
1111101000110111
1111111011011100
1101111100
1110110010
1111110100111111
1111111010001111
1111101101100110
1001011000
1010100111
1111111011111010
111110101
1101011001
1000011011
101100101
1111111111011001
1111111010010100
1111111100000110
10100111
10111001
1000111100
11110100
1011001101
1010011101
110010111
1011110100
1111111111111011
1111110101101101
1111111101111101
1111101111101110
1111110001110110
1000111111
1110000000
1010011
1111
1111011101110101
10111010
111010100
1101110000
10000001010
101001010
1111110001
1101011001
1000100011
1000011001
110000110
1111111011101000
1111111110111001
1001110001
1111011011
1000110000
1010101110
101011011
11011111
1111111010101000
1111111000101100
1111110110011100
1111110010010110
1111101001011011
1111111111110100
10111111
1000001010
1111111101001001
1111101000011100
1111111101000000
1001100000
1000011011
1011011010
1010000100
10000100110
111010111
1111001010
10000000011
1110100010
1010001011
100001000
1111100
1111111110100110
101101
111110001
1111111011110001
1111111000010110
1111110000011010
1111110011010001
1111110111000001
1111101101110111
1111100111110001
101111110
101011110
100111011
1111111110110010
1111101001000101
1110010
1111111001011111
1000110
111011000
1000111111
1110011100
1001101111
111101111
1001000101
1100011011
1100100111
10010000
11001110
1111110111111101
1111111000110000
1111111010110100
1111110001001100
1111110000011011
1111101100110011
1111101000111010
1111100101010111
1111110000011001
1111111011101100
1111111000000101
110110000
1010001101
1111111111001001
1111110011100101
1111110011001001
1111110001000111
1111111101100101
1101111000
1100100000
100011
1111111010010110
1111111110011110
10101101
1111111011111011
10101111
1111111101010000
1111111110000110
1111111011000110
1111111110101110
1111111100101111
1111111000010110
1111110011110101
1111110011001000
1111110110101010
1111110010010011
1111101101001011
101101010
1111110100001100
10110
1111111000001100
1111110110010010
1111111010000100
1111110010000110
1111101101001110
1111101001111101
1011001010
100001001
1111111100100100
1111110101010110
1111110110100011
1111110111011100
1111111001111110
1111110001010101
1111111010000011
1111111011100001
1111111111110001
1111111110010011
11001000
1100100
1111110111110100
1111111110010101
101001
110101101
1111110110001110
1111111101010011
1111110110001111
1111111001001100
10110000
1111101100100110
1111111001001011
1000100111
1111110101101101
1111101000110101
1111111001111100
1111101110101111
1111110000011000
1111110100010101
1111101100100010
1111100100110010
1111110010001111
1111111010110011
1111111010011011
1111111101000111
111110110
1111111110101001
11110
1111111100101101
1111111111101100
1111111100011111
101010010
10000000
1110111100
10001010010
1111110011101101
1111110101011010
1111111101001110
1111111001010011
1101110111
1100101000
1000100101
1111110100000011
1111110011010100
1111110100110001
1111101010001100
1111101011110011
1111110100010100
1111101110011010
1111111000000010
1111111000111110
1111111101111010
1111111111011000
1000011011
1111111101010100
100110111
1111111010010001
1010
1110111110
1111111101100100
1111111100101110
100100111
1111111001101000
1111101110001010
1111111110100001
11000001
1111111100010101
1111101110100001
1111111010110101
11010000
1111111101111110
1111110111010000
1111111000010000
1111111000011110
1111110111100001
1111111011001110
1111111110111110
1111111001110001
1111110000010110
1111110101001010
1111110110011011
1111110110011111
1111110011000010
1111110101100010
1111101101011111
1111111101111001
1111111101111000
1101001
1100011
100010001
11111001
1111101101011000
101001100
10100001
100110100
1111101100101111
1111110111001100
1111110011000110
1111111100001111
1000110100
101010000
1110001110
1111101111011000
1111111011011100
1111110100111000
1111111001001100
1111110100100001
1111110011101110
1111110101011011
1111110010000100
1111110100110011
1111110111000001
1111110111011000
110001100
11000010
1110010110
1100000111
1010011100
100100001
1111101110000100
1111111101101010
11100
11001010
1111110111011101
1111111011110101
10000000
1111111101000000
1000110111
1101100101
10100110100
1111111110100110
11011100
1111001
1111111100101000
1111111100011101
1111110011101100
1111110111000110
1111110101110111
1111111011011011
1111110111100101
1111111111000010
10001000110
1100011001
1111001001
11001000110
1010110110
1111110111101100
1111111101000101
1011101
1111111111101110
100111110
1001110110
1111101110001001
1100011
1010111111
1000111110
1001000010
10111101001
110011011
111000101
100001001
111010
1101100001
1010111101
1111100
1110110000
1111100000
101111111
1111001100
11010000110
10100010100
1011111000
1111110100101010
1111111100010100
110110111
1111111000100011
1111111111111011
1111111011000111
1000011
10111110
1100010101
11111101
1000111111
10111011100
100000101011
11010001111
11000100001
10111010111
100000011001
10101100010
11100111010
101011101101
11001010011
11101010011
11011110111
10110110011
1001010110
100110000011
11000000110
10110111000
10001000000
1001010010
10000010001
1111111100101111
1111111100100000
1111111010111111
100110
10011
10000001
11100
1101000111
1111101001
1011101100
1000000110
111100010
10000010010
10111100100
1100011100
1111111110100000
11100110100
10111001001
1011001111
110011010
111001110
100000000
1000010001
1111111100101010
100110010
110111011
100101001
1111111100000010
1000000
100100110
