100110
10010
1111111101110000
1111111111101101
1111111110010100
1111111111000010
100010101
1111111101001000
1111111101110101
1111111100110101
1101001
111100
1111111101001100
10010010
100101000
1111111100111110
100011101
1111111111010000
1111111101111100
11011100
1111111011001011
1111111011000101
101010011
1111111110000110
1100000
1111111011101111
1111111011100110
10110
111110
1111111101111111
1111111011010111
1001010
11110001
10001000
101000
1111111111101110
1111111101110111
1111100
110011010
111010000
10010101
1000100
1111111100010000
11001101111
10101001101
11000001000
10101010000
11001111011
11001100001
1100110111
1001100101
10000110010
100101001
1000100
1111111111010101
10111010
1111111110010101
1111111101110101
1111111110000011
1110010100
1110101010
10110111
1101101001
10110110
1111110110011110
110101001
10100101
110001001
1111100111001010
1111101010001000
1111110011000111
1111111011100000
110011001
1101100
110100010
1010100100
10110011110
100001110011
100101000111
11001000110
110101011
11010111
100000
101010111
1111111101011001
111
101001
10100101000
10011111000
100100110
1001100100
11000111
1111111101111110
1111111010000100
1111110111011111
1111111001010100
1111101001111001
1111111111010010
11010100
110000
1111111111001100
101001011
1111111001
11111010
1111110101010011
101011
111100010
1100100111
1111111111101110
1111110011111000
1111110010101000
100111001
100111
10101011
1010110100
1000100111
1111000111
1101000
1101000
1111111101011010
1111101011110100
1111101100100000
1111110101110100
1111110011011110
1111101011101101
1111111010010101
1111110111011010
1111111110100010
1111111111100001
1000000110
1111111110000110
110010101
1111111111111101
11100001
1111111100100010
1111110101100011
1111100111101101
1111101001000111
1111110011100100
1001010011
1111111101000101
10110110
1100000111
1010001011
101111000
1111110110101010
1111110100000111
1111110010000000
1111101011110011
1111110100101001
100101001
1111110111010101
1111101110101001
1111111010000001
1111111111011101
10110111
1111110101000100
11011101
1101000001
1010011000
1111111011010010
10010101
1111111100011111
1111111010111100
1111110100001010
1111011111001101
1111101110000111
110001111
11
1111111101000001
1011100000
111100111
1111110101011010
111001110
1111111011111101
1111111100101111
1111110010101111
1111110001101010
10001010
1111111000010111
1111110010011111
1111111111101011
100000010
110001100
110110111
1111111110011111
101001100
1111111010100111
1111111011011111
101100010
1001101
1111101110001011
1111101010100110
1111010011101111
1111100101000111
1111110100000100
100110010
110111000
110001011
1111111011100000
1111110011001101
1111111111100111
1111111111100111
1111100111010100
1111100100111111
1111110110111001
1111111010011000
1111111110001001
1111111100011111
10001100
1011101001
1010011101
11111101
100
11101101
1111111001111000
1101001
1111111101100000
1111111101001010
1111111011100001
1111110100111101
1111011110111010
1111011000111110
1111110011110000
1011101110
10111110
1011000000
1000010010
1111110000010101
1111111000100011
1111110011111011
1111110010011010
1111110011001110
1111111100111101
1111111100100111
1111111011110011
110000110
11001000
1000111100
101001000
1010001110
111100010
1111111001110111
1111111011001000
101001001
1111111110001001
1111111110101000
1111110100100111
1111100101101111
1111100110001110
1111011010111101
1111110001010010
11100010
1111111000110111
10110010010
1111111101110001
1111110110100111
1111110000001001
1111101001000111
1111101010010001
1111110010110010
10111101
100011000
1111111010110101
111100111
10000000
11011111
1111111001000001
1111111100101111
1111111101100111
1111110010101101
1111111100110001
110011100
1111111100011001
1111110101001100
1111111010100110
1111101010100011
1111011111011000
1111010000110010
1111111001101111
1111111100111011
1111110100010110
101011110
1100110000
1000011110
1111110100110011
1111110000111111
1111111111101101
1111111010100101
1111111011111100
1111110100100000
1111111111011000
11000000
1001000011
1001000010
1110011
1111111010100100
1111111101010111
10000100
1111111101110001
101011011
1111111111100011
1111110111110001
1
1111011100100011
1111010010111010
1111100010000100
1111111011111101
101011110
1111101101
1111101100011001
1000011110
1111111001101101
1111110100010010
1111110011111001
1001000100
1111111100101100
100010100
1111111001100111
1111111011011011
1010100010
1011111111
100101
1111110110111110
1111110000100000
1111111110110110
1111110111110100
111110000
1010111010
1111101001
10
1111110000001110
1111010111100100
1111010101011101
1111101000100010
1111111111101110
1111111101110111
1111101
1111101100111001
1111001001
1111111110000011
1111101111001101
1111111011011111
11000000
11011110
1011111001
10101000
111001000
100111110
1001110001
1111111110110000
1111110101110010
1111110101011100
1111111010110100
1111111100100100
1111111110000010
1000100000
10000100110
1110000111
1111111001000000
1111011111011010
1111011011100010
1111100101001010
1111111111010000
1110000
1010111101
1111110101110110
1011000100
1111111010100001
1111110000111000
11111001
1010101001
1111111101010010
1011101
111001010
1100001111
110111100
100101
1111111101010101
1111110100011000
1111110011111000
1111110101010101
11011100
1111111011010011
1111111000011000
1110110
1111111101001010
1001000010
1111101010011110
1111100000000110
1111100010100101
1111111001111100
10101010
1111111101100010
1111111111111011
1111111111111010
1111101111110100
101001111
1111111110011101
11110011
1111111100100000
111110100
1010101101
10010111101
10001001111
10100011
1111101011101111
1111110110111101
1111111000111111
1111111011100110
11010111
1100000
1111111011011101
1000101101
1111111101010101
1111111001100000
1000011110
1111100110101000
1111101010111101
1111111010110000
1011011
100110110
1100110111
1111110111010110
1111111001001111
1100
1111100111101011
1101001
10011110
101000000
111011101
10010111001
10000001011
1111110100101100
1111100110110100
1111110111100000
1111111110011110
1110111
1011001
1111111000111110
1011101
1101001110
1111111001101100
10101010
1111111101110000
1111100111100000
1111100001111110
111011
1111111101011110
1111111001010001
101101000
1111111111111010
1111100
1111110111111101
1111101011111001
1111111111101100
110111100
1001111100
1000110001
10011000011
101110100
1111101000100101
1111100010000010
1111111100001000
1111111110011010
1111111111110100
0
1111111001100011
1111111011011000
1111111101111101
10111111
1111111000010011
1111110000100010
1111111111111011
1111111000111010
1001
1010011
1111111110000000
110111000
1111111111111110
1111111111011000
1111110101101010
1111110000101110
1111111100110111
1111100001
1100000000
10101110110
1001001011
101110100
1111101010000110
1111101011111011
1111111101011010
1011001
100010110
1111111101000010
1111111111111101
1111110111000010
1111111001101000
10
1110011
1111111011010100
1111111010111101
1111111010101111
1001101001
1111101110000011
1111111101010010
100001000
1111101001001000
1111111111110111
1111110101001000
1111110111001000
10111100
100110111
1010010001
110000111
110010001
100101
1111101011110100
1111101000110001
11001
1111111101110101
1111111011000111
10111
1111111011100101
1111111010101001
1111110101110100
1111101110101111
1111110111111111
1111101110010100
1111101100110000
1111111111100001
1111111100011111
1111111101001111
10010011010
1110001
1111101011010101
101000000
11000011
1111110111100111
111000111
1100000011
1010110110
10010101101
1111000010
10101100
1111110010000100
1111110000010101
1111110101001011
1111110101000111
1111110111010100
1111110100001100
1111111011001010
1111111111001010
101010001
1111110011001001
1111110110111110
1111111010111110
1111110000001000
1111110100100111
100101010
10100101
1101110000
1111111101100011
1111110101000110
1101101110
11000111
1111111110110001
101101101
100010011
10000100101
10011111011
110111110
1000100101
1111110101101101
1111110101010001
1111110101011111
1111110110001101
1111110000010010
1111111100110010
1111111001001101
1111100
1101110100
1000101
1111111011000001
1111111001101011
1111110111011100
10100
110101
11110010
110001001
1111111101110000
1111110111010010
11111011
1111111011011111
11101
111100001
100111111
111101100
110000000
1001011
110101100
10110110
1111111101011011
1111111111011011
1111111011110101
1111111010101011
1111111011101001
1111111001011001
111111110
1011111101
1111110
1111111101111010
1100010000
1111110110100111
1010100000
1111111110011100
100011000
1111111100100010
11100111
100000
1001001
11101100
101010101
111111111
1001111101
101101011
110011011
101101111
10011100
1111111111011110
1111111101011101
10001101000
1000001111
1111111011001000
1111111100101000
1111111011001011
1000101
111001000
1111111101100110
1111
1111110011010110
1111111101100011
10100101100
111011111
1111111011100111
1111111110001000
100110001
110111010
100101001
1111111101001111
10101000001
10000010111
1111110111
1110100111
1011010011
110010101
10111100
1111111111101001
11000001
1001101010
1111111010001001
1111110111010000
1111111110001001
1111111011101111
1111111011001100
1111110011010000
1111110010101101
1111111001000111
1111111010001111
1111111111100010
1101110011
10010000
1111111111001111
10100111
110011110
1011110001
1011100
1111111011110011
101100000
10000000
100010000
101110000
101001101
1001000
1101100111
1111111101111000
111011100
1001101101
1001111
1111110111011110
111111010
1111111111101011
1111110111001100
1111110100100111
1111111010010001
1111111010001100
10001001
10100001
111101101
1111111110010001
100111100
100000100
1111111110011001
100100101
1001110000
1111110101110011
1111111001101010
1111101011011100
1111101100110100
1111110001011001
101101011
1111111101001111
1111110111111101
1111110010011010
1111110101100000
101001011
1111110111101010
1111100100111001
1111110101010110
1111110011100110
1111110100110100
1110001011
1001111110
1111111110100101
1111111001011100
1001001000
1001001001
1111111011100011
1111111101000001
10100000
1111111101011100
1111111001100110
1111110000101011
1111111000111001
1111110101111111
1111101000001011
1111111011111000
11100010
1111111010010001
1111101001111110
1111101001111001
1111110101010011
1111111100000111
1110111110
1101101110
1111111010101000
1111111011001110
1110110010
1111111100011111
10011001111
11011000000
1001100110
1111111101101010
1111111101110000
100001111
101
1111111010100011
100010000
1111111111010101
1111111100110111
100111011
11010111
1111111000100111
1111110111000100
1111110110100111
1111111010111111
1111111101101111
1111111000111100
1111111001010010
1111110100110010
10111010
100100001
1111111111011101
1101011
1111111101111101
1111111110101100
1000001010
1100101100
10001001001
1000010
1111111101110110
111000
1111111101111100
1101100
