101011000
100010101
100010000
11011
1111111111111000
10110000
11111100
11110010
100000100
11010101
1111111110100000
101000001
1111111011100000
11010110
100100100
101001
1001101
1111111010101011
11110101
1111111011011010
1111111101001101
1111111111011001
101011111
1111111110111001
1111111100111001
1111111111110011
1111111111101010
1111111111100000
10110001
1101010
100110110
100
100001
110011
1001000000
1001000000
110110010
1001110011
1000100110
1111111001111011
1111111001011110
1010001
1110101110
100000110001
1100100011
10001001001
10100010000
1000100010
1111111011000110
1111111100010101
1111111011111100
1111111010100001
10000011
10001
1111111011011101
0
1111111111100000
11011101
1111111100111110
100110000
10000110000
1100110010
110110100
1111111110110001
1001110010
10000010001
10010100010
1101110011
1010001101
10110000011
1101100110
10000000111
10001001010
10101100110
1100111101
110000011
1111111110111111
1111111101110001
1111110100000100
1111110001110011
1111111111011110
1111111101100100
101010
1111111011100101
11010011
111110
1111111011101111
10100000001
10011101100
1111111110000011
1111000
1111111101111010
10010110000
100011111100
10011011011
10000101010
10011001111
11001111011
101001010
10000011111
1110101010
10001000101
10101110
111110100
1111111111110011
1111110111101110
1111110001100110
1111110010010010
1111111011111001
1111110011111110
11010
1101100
1111111111000001
1001001
1111111011110010
1011111010
1110010010
11011
1001100001
1010111001
101000001
1111111110111100
1111111001010100
10011
1111111111110000
101011001
1011101011
1101000111
1100000101
10000111010
1110111000
10010000000
1100101110
1111111111011000
1111110011001001
1111100101100011
1111101111101001
1111110101000011
1111111000001100
10000001
1111111111011101
10100100
110011100
1111111101110100
10100011011
1000001010
110111010
1010000
1100100000
1111011001
1111110110100110
10101010
1111111101100101
1111111111011011
1111111111000110
1111111010001111
1111111101011101
1111111111011001
101100
1111110111100110
1111110100001110
1111110111101011
1111101010101110
1111110000011010
1111111111010110
11110001
1111111101110101
1111111111100010
1111111011000000
1111111110110110
1010010101
1100101111
10111101000
10011001010
111100100
11010101
110100101
10000
1111111000010111
1110011010
1101111110
1000011110
11100100
11101010
1111111010110010
110010011
1111111101101001
10010000
1111111010101111
1111100
1111110110100100
1111100001100011
1111101011000010
1111101001001110
1111110000000001
1111111001100010
1111111011110100
10010010100
10101011001
11110010001
1010101011
1111111100010010
1111111111000011
1011100000
1111111111010111
101010110
1001101111
110111101
101000010
1111111111100000
1111111000111011
100101011
1001101000
111110101
1011100
1111111001101100
1111110101001100
1111110101111101
1111111001100000
1111110110100001
1111111001100111
1111100100000001
1111110110110111
10111111
10011101101
11101011101
1001000100
1010001011
100010100
1111111001111011
1111111001110011
1101110
1001111000
1010011011
10101111
100000
1001110110
1111111011010111
101010
101010111
11100000
10011001
101010111
1111111010000001
10010
1111111011010011
1111111001000100
111100111
110110010
1111111001110001
1111111001010011
1111111100011110
10000110110
10011011100
1111110111000001
1111111000000000
1011111110
1111111100100000
1111111110100110
101011000
100100000
11011111
11001000
101000100
10100010
1111111100100001
11101
110110001
1111111101001100
101011111
1010000111
1000110010
1010001111
1100001100
1011001000
110011101
1100111001
1000100110
1111100110110011
1111110010100100
1011001101
11100100110
1000101011
1111111111110010
10101111101
1110100000
1111110111100101
101100
1111100
100000
101111101
110111100
1111111001111101
1111111011010001
1111101000100111
1111110011000100
11101110
1110011011
1000110100
11000011000
10101110111
10010011011
1100000111
111000100
1011111000
111001110
1111111001110010
1111111010111110
10011100010
11001100001
10101110101
111010100
10011000
111101
1111110101111101
1111110111010010
1111111101111110
1010111000
111001010
1100010101
10111011
1111101011010111
1111100111000111
1111110010100011
10100011
1000001111
100111011
1011111010
1000010111
101110100
1100000100
1110000000
10011000011
10111101
1111111111010100
1001110001
1101000010
11011100111
10000001010
101001100
110101111
100000001
111111101
10000010110
1001110111
1111011010
1111111010
1011010001
1111110010101010
1111011000101000
1111011011100111
1111111110011000
10001001110
1000111011
1000111
1111111011100000
1000001010
1000010001
1010011101
11000001010
100111011000
1011001011
10111000101
1100000100
1111111110110110
10001101001
10011010111
1111100111
1111110101111100
101101111
1100100111
1000001010
10000000010
1110111111
1110001101
101101001
1111101010000100
1111010010010101
1111101001011001
10000010
11001111
1111111011010100
1111111001111100
1111110001000110
1010111
10100
1011000
10110001
11010101000
1110000101
11001100110
1101010101
1111111110111111
111111001
11100111101
111001101
1111111000010111
1000101101
110000110
110
111111111
1101000101
1101111101
1100111
1111011101111001
1111011001010011
1111110010101010
1111111110100000
1111111111110100
1111111010101100
1111111101000100
1111110010101011
1111110111011011
1111111111001101
1011111000
110011100
1111111110011110
1111111101011011
1101101001
1111111100010110
111101011
1111111101101110
110100001
101110001
1111111001010000
1111001
1000001111
1110110000
10001010
1100010111
1111111011010001
1111100000000011
1111001110001110
1111110101010000
1111110110100111
1111111111111110
1111110100000100
1111111001100001
1111111100000101
1111110101001010
1111111000000011
110110110
1001100010
1111111111110110
1111110001110111
100110100
1111110111110011
11101111
1110011000
1111111001010011
100000001
1111111111001100
1111111101111110
1111111111
1001001100
10001110111
1111110110
1111111101001000
1111101100001100
1111001100111011
1111100111110011
1111101100111110
100101101
10000110
1111111110001101
1100101
1111110100010000
1111111111010011
1111111011010011
1111111001111111
1110100
1111111011000011
1111101010011111
1111111101001010
101
10010010
1100100
1111111101111011
1111111111101000
1111111001010111
100010000
10000000010
1111111100110101
1111110100111111
1
1111110011111000
1111100001100001
1111101001011101
1111101110101001
1111110110111110
1011001
1111111010111111
1111111100110101
1111111100101011
1001000111
1111111010101101
1111111110111010
1111111011001101
1111111111001100
10000110
1111110001111000
1111110101000111
1111110001010010
1111111001000011
10001100011
1111111111010100
11101111
1111101011010011
1111110011111010
100111011
1111111000111101
1111111101011101
1111101100111001
1111110100010110
1111110011000000
1111110000100101
1111111000010111
1111111011110000
1111111101101100
1111111011010000
1111111011011101
1001111
1011001001
1111111010110001
1111100
101011100
111011001
100101110
1111101110011001
1111111010000110
1111101111101000
1111110100101110
1111111010100011
1011111001
10011010111
1111110011100101
1111111110001100
1111111110011111
1111111000010000
1111111110111111
110000
1111111001011101
1111111101000010
1111111000101000
1111110001101011
1111110100110000
1111111010010000
1111111101010110
1111110110001010
101100011
1111111011001101
11111010
11111110
1111111001101101
1111111010011111
1111110110010100
1111110111011101
111
1111111010010000
100100001
111
110111111
1110010010
1000100010
1111111001011001
1111111011011000
1111101110011001
1111110111010001
100010111
1111111110111011
1011100001
1101111
110111001
11011
1100100
1111111001001101
1111111111010000
10000011
1111111000101110
1111111101110100
1111110101111010
1111111010110100
1111111100010111
1111110111001001
101100101
1111110101101111
1111110010110010
1000100
1111111011110101
10010111
1001100101
1000100
1111110000111000
1111111101110110
1111111101001011
10000111
1111110101
1001111000
1110111011
1110010001
1111111100010110
1110
1111111010101101
10100
1000010000
1001110
1100101
1111111110000100
10010
1111111100111010
1111110100110001
1111111101101001
1011011100
1111111111000011
1100100110
1111111101110110
11001010
10010
110000101
1111111011001110
1111110100001011
1111111110101111
1111111110011011
101111011
10100100101
1110111100
1111111111101111
1111111010000110
1111111011101001
1101011
1111111110111010
101011001
1111111010001101
111101
10011000
1111111011010010
1111111110110111
1111111110000000
10010101
1111110111100100
1111111110011000
1111111100100011
1010001010
11000000
10110110
1000000
1111110000111110
1111110011100000
101010101
1110111
110011100
110010000
1011000
1101110000
1010000010
1111110111100101
1111111110110010
1111111111000011
1111111111000100
1111110111111010
1011
100010011
1111111111011110
1111111101011011
1111110100100100
1111111111100010
1111111001011111
1111011110101110
101101101
11011011
1010110
1111111100110101
100011010
1111111011111011
11111101
1110001011
1000000000
1100100000
10010111111
1100001011
110101101
1101000010
100010010
111100000
1001010000
1111111001110101
1111101
1111110111011000
1111111100010100
1101010
1111111011110000
1111110011111010
1111101111110100
1001101001
1010010
1111100110111011
10011000
10000100010
1111111101111001
11111000
101010101
1111111011011110
1111110011001100
10000001100
100100000
100110110
11000010
1100
100110011
101100101
1111110010001010
110001000
11110111
11101100
1000101011
111000001
110001110
110100010
1111111111011011
1111111011111101
1111111000000011
1001101000
1011101101
10000011
1100000001
100011001
1111111100101111
1111111111111011
1111111010111100
1111111101001110
1111111101010110
1111111001010111
1111101011101100
1111101100100001
1111110011010110
1111110011001000
110000110
110111111
1111110010010000
1111111000111010
1111111100110010
10010110
101011101
10010001
111000101
1001110011
1100111110
1101110000
1101010100
1000100101
11100011001
11111110
1111110010000101
10000011011
1111111011110000
1111111111110001
1111111111101010
1101000
1111111010111101
11100
1010011101
10110111011
11101000011
11111100001
100011110000
101001100
10010010010
1111111010010010
11001100
11010010100
10010100010
11011101
1001100110
10110100101
101110110
111110010
1001010010
10001100011
1001000110
10011010101
1011011
1111111110100000
1111111111111011
1111111101001011
