1111111100110001
101000101
1111111110100000
1110
11101101
11110000
10010000
101001
100010101
11101101
1111111111011010
10100010
100001111
10001001110
1110001010
1100010
11010000
1111111110111100
11100110
1111111100101011
1111111111010001
1111111010111001
1100110
1111111111000110
1111111100001001
1111111100101110
11000
11001100
11000110
1111111100110100
1111111110111111
100000
101010000
1001000111
1110101110
1110011100
1110100011
1110100101
1001010001
10100000000
11110001100
100110001001
1000101111
1111111111010110
1111000110
11011000011
10110001000
10111010
1001111
10000000001
10000101111
10100101100
1111111100101100
11110010
11110101
1111111111111000
10100100
1000110
101001101
10110110
1111111101011110
1001111110
1111101111
10101110000
101000100110
101000000110
101001111111
100010000000
1111001101
11100
1111011001
111101000
1011000111
110111100
110101010
10110111
1111111011101000
11011010
1010011101
111100111
10001100101
110001100
1100000
101000101
1111111111001011
1101100
1111110100000010
1111110110110011
1111111001110001
10000001101
10011110001
1000110
10010001011
10101000000
110011010
11000000
1111111100110101
1111111101110010
1111111111001111
1111111111101011
110101001
1111111100110100
1111110101110100
10110000
1111111110011101
10010101111
10011001101
1110110101
1001001
1000001
1011101111
1111111100110100
110110
110100
1111110000000111
1111101111100011
1100101
10100110010
1001000101
10101010
100010110
10001
11100010
1111111101000110
1111111001001010
1111111000111100
1111111000100111
1111110010010010
1111110101100101
1111111010000100
11010110
101001101
1111111111110110
1111111100101001
1111110101001110
1111110100111100
101001100
1101100110
10000101000
10001110000
1111111101100110
1111111100101010
1111111011000110
10000111
10001011110
111110010
1111110111101010
101101101
10001101001
1001000011
1010100111
1011111
10011101
1111111011110110
1111111011111111
1111111100011101
10011
1111111010001001
1111111100010111
1111110011100100
1111110100101001
100100000
1111111100100001
1000101010
10110000
10011110110
10000001010
1000110000
1111111100010000
1011001110
1111110100101000
1001000100
10001011011
1000101111
1111111110100011
1101001010
10110000
1001101111
1100110111
11110111
101110011
1111111010011101
1111111110000001
10101111
1000001
1111111110010000
1111110010000110
1111111110111101
1111110111111010
1111111001011011
1111111111010111
1111110101101100
1111111101101010
11000011
1000110101
10100011001
1111111110001100
11100100101
1010011101
1011111101
1110110011
101010101
10111000
100100101
1110110
1001011001
1000001010
111100110
10011001
101110111
11011100
1111100
1111111100111110
1111111010000100
1111111110000001
1111111110001001
1111111111011000
101010000
1111111011111010
1111101101110010
1111110010100010
1111101000100101
10111100
10001011000
100100101
10100110001
110100100
1111111110110100
1101001101
1001100010
1111111010100000
100111
100001101
1010001100
1011101101
101100110
101000111
100
1101101111
1000010010
1001000100
10100101
101001
100010100
110100010
1111111001011010
100010101
1111111100110000
1111110101100001
1111101000010010
101111110
100001
1111111111100111
1001001011
111111111
10011
11000010
10001000111
1111111000000001
1111111010110010
1000000
1101001
110011011
11101100
1001111100
1111111111001001
101101000
1111111101010010
1111111011011111
10111010
1111111001101101
1111111110000000
1111110101000001
1111110100111011
111010000
1001100010
1111110111110101
1111111100111011
10000000110
10111010010
101011001
110100101
1000001001
1111110011110110
1111111110010010
11011001
1111111010111100
101011101
1010101100
1111111110010001
100000101
1111111000001100
1111100111011110
1111101010101000
1111110000000111
1111111111011110
1111111101111110
100110100
111111
1111110110110010
1111111011010110
1111111011101100
11101100
1111111100111001
10011101000
1000100
100110001
1110010100
1111111101110010
100000101
1111110101011110
1111111010111100
10000110
1100001
1111111100110101
1100100100
101100000
1111111011101101
1111110011110010
1111110101110000
1111010011000111
1111010111000101
1111111110011011
1111111110011010
1111111101101011
1111111011001100
1111111011000111
1111110110000101
1111111011000001
110000000
111101001
11001010
101000000
110000100
1111101101100010
1111111110000011
101111101
100101000
1111111101001001
10100
1111110010101001
1111110011100111
1111101101101010
1111111001011011
1111110001101011
1111100111000001
1111100010001100
1111010110000111
1111011011001001
1111101011111100
10101001
1111111100101101
1111111100001011
1111111011000011
1111111000000000
1111111100111111
1111111000110000
110111011
1111110111011110
1011011110
1101101001
1000010001
1111100110001001
1111111111101100
1111111010110000
1000101001
1101110000
1000010000
1111100011010010
1111100111111010
1111100110111101
1111010111100010
1111100001001000
1111010101100110
1111011010010101
1111100011111101
1111111011000111
1100110100
1000011110
1101010
1111111100010010
1111111100010111
1111111100011000
11000
1111111001101100
1111111011110101
1111111100111100
10101110000
10111011001
1111110101010100
1111101011110010
1001101010
11010110
110101011
10011101101
1011011
1111010110000100
1111101001001111
1111011101011011
1111100101100101
1111011111101101
1111100110110011
1111111111011001
10100001
111110011
1100001100
11111101
10100100
1111111111010110
1111111110110100
1111111110010011
100001110
1111111111011010
10000100000
1000010111
1000110101
1100101000
1111111111110110
1000011101
110110111
100100001
1111111010100010
1111111011111011
1111111100001110
1111011100110001
1111110001011011
1111101100101111
1111110010100111
1111111001011000
1111111101010100
1001110101
1001001011
111001111
1101101100
1100010
1111111101010011
1111111101111000
1111111101100110
1111111111111011
10101000
11100001
1000111101
1111111111011011
1111101100
10011001011
10000111000
1110
1111001001
11001001
1001100011
10010110
1111110011101000
1111100110011110
10110111
1001110111
1111111111011001
11010101
1111111111001100
1100101100
101110010
1111111110010110
1000001010
11010111
1111111010101000
1111111111100100
11011010
11011100
1111111101011000
1111111010000011
1111111001000101
1111111111000001
1011101010
1000000001
10000100101
101110000
1110000010
100011011
111000001
1000011110
1111101111111010
1111110101000010
11010001
111011001
101010100
1111111101101110
1001110
110110101
111001100
1101110010
1010010110
100010001
1000111
11000100
1111111100000110
1111111100011110
100011000
1111111001101010
1111111011111100
100111111
1000100101
101010111
11011100001
100000010
10010000011
1111111110011011
1111111110110010
1111110101001000
1111111110011011
1111111101010001
1111111001110010
1111110110111111
10001000110
1111111111110001
1111111110100010
1111111110100100
1111100
10001000011
1011011000
1011100
101101100
111001011
11110011
1111111100111100
1111111010001110
1111110110101110
1111111011011111
100110100
1111111111100010
1111110010101100
10110101001
10101001000
1111110000
1111110101111000
1111111001101100
1111111111011100
1111101110110101
1111111111001011
100000
101000100
1101111
1111111100000011
110100
111100001
1001011011
101110110
1011110010
1000110011
111001111
1111111101100100
1011001011
1111111110101010
1111111100001000
1111110110111010
1111111111110011
1111111100111101
1111101111010010
1111101010000001
1000101111
1101101010
1100011111
101011101
1010101101
1111111101010100
10001111
1111111001110111
111000100
11111101
1111111011100000
1111111010010001
100100010
10101101
101010110
1100010000
1001101010
1100111010
10000110110
1010001011
101010110
10100101
1111110011001010
1111111111101001
1000110100
1111111010001111
1111110110001000
1111110101100011
11010100000
1101101101
1111111100010001
1111111010010001
1101110000
101000110
1011000
1111111000010011
1111111010111111
1111110111011100
1111110001100010
1111110001110111
111101011
1011111110
110000010
1001011011
10100101111
10010111111
1010101110
11001001
1000111
10101101
101110001
110110001
1110
1111111101110011
1101110
111010011
10101111100
10000000000
11011111
1111111010010100
1111111010110001
101110011
1111110111100010
1111111000010101
1000101101
1111111000101100
1111110110111111
1111111110110010
1000011010
10010110
1001101
1101000
101011010
100011110
101100
1110101
1010
1111111111000000
101110101
1111111000110101
10011001
1111111101101101
1111111010001001
1111111011100110
110001101
10010101
100011110
101011001
1111111101011011
1000001001
1111110100011111
1111101010111111
1111111010011000
1110110000
1000001110
1111111110001001
10001101
1111111010000001
100000000
100110001
10110111
1111111110000010
10100010
1011010
1111110101011111
1111111000111001
10000
1111111000110001
1111111010111010
1011000
110001
1111110001100000
10010100
11110001
100101010
11100101
1111111011011001
1010011
1111110110101001
11
111111011
11101111
1111111111100111
1001110101
1000011111
1111110010011111
1111111111011100
10101001
1111111011110010
1111111010101011
1010111010
1111111011111001
1111111111001100
1111110101000100
1111110100001110
1111110101000010
1111100
1111111101110011
1111111100101111
10100001100
1101000010
1011100101
11011110
101010110
111011
1111110110000000
10001111000
1111110111010011
1111110001010101
1111111110001111
100100100
1111111110011010
11000111
1100100
1111111010010010
1111111101100111
1111110001111111
1111111011100111
1010100010
1111111110111000
100100011
1111111111111111
1111111110100011
11000001
1000110101
1111000
1111110011001000
1111101111011111
1111111111011000
1010100011
1111111101001111
10111100
1111111011101100
1111111111100011
1111111011111001
1111101011010100
1111100001111101
1111101011000101
100101
1011001100
110001111
1011000101
11010
1111101111000000
100011100
10010000101
1100010101
1111111101001111
1111111000011110
1110010
1011010011
1111111010000110
1111101110110110
1111110001001000
1111111111010111
1111111100000000
110110001
1111111010100110
1111111100100000
11110001
1111111100010101
1000
10010001
100100000
101001011
1010101101
1001000101
10110000
1011100001
1000011100
10000111111
11110100101
1001010110
11000110
11011110100
100011110101
10111100111
10001001100
10100110
111101100
1001111
1111110110011001
1111111101110110
1111111110010110
10100010
1111111100111010
1111111100000000
