10001111011
1111111100110000
101001001110
1010100000
1111101001110111
11001010111
101000000
11101011010
1111011111001001
1111110111011000
10010000011
1111101110011011
1100011100
1111110001111011
1111110110001010
1111110111101011
11110001110
101001010
110000111
100001101110
1111101110111000
11100111
1010001000
1111110111011100
10100001111
10010011110
1110100010
1111011000111110
1111110000100100
10110001101
