111100001
1111111101010110
10001100100
1011110111
11011111100
101001111
1111110000101101
11110001010
1011111101
1111101100001101
1111101100000111
1111110011011011
111011110
1111100111001001
1111011001101101
10100101111
1111100101100100
1111101010001010
1111100011010101
10101110010
1111100100000111
1111111001001000
10100000110
1111101001101110
1111111100101010
1111010010000101
10001111
10000001100
11111110110
1100000010
