1111111111111000
10110010100
1111101100111100
1111010111100111
1101100011
1011010001
10111100111
1111110000001010
1001011110
1010111
1111101011100001
111110101
1111010000
1111110110100101
1111110101101001
1111101011111110
1111111001110000
1011100011
1100010100
10011100000
1111110100000001
1111100110000000
110010010
1111100011011101
1111101110101001
1111011111100000
1111101110110101
10000101100
100101000
10110011010
