1111111110110110
1111110110010100
1111101011100101
1111111110000100
1010010001
1111101001011010
1100011101
10110111011
1111111100001001
1111101100010101
1000001100
1111101100110001
10000101100
11001010101
10000000000
1111010110010010
1100100010
11011111110
100110
100001001111
1111110101001011
111100100
100000010100
111000000
1111100010011101
1111111000000100
1111110100101011
1111011111000001
10010101011
11111111111
