1111110110101100
11101010101
11010111001
110010010
1111110010001101
1011000110
1101110101
111011111
1110000
10000011111
1001110111
101111000
11101110111
100101010000
100010101
1111110001010000
1111111010010110
1111111110101111
1110000110
1100011100
1111110111000111
1111111110111011
1111100010010100
1111010010100100
1111111011110100
101111000
1111110110111001
110111010
1010111101
1110010111
