1111111001000001
100011001
1111101110000001
1111001101111100
1111110000010011
1111110010111011
1110101001
1001100010
11100111001
10000011110
1111100001111011
1111101100110111
11011011111
1111101101101000
1111111011101110
1111101010110000
11000010010
1111000010
10101110111
10001110101
1111101111110000
1111101001111010
10010001100
1111010111011100
1111110101011101
1111111110001100
1111111111011011
1111110010110010
10110010010
10101000001
