1111101000011111
10111101001
1111101101011111
1111101111001110
1111111111010110
100011100100
1010110100
11010101010
10010101100
101000011
110101111
1000000010
1111100000100000
1010110111
10010111110
10010000011
1111101101011110
101010000
10101000010
10000000000
1111111111110011
1111110101101000
1111011101101000
1111111101110010
1111010100
11010011100
1111011010110000
1000001111
1111110001000100
1111101000001100
