10101010000
1111101001111111
11001010110
100111000
10101000001
1111011111000000
1000110011
1111111011111000
10010110011
1111111011110000
11000110111
1100001100
10110100001
1111101101010111
1111110101010010
1111110000001110
10010101
1111110000111010
1111111010100110
10110111
1111101011010011
1101001010
10000101001
1111111100001101
11011101000
1111110001001101
10010111111
1111101010001111
1111100001100100
1111110010010110
