11000100110
1111111001000011
1111111010011100
1100001011
11000001110
100011111110
101100011
100011000101
10011100
10101010101
1111111100110010
1111110101011001
1111101000111110
1111100000101101
1111110011101010
11001101001
10000011011
1111101011110001
10101111111
1111100001001000
10111110
1111111010000000
1111101000011010
10100100110
101101010101
1111111001001001
1000101111
1111100110011010
1010101001
110100101
