1001001101
110
1111110100010000
11110100101
1111111101001111
1111111001101111
10010111001
11101
11001101101
10000101101
11010111011
110110100
100010100
1111110111010111
1111111010111001
100010100
1001011011
1111111001100000
1111101110111010
11010001001
1111111100000111
11110010100
1111100011100100
100100110110
1111101110110101
10110101100
1111100000001011
1111101100000101
1011111
1111101010010000
