100001101000
1111010101110101
1111111001001100
101101010
10001101000
1111111011100111
1111110111011001
100011100
1010100101
1111111001011001
1110101001
1100101101
1111111110011010
111100101
10100111001
1100011001
10010101000
1111110010010111
1111100111100110
1111101111011100
1111110101111011
11111110010
10001101
1110000100
10
1101101100
1111111101011001
1000100011
1111111100100111
10111011100
