1111011111110111
1111101011
1111101100001001
1010001001
1000011010
1111101100101111
1111110111111000
1100011101
1101001010
11000011101
11001110111
101001001101
10100010111
101001010101
1111111101011001
1111101110010010
1111101011111110
10001110001
101101
10110
1110111
1111100111000000
1001100111
1111111100011111
110011001
10011111011
100100
1111110010100100
111111111
1111110111101110
