1111111110011011
1111111001100000
111001101100
10010110111
1111110101110010
101001101
1111110110001000
1111101111111011
1111110110010100
1011010110
11100111110
1111100001001101
11010001
1111101010100111
100111000011
1110000000
10010011000
1111101110011100
1111111110010110
10101
10100000110
1111110110100001
1111111001110111
1100101101
1111111110100011
1111111111000111
11111001100
1111101110100010
1111011110110111
100101000
