1111111110011101
11100010110
10100010110
1111110001011110
1111101011111000
1000001111
1111111011101011
1111110011100000
1111101100010010
1000110000
1111111000001111
11010001100
1111111001111010
10001110110
1111110101001101
10111101000
10010001
10000101011
1101011001
1111010110000100
1111110001011001
110101010
1111110101100000
10111000
10111001111
100011001
101000000
1111111100110100
1111111110010010
10001100101
