1111110001000011
1110000011
1001000001
1111111111101010
1111110110101010
100011111011
1111101110010100
1111100111001110
1011011010
1111111101010111
100000010011
101010101
1111100110010100
1111101100111111
11101001100
11100010100
1111101010101101
11110110101
1111101111111111
1111101010100011
1111110010010010
1111101101111111
1111110110101011
1111101110010011
1100011101
1111111110010010
11100000100
1111100000001110
1111100011100111
1111111001010010
