1111101011110101
10010010110
11000001111
1111111100100110
11000000001
1111110110100011
11110101110
111100111
111111111
10001100000
1111110110
1111111000101010
1010010001
1111010101110000
10011100000
1111101000100111
1111101010010101
10110010011
110000
1100001101
1010111100
1111011010100101
110111110
1111110100101111
1111111111111000
1111101011110001
10000000111
1111101001010000
1111110011101010
1111110010001110
