100101010011
1111110110110000
110100011
1011111001
1111000010
1111110101011101
10010000001
1111110000101001
1111111101111100
1101101010
1111101111110100
1000110100
1111111010001110
10001100110
1111011111000000
10100000010
10100111001
1111101000011011
1111111111011001
1111111011011100
10001110011
1111111111010001
10100100100
100100001
110010011
10000111110
1111101111
1111111101001101
10110011001
1111110100111100
