1111110000110100
1111111101110000
10000101001
1111101110000001
1111101110111101
1001110000
1111111110101000
1111110011100110
110111001
11011111110
10001001110
11110100101
1010010111
11001100001
1000100
1111111000100111
1111101100000111
1111111111111011
1111110001010111
1111100000010100
1111110011101011
1111111011000000
1111110001101101
1011101110
1111101100101000
1111110111111001
1111100101110000
10000000100
1110001100
1111010000111101
