1111011011
1111110011110110
1111101010010110
10101001100
100111011
1111110110010010
1111101110111001
1111110000010000
1111110110010000
10010011010
1111101111101101
11100101110
10001001101
110110010011
1111010111000011
1111111100100010
1010001011
1111101110111011
1111111010000111
1111111001000101
1001110010
11110001001
1111110111011111
11010101101
1010101011
1110010100
1000101001
11010111110
1100010001
11100100101
