1111101111001110
1000100011
11001101111
1001001
101110
1111111001010101
1000111011
11001011101
1111100111100100
110000000
11111110001
1111110000101110
1111001100001010
1111101100111100
101100010011
1011010110
1111110001111001
1111110011010011
1111110110100001
1111110000110010
1011
111011100
1111110000011101
11100011
1010101001
11010000011
100000011
1111110101010010
1111101110110100
101110010
