10000101001
10001101100
111001000
10000011100
1111111100000100
101011100000
11110001
110000001
1111101011100001
1000011110
101
1111100101110101
1111111011000111
1111110011111110
1111111001001001
100100000010
100101110
1111101011010100
110010001
1111101111111011
1111111101100010
10011001000
1111101100000100
1111101000010111
100010110
10110011010
11011010100
100110011100
101011100
1111110011000001
