1111010011010111
110
1111100111111010
1111001011100111
1111100111110010
1111101001
1010110011
1110000001
10001100010
101010
100100010
1111110101100111
1000100001
1111111001001001
10011001011
11111000101
11111100
1111111111100010
1111110101010011
1011010001
1111111001001001
10011001100
1111110001110100
1111100101100000
1011110000
1111111000111001
1111110011100010
11100111011
100111100
1111010011001000
