1111110101101000
10100110111
10110100011
1111110100010100
10000000010
1111101011010100
11101111
1111110010111000
1111110001111011
10010101111
11111110
1111111101010010
1110100110
1111011011000111
10110001111
1111101011010101
1111011110110101
11111111111
1111111000000110
11100011101
1100001101
101001011
101011100011
1111111110100000
1111111001010011
1111101010011111
101100101
1111111000101110
1111101010011110
1111101110011111
