11001011110
1011011101
1100100110
1101010111
1111111100000110
1111111111010000
1111111010010010
1111110011111010
1111101101001010
100100111
10111010110
1111110101010000
1111101011101011
101010101
1101001111
1111101110101000
10010110000
11010001100
1111110010100010
11110111111
11001101111
11110001010
11011101010
110011010
1111100010010000
101110100
1111010011011110
100101111001
1111100111101011
1111101011011001
