1111100101111011
100111010
10001101011
1110000010
1111111001001000
1111101100001101
1111111000101000
1111110101000001
1111111110010000
11110010000
1001011011
1111111000010111
100001110101
1111110100101111
11111101101
1111101011100101
111110110
11111101
1111110100
1111111000100100
1101010000
1111110111011001
1111110100001000
1111111010100110
1010011100
1100000111
11010011
1111110010011101
1111110101001011
10011111001
