1001111011
1111100111000000
1111100001110101
11101001
1111111010101101
1100000001
1111110101111010
100100100
10000111
1100111110
1111011111101101
1111110001100000
11000000001
10011101010
1111100111111001
1010011101
101110101
1111100101010100
10011000111
1111110011110110
1111011111011111
1111001010111110
1111101011100100
1010101
1100100
10100111
1111101100001011
1111111101011101
1110000
1111111100111110
