1110110011
111100000
10100011001
1111111000100011
1111110010100010
1111110011001010
1111110110101000
1111001101101100
1110001010
1111110100111111
1111111010110001
1111101110011110
1111111101011100
1111101000010001
1111101011101011
1111111011011110
100001000010
10101101111
1111111000011100
1111111000110111
1111110011101101
1111111101110011
10000000100
1010011110
1011100
10110111
1111111010101101
100110100010
1111110000010100
1101011100
