1111110110111100
1011001010
1111110010001010
11010010000
1111110010001100
1111110110010110
1111100111001100
1111111101110011
11010011001
11011000010
1111011000111001
1111111000011000
1111111011011011
11011000110
1111001011001101
1101010101
1111100010100110
1111010010001100
10001011
11111100100
1111111110011000
1111110100011101
100010110
1111101011100110
1010101000
1111110001011000
1111101110100100
10001100111
10000100001
1001011011
