1111000000
11110000110
11001010
1111110000100111
1111110100100101
1111111010110010
11010
1111110000101011
1110010
1000000001
1111110011111110
1111110001110000
1111110101100110
1111110100000111
1111110001111110
100011010010
1010101010
1111101101110010
10000110110
1111111100111011
1111111001101000
1111100100111001
10001111
1111110110000100
1111110010101100
11011000111
100011001010
11111111
10100010000
1111111101111111
