10110010101
1111100100110010
1111110111001011
10101001
1111110111101010
1111010001000001
1101
1111000001
10000010111
1111111010101000
10111101
1110101111
1011011110
1111100011010001
1111111101000000
1111100111111001
101010000101
11110111010
1111101101100000
1110011110
1010000110
1111111110110101
10000011100
1111110110000000
10101011
1111111001010101
101001
1111111101000011
1111011100100001
10001011011
