11001
10000001101
1111110111100110
101010000
1111011010100100
1111110100111100
1111011000101111
100001101101
11111000010
11011010
1111101100101010
10001010010
10010010110
11001000101
1111111101011111
1111111111101000
11101000000
111100101
101001000111
1111101100100111
100011100111
11000001101
1011000000
100
11011010101
1111010001001110
1111100000100000
1111011000
1011110001
1001101000
