1111100111010110
1111111001100010
1111111001100110
1111111010111110
10011011100
1111101001001110
10011000001
1111100010110110
10111
1111111110110000
10010010110
1111111111111001
1111110010110101
10000100001
1111010111001110
10001000100
110100011
1111101110100000
1111100111110011
1111100010101110
1111111111110110
1111100011111011
1111011001100111
11111101111
10111011101
1000010110
1101001010
100100111110
11100001000
1111111000010111
