10110001110
1111100110010110
1111100000111010
1111100000101101
110100001
101111000001
1111101110101001
1010111000
1111110101100111
101110111011
1111110010110110
1111001010
11010000110
1011111000
110101110
110100001
10011001111
1101001100
1111111101001011
1111011011010101
10001101101
100001101100
1111111100010110
1101101111
1111101011001000
1111101100001101
11011111011
110011010
11011101011
100011011111
