1111011111101001
101111110010
11010101100
1111110110111000
1011011001
1111111000000001
1011011010
1111100011001010
1111110111110000
11101101110
1111101000110010
1101100
1100101
1111110110011010
111111101
1111110000101001
100100000110
1000110010
100001001001
100010110000
1111100111000010
1111110101111000
1010010010
11111101010
11110101101
1111101001001011
1001010010
1111110000101111
1111110000010011
1111011111010011
