1111110111100101
1111101100011111
10010001101
1111110110111110
111001
1111101010110001
10111101010
1111101001010101
11001010011
1111111110111010
10101110110
1111110101011010
11101100000
1111100100111111
10001100100
1111111010010100
100101110
101110010010
1101000110
10100111
11011110101
11000011001
1111101001101000
1111110001011100
10110000100
11000000001
1111111110111011
1111111011110011
10101111111
1111101010001100
