1111101010110000
10101001
10001100111
1111101010110101
1101000
100110011
100001
1010110110
1111101111110111
1111100001000100
11001010110
10110010000
10001011000
10101000011
1111100110011111
1111111001000000
10101110010
10011000111
11001110011
1111110111000000
1111101001011100
1101111110
1111111000111001
10100011110
111111110
10101001011
11010010100
101100001110
1111101110111101
11111110011
