1111101111000010
1100011100
1101110001
1111110011011000
10100000001
1111101000001101
1100001101
1111011010111110
10110001011
111011101
1111111001100001
11011110001
100111
1111101011011111
1101110111
1111101011101010
1111001101100000
10011110101
1111110101100010
1010100010
10111110110
1111100111001111
1010011000
1111101000100001
111100101
1111100101101101
1111111100000000
1101110101
1111111001011111
100011111
