10110000110
1111101010111011
11100101100
1110011110
1111111101100001
11110111011
1111111010011011
10000100010
1101111010
11000111
110100001
10000001111
1111001110
1010010000
1111101111001100
10110011111
1111001010011111
1111101010111000
10101011100
10011110100
1111101100101110
10010010011
100011001100
10000101110
10000101110
11100111110
101011011100
100011011000
1111111101100010
1111111101010000
