1111110101101111
1000011001
11100101011
1111101100000101
10010010011
10001000001
1111101101100000
1111111000010011
1101100000
11010100
10101000001
1111111001100110
11101000100
1111111110010000
1111110001100011
1110101010
110000110
100100101001
1111100111100011
1100001110
1111111011101100
101110111
10010100110
1110001001
1111011111101111
1011000111
1111011100101011
1111010100
1111101110000111
1101000101
