100001001110
10101010110
1100111011
101111111001
1111110000111111
1111011111100110
11000100001
101110100001
10000010001
10000001111
11100111
11100000110
101011100
1111100000101010
1111100001011011
1111011110110110
1111100110000011
1111100110110010
1111100110100010
10100111
110101100
1111100100100000
101111111111
1111100100001000
1111101110110111
1101011110
1111111110011111
1111110010001001
11100110110
100111111
